{
  "version": "1.0",
  "truncation": null,
  "padding": null,
  "added_tokens": [
    {
      "id": 0,
      "content": "[PAD]",
      "single_word": false,
      "lstrip": false,
      "rstrip": false,
      "normalized": false,
      "special": true
    },
    {
      "id": 1,
      "content": "[UNK]",
      "single_word": false,
      "lstrip": false,
      "rstrip": false,
      "normalized": false,
      "special": true
    },
    {
      "id": 2,
      "content": "[SOS]",
      "single_word": false,
      "lstrip": false,
      "rstrip": false,
      "normalized": false,
      "special": true
    },
    {
      "id": 3,
      "content": "[EOS]",
      "single_word": false,
      "lstrip": false,
      "rstrip": false,
      "normalized": false,
      "special": true
    }
  ],
  "normalizer": null,
  "pre_tokenizer": {
    "type": "Whitespace"
  },
  "post_processor": null,
  "decoder": null,
  "model": {
    "type": "BPE",
    "dropout": null,
    "unk_token": null,
    "continuing_subword_prefix": null,
    "end_of_word_suffix": null,
    "fuse_unk": false,
    "byte_fallback": false,
    "ignore_merges": false,
    "vocab": {
      "[PAD]": 0,
      "[UNK]": 1,
      "[SOS]": 2,
      "[EOS]": 3,
      "!": 4,
      "\"": 5,
      "#": 6,
      "$": 7,
      "%": 8,
      "&": 9,
      "'": 10,
      "(": 11,
      ")": 12,
      "*": 13,
      "+": 14,
      ",": 15,
      "-": 16,
      ".": 17,
      "/": 18,
      "0": 19,
      "1": 20,
      "2": 21,
      "3": 22,
      "4": 23,
      "5": 24,
      "6": 25,
      "7": 26,
      "8": 27,
      "9": 28,
      ":": 29,
      ";": 30,
      "<": 31,
      "=": 32,
      ">": 33,
      "?": 34,
      "@": 35,
      "A": 36,
      "B": 37,
      "C": 38,
      "D": 39,
      "E": 40,
      "F": 41,
      "G": 42,
      "H": 43,
      "I": 44,
      "J": 45,
      "K": 46,
      "L": 47,
      "M": 48,
      "N": 49,
      "O": 50,
      "P": 51,
      "Q": 52,
      "R": 53,
      "S": 54,
      "T": 55,
      "U": 56,
      "V": 57,
      "W": 58,
      "X": 59,
      "Y": 60,
      "Z": 61,
      "[": 62,
      "\\": 63,
      "]": 64,
      "^": 65,
      "_": 66,
      "`": 67,
      "a": 68,
      "b": 69,
      "c": 70,
      "d": 71,
      "e": 72,
      "f": 73,
      "g": 74,
      "h": 75,
      "i": 76,
      "j": 77,
      "k": 78,
      "l": 79,
      "m": 80,
      "n": 81,
      "o": 82,
      "p": 83,
      "q": 84,
      "r": 85,
      "s": 86,
      "t": 87,
      "u": 88,
      "v": 89,
      "w": 90,
      "x": 91,
      "y": 92,
      "z": 93,
      "{": 94,
      "|": 95,
      "}": 96,
      "~": 97,
      "": 98,
      "": 99,
      "¡": 100,
      "£": 101,
      "¥": 102,
      "§": 103,
      "¨": 104,
      "«": 105,
      "­": 106,
      "®": 107,
      "°": 108,
      "±": 109,
      "²": 110,
      "´": 111,
      "·": 112,
      "»": 113,
      "¼": 114,
      "Á": 115,
      "Å": 116,
      "Æ": 117,
      "É": 118,
      "Ê": 119,
      "Ë": 120,
      "Í": 121,
      "Ö": 122,
      "×": 123,
      "Ø": 124,
      "Ü": 125,
      "ß": 126,
      "à": 127,
      "á": 128,
      "â": 129,
      "ã": 130,
      "ä": 131,
      "å": 132,
      "æ": 133,
      "ç": 134,
      "è": 135,
      "é": 136,
      "ê": 137,
      "ë": 138,
      "ì": 139,
      "í": 140,
      "î": 141,
      "ï": 142,
      "ð": 143,
      "ñ": 144,
      "ò": 145,
      "ó": 146,
      "ô": 147,
      "õ": 148,
      "ö": 149,
      "ø": 150,
      "ù": 151,
      "ú": 152,
      "ü": 153,
      "ā": 154,
      "ă": 155,
      "ą": 156,
      "ć": 157,
      "Č": 158,
      "č": 159,
      "Đ": 160,
      "ē": 161,
      "Ĕ": 162,
      "ė": 163,
      "ě": 164,
      "ğ": 165,
      "ġ": 166,
      "ħ": 167,
      "Ī": 168,
      "ī": 169,
      "İ": 170,
      "ı": 171,
      "ļ": 172,
      "ł": 173,
      "ŋ": 174,
      "ō": 175,
      "ŏ": 176,
      "ś": 177,
      "ş": 178,
      "š": 179,
      "ū": 180,
      "Ŭ": 181,
      "ŭ": 182,
      "ų": 183,
      "ż": 184,
      "ž": 185,
      "ǐ": 186,
      "ǒ": 187,
      "ǧ": 188,
      "ȭ": 189,
      "ɑ": 190,
      "ɒ": 191,
      "ɔ": 192,
      "ɕ": 193,
      "ə": 194,
      "ɛ": 195,
      "ɜ": 196,
      "ɡ": 197,
      "ɨ": 198,
      "ɪ": 199,
      "ɬ": 200,
      "ɲ": 201,
      "ɹ": 202,
      "ɻ": 203,
      "ɾ": 204,
      "ʁ": 205,
      "ʂ": 206,
      "ʃ": 207,
      "ʈ": 208,
      "ʊ": 209,
      "ʌ": 210,
      "ʎ": 211,
      "ʒ": 212,
      "ʔ": 213,
      "ʕ": 214,
      "ʝ": 215,
      "ʰ": 216,
      "ʲ": 217,
      "ʷ": 218,
      "ʻ": 219,
      "ʼ": 220,
      "ʾ": 221,
      "ʿ": 222,
      "ˈ": 223,
      "ˌ": 224,
      "ː": 225,
      "́": 226,
      "̃": 227,
      "̆": 228,
      "͡": 229,
      "Ό": 230,
      "ΐ": 231,
      "Α": 232,
      "Δ": 233,
      "Ε": 234,
      "Ζ": 235,
      "Θ": 236,
      "Κ": 237,
      "Λ": 238,
      "Μ": 239,
      "Ν": 240,
      "Ο": 241,
      "Π": 242,
      "Σ": 243,
      "Υ": 244,
      "Φ": 245,
      "Χ": 246,
      "ά": 247,
      "έ": 248,
      "ή": 249,
      "ί": 250,
      "α": 251,
      "β": 252,
      "γ": 253,
      "δ": 254,
      "ε": 255,
      "ζ": 256,
      "η": 257,
      "θ": 258,
      "ι": 259,
      "κ": 260,
      "λ": 261,
      "μ": 262,
      "ν": 263,
      "ο": 264,
      "π": 265,
      "ρ": 266,
      "ς": 267,
      "σ": 268,
      "τ": 269,
      "υ": 270,
      "φ": 271,
      "χ": 272,
      "ψ": 273,
      "ω": 274,
      "ό": 275,
      "ύ": 276,
      "ώ": 277,
      "ϕ": 278,
      "А": 279,
      "Б": 280,
      "В": 281,
      "Г": 282,
      "Д": 283,
      "Е": 284,
      "З": 285,
      "К": 286,
      "Л": 287,
      "М": 288,
      "Н": 289,
      "О": 290,
      "П": 291,
      "Р": 292,
      "С": 293,
      "Т": 294,
      "У": 295,
      "Ф": 296,
      "Х": 297,
      "Ц": 298,
      "Ч": 299,
      "Ш": 300,
      "Я": 301,
      "а": 302,
      "б": 303,
      "в": 304,
      "г": 305,
      "д": 306,
      "е": 307,
      "ж": 308,
      "з": 309,
      "и": 310,
      "й": 311,
      "к": 312,
      "л": 313,
      "м": 314,
      "н": 315,
      "о": 316,
      "п": 317,
      "р": 318,
      "с": 319,
      "т": 320,
      "у": 321,
      "ф": 322,
      "х": 323,
      "ц": 324,
      "ч": 325,
      "ш": 326,
      "щ": 327,
      "ъ": 328,
      "ы": 329,
      "ь": 330,
      "ю": 331,
      "я": 332,
      "ё": 333,
      "є": 334,
      "ї": 335,
      "ј": 336,
      "ў": 337,
      "ҷ": 338,
      "Ա": 339,
      "Բ": 340,
      "Գ": 341,
      "Ե": 342,
      "Թ": 343,
      "Լ": 344,
      "Կ": 345,
      "Հ": 346,
      "Ձ": 347,
      "Մ": 348,
      "Ս": 349,
      "Վ": 350,
      "Ք": 351,
      "՛": 352,
      "՝": 353,
      "ա": 354,
      "բ": 355,
      "գ": 356,
      "դ": 357,
      "ե": 358,
      "է": 359,
      "ը": 360,
      "ի": 361,
      "լ": 362,
      "ծ": 363,
      "կ": 364,
      "հ": 365,
      "ղ": 366,
      "մ": 367,
      "յ": 368,
      "ն": 369,
      "շ": 370,
      "ո": 371,
      "չ": 372,
      "պ": 373,
      "ռ": 374,
      "ս": 375,
      "վ": 376,
      "տ": 377,
      "ր": 378,
      "ց": 379,
      "ւ": 380,
      "փ": 381,
      "ք": 382,
      "օ": 383,
      "և": 384,
      "֫": 385,
      "ְ": 386,
      "ֲ": 387,
      "ֳ": 388,
      "ִ": 389,
      "ֵ": 390,
      "ַ": 391,
      "ָ": 392,
      "ֹ": 393,
      "ּ": 394,
      "ׁ": 395,
      "א": 396,
      "ב": 397,
      "ג": 398,
      "ד": 399,
      "ה": 400,
      "ו": 401,
      "ז": 402,
      "ח": 403,
      "ט": 404,
      "י": 405,
      "כ": 406,
      "ל": 407,
      "ם": 408,
      "מ": 409,
      "ן": 410,
      "נ": 411,
      "ס": 412,
      "ע": 413,
      "ף": 414,
      "פ": 415,
      "ק": 416,
      "ר": 417,
      "ש": 418,
      "ת": 419,
      "،": 420,
      "ء": 421,
      "آ": 422,
      "أ": 423,
      "ؤ": 424,
      "إ": 425,
      "ئ": 426,
      "ا": 427,
      "ب": 428,
      "ة": 429,
      "ت": 430,
      "ث": 431,
      "ج": 432,
      "ح": 433,
      "خ": 434,
      "د": 435,
      "ذ": 436,
      "ر": 437,
      "ز": 438,
      "س": 439,
      "ش": 440,
      "ص": 441,
      "ض": 442,
      "ط": 443,
      "ظ": 444,
      "ع": 445,
      "غ": 446,
      "ـ": 447,
      "ف": 448,
      "ق": 449,
      "ك": 450,
      "ل": 451,
      "م": 452,
      "ن": 453,
      "ه": 454,
      "و": 455,
      "ى": 456,
      "ي": 457,
      "ً": 458,
      "ٌ": 459,
      "ٍ": 460,
      "َ": 461,
      "ُ": 462,
      "ِ": 463,
      "ّ": 464,
      "ْ": 465,
      "ٰ": 466,
      "ٹ": 467,
      "ټ": 468,
      "پ": 469,
      "څ": 470,
      "چ": 471,
      "ڈ": 472,
      "ښ": 473,
      "ک": 474,
      "گ": 475,
      "ھ": 476,
      "ہ": 477,
      "ی": 478,
      "ے": 479,
      "ۖ": 480,
      "۩": 481,
      "ހ": 482,
      "ރ": 483,
      "ވ": 484,
      "ފ": 485,
      "ދ": 486,
      "ޔ": 487,
      "ާ": 488,
      "ި": 489,
      "ު": 490,
      "ެ": 491,
      "ं": 492,
      "अ": 493,
      "आ": 494,
      "इ": 495,
      "ई": 496,
      "क": 497,
      "च": 498,
      "ज": 499,
      "झ": 500,
      "ञ": 501,
      "ट": 502,
      "ड": 503,
      "ढ": 504,
      "ण": 505,
      "त": 506,
      "द": 507,
      "ध": 508,
      "न": 509,
      "प": 510,
      "ब": 511,
      "भ": 512,
      "म": 513,
      "य": 514,
      "र": 515,
      "ल": 516,
      "व": 517,
      "श": 518,
      "ष": 519,
      "स": 520,
      "ह": 521,
      "ा": 522,
      "ि": 523,
      "ी": 524,
      "ु": 525,
      "ू": 526,
      "े": 527,
      "ो": 528,
      "्": 529,
      "।": 530,
      "ঁ": 531,
      "ং": 532,
      "ঃ": 533,
      "অ": 534,
      "আ": 535,
      "ই": 536,
      "ঈ": 537,
      "উ": 538,
      "ঊ": 539,
      "ঋ": 540,
      "ঌ": 541,
      "এ": 542,
      "ঐ": 543,
      "ও": 544,
      "ঔ": 545,
      "ক": 546,
      "খ": 547,
      "গ": 548,
      "ঘ": 549,
      "ঙ": 550,
      "চ": 551,
      "ছ": 552,
      "জ": 553,
      "ঝ": 554,
      "ঞ": 555,
      "ট": 556,
      "ঠ": 557,
      "ড": 558,
      "ঢ": 559,
      "ণ": 560,
      "ত": 561,
      "থ": 562,
      "দ": 563,
      "ধ": 564,
      "ন": 565,
      "প": 566,
      "ফ": 567,
      "ব": 568,
      "ভ": 569,
      "ম": 570,
      "য": 571,
      "র": 572,
      "ল": 573,
      "শ": 574,
      "ষ": 575,
      "স": 576,
      "হ": 577,
      "়": 578,
      "া": 579,
      "ি": 580,
      "ী": 581,
      "ু": 582,
      "ূ": 583,
      "ৃ": 584,
      "ৄ": 585,
      "ে": 586,
      "ৈ": 587,
      "ো": 588,
      "ৌ": 589,
      "্": 590,
      "ৎ": 591,
      "ৠ": 592,
      "ৡ": 593,
      "০": 594,
      "১": 595,
      "২": 596,
      "৩": 597,
      "৪": 598,
      "৫": 599,
      "৬": 600,
      "৭": 601,
      "৮": 602,
      "৯": 603,
      "ৰ": 604,
      "ৱ": 605,
      "৳": 606,
      "৷": 607,
      "ક": 608,
      "લ": 609,
      "્": 610,
      "க": 611,
      "ன": 612,
      "ம": 613,
      "ர": 614,
      "ி": 615,
      "ீ": 616,
      "்": 617,
      "ം": 618,
      "ക": 619,
      "ട": 620,
      "ഡ": 621,
      "ത": 622,
      "ന": 623,
      "പ": 624,
      "മ": 625,
      "യ": 626,
      "ര": 627,
      "റ": 628,
      "ല": 629,
      "ു": 630,
      "ൊ": 631,
      "ോ": 632,
      "്": 633,
      "ං": 634,
      "ඃ": 635,
      "෴": 636,
      "ก": 637,
      "ง": 638,
      "จ": 639,
      "ฉ": 640,
      "ช": 641,
      "ณ": 642,
      "ด": 643,
      "ถ": 644,
      "ท": 645,
      "น": 646,
      "บ": 647,
      "ผ": 648,
      "พ": 649,
      "ฟ": 650,
      "ม": 651,
      "ย": 652,
      "ร": 653,
      "ล": 654,
      "ว": 655,
      "ษ": 656,
      "ส": 657,
      "ห": 658,
      "อ": 659,
      "ะ": 660,
      "ั": 661,
      "า": 662,
      "ิ": 663,
      "ุ": 664,
      "฿": 665,
      "เ": 666,
      "แ": 667,
      "โ": 668,
      "ไ": 669,
      "็": 670,
      "่": 671,
      "้": 672,
      "์": 673,
      "་": 674,
      "༌": 675,
      "ཡ": 676,
      "ལ": 677,
      "ུ": 678,
      "ོ": 679,
      "ྷ": 680,
      "က": 681,
      "င": 682,
      "ဆ": 683,
      "ည": 684,
      "န": 685,
      "ပ": 686,
      "ရ": 687,
      "လ": 688,
      "အ": 689,
      "ာ": 690,
      "ိ": 691,
      "ု": 692,
      "ေ": 693,
      "်": 694,
      "ြ": 695,
      "ა": 696,
      "ე": 697,
      "ვ": 698,
      "თ": 699,
      "ლ": 700,
      "ო": 701,
      "რ": 702,
      "ს": 703,
      "ქ": 704,
      "ᑦ": 705,
      "ᓄ": 706,
      "ᓇ": 707,
      "ᕗ": 708,
      "ᚫ": 709,
      "ᚬ": 710,
      "ᵊ": 711,
      "ᵻ": 712,
      "ḏ": 713,
      "ḗ": 714,
      "ḥ": 715,
      "Ḩ": 716,
      "ḫ": 717,
      "ḷ": 718,
      "ṁ": 719,
      "ṃ": 720,
      "ṇ": 721,
      "ṛ": 722,
      "ṟ": 723,
      "ṣ": 724,
      "ṭ": 725,
      "ṯ": 726,
      "Ẓ": 727,
      "ẓ": 728,
      "ạ": 729,
      "ả": 730,
      "ệ": 731,
      "Ἀ": 732,
      "ἐ": 733,
      "ἑ": 734,
      "ἔ": 735,
      "ἕ": 736,
      "ἵ": 737,
      "ἷ": 738,
      "Ἰ": 739,
      "Ἱ": 740,
      "ὁ": 741,
      "ὐ": 742,
      "ὕ": 743,
      "ὖ": 744,
      "ὸ": 745,
      "ῆ": 746,
      "ῶ": 747,
      "ῷ": 748,
      "​": 749,
      "‌": 750,
      "‍": 751,
      "‎": 752,
      "–": 753,
      "—": 754,
      "―": 755,
      "‘": 756,
      "’": 757,
      "“": 758,
      "”": 759,
      "„": 760,
      "†": 761,
      "•": 762,
      "…": 763,
      "‬": 764,
      "′": 765,
      "⁄": 766,
      "⁡": 767,
      "₂": 768,
      "₤": 769,
      "€": 770,
      "₹": 771,
      "ℝ": 772,
      "™": 773,
      "⅓": 774,
      "→": 775,
      "↔": 776,
      "↦": 777,
      "∂": 778,
      "∅": 779,
      "∈": 780,
      "∑": 781,
      "−": 782,
      "√": 783,
      "∞": 784,
      "∴": 785,
      "≈": 786,
      "≠": 787,
      "≡": 788,
      "≤": 789,
      "≥": 790,
      "⊂": 791,
      "⋅": 792,
      "⋯": 793,
      "⌊": 794,
      "⌋": 795,
      "■": 796,
      "►": 797,
      "★": 798,
      "☉": 799,
      "⚤": 800,
      "✈": 801,
      "⟨": 802,
      "⟩": 803,
      "、": 804,
      "い": 805,
      "か": 806,
      "け": 807,
      "じ": 808,
      "た": 809,
      "ち": 810,
      "っ": 811,
      "と": 812,
      "に": 813,
      "の": 814,
      "ほ": 815,
      "ぽ": 816,
      "め": 817,
      "ゃ": 818,
      "ら": 819,
      "る": 820,
      "ん": 821,
      "ア": 822,
      "ィ": 823,
      "イ": 824,
      "ウ": 825,
      "オ": 826,
      "カ": 827,
      "ク": 828,
      "ゴ": 829,
      "ザ": 830,
      "シ": 831,
      "ジ": 832,
      "ス": 833,
      "タ": 834,
      "チ": 835,
      "ッ": 836,
      "ド": 837,
      "ナ": 838,
      "ノ": 839,
      "バ": 840,
      "パ": 841,
      "ピ": 842,
      "フ": 843,
      "ポ": 844,
      "モ": 845,
      "ュ": 846,
      "ラ": 847,
      "リ": 848,
      "ル": 849,
      "ロ": 850,
      "ン": 851,
      "・": 852,
      "ー": 853,
      "一": 854,
      "丁": 855,
      "三": 856,
      "上": 857,
      "世": 858,
      "东": 859,
      "中": 860,
      "义": 861,
      "之": 862,
      "书": 863,
      "事": 864,
      "二": 865,
      "五": 866,
      "井": 867,
      "产": 868,
      "京": 869,
      "亮": 870,
      "人": 871,
      "仁": 872,
      "今": 873,
      "介": 874,
      "代": 875,
      "会": 876,
      "係": 877,
      "債": 878,
      "元": 879,
      "八": 880,
      "公": 881,
      "兰": 882,
      "兵": 883,
      "况": 884,
      "划": 885,
      "別": 886,
      "劉": 887,
      "办": 888,
      "助": 889,
      "勁": 890,
      "動": 891,
      "務": 892,
      "勝": 893,
      "勞": 894,
      "包": 895,
      "化": 896,
      "北": 897,
      "區": 898,
      "十": 899,
      "华": 900,
      "南": 901,
      "博": 902,
      "印": 903,
      "卿": 904,
      "历": 905,
      "原": 906,
      "县": 907,
      "叉": 908,
      "发": 909,
      "可": 910,
      "台": 911,
      "史": 912,
      "司": 913,
      "吴": 914,
      "呦": 915,
      "味": 916,
      "和": 917,
      "員": 918,
      "唐": 919,
      "商": 920,
      "四": 921,
      "团": 922,
      "国": 923,
      "園": 924,
      "地": 925,
      "场": 926,
      "型": 927,
      "垣": 928,
      "城": 929,
      "堯": 930,
      "塗": 931,
      "声": 932,
      "夜": 933,
      "大": 934,
      "太": 935,
      "契": 936,
      "女": 937,
      "如": 938,
      "妹": 939,
      "姊": 940,
      "委": 941,
      "姻": 942,
      "婚": 943,
      "子": 944,
      "字": 945,
      "孙": 946,
      "学": 947,
      "學": 948,
      "完": 949,
      "宗": 950,
      "宫": 951,
      "宿": 952,
      "封": 953,
      "將": 954,
      "小": 955,
      "少": 956,
      "尼": 957,
      "屠": 958,
      "山": 959,
      "州": 960,
      "工": 961,
      "巴": 962,
      "巻": 963,
      "币": 964,
      "市": 965,
      "帝": 966,
      "幂": 967,
      "幣": 968,
      "年": 969,
      "并": 970,
      "庁": 971,
      "府": 972,
      "座": 973,
      "建": 974,
      "弁": 975,
      "录": 976,
      "形": 977,
      "心": 978,
      "总": 979,
      "恪": 980,
      "惜": 981,
      "慧": 982,
      "我": 983,
      "手": 984,
      "投": 985,
      "报": 986,
      "授": 987,
      "政": 988,
      "故": 989,
      "教": 990,
      "數": 991,
      "文": 992,
      "新": 993,
      "方": 994,
      "族": 995,
      "旗": 996,
      "日": 997,
      "明": 998,
      "昔": 999,
      "星": 1000,
      "映": 1001,
      "春": 1002,
      "昭": 1003,
      "是": 1004,
      "晋": 1005,
      "晴": 1006,
      "最": 1007,
      "會": 1008,
      "月": 1009,
      "有": 1010,
      "本": 1011,
      "机": 1012,
      "村": 1013,
      "杜": 1014,
      "東": 1015,
      "柱": 1016,
      "标": 1017,
      "桑": 1018,
      "梁": 1019,
      "植": 1020,
      "楼": 1021,
      "概": 1022,
      "榮": 1023,
      "次": 1024,
      "歌": 1025,
      "正": 1026,
      "殊": 1027,
      "氏": 1028,
      "民": 1029,
      "気": 1030,
      "水": 1031,
      "江": 1032,
      "沈": 1033,
      "沙": 1034,
      "油": 1035,
      "洋": 1036,
      "洛": 1037,
      "洞": 1038,
      "洲": 1039,
      "海": 1040,
      "淡": 1041,
      "港": 1042,
      "源": 1043,
      "漆": 1044,
      "漢": 1045,
      "潤": 1046,
      "濟": 1047,
      "瀚": 1048,
      "灣": 1049,
      "災": 1050,
      "炒": 1051,
      "然": 1052,
      "熙": 1053,
      "熱": 1054,
      "版": 1055,
      "牙": 1056,
      "物": 1057,
      "特": 1058,
      "犬": 1059,
      "王": 1060,
      "瓶": 1061,
      "生": 1062,
      "画": 1063,
      "痴": 1064,
      "發": 1065,
      "白": 1066,
      "的": 1067,
      "皇": 1068,
      "目": 1069,
      "盲": 1070,
      "省": 1071,
      "石": 1072,
      "砕": 1073,
      "碼": 1074,
      "礼": 1075,
      "祈": 1076,
      "祝": 1077,
      "神": 1078,
      "福": 1079,
      "禮": 1080,
      "禱": 1081,
      "秦": 1082,
      "空": 1083,
      "站": 1084,
      "等": 1085,
      "简": 1086,
      "箇": 1087,
      "簡": 1088,
      "約": 1089,
      "級": 1090,
      "紡": 1091,
      "終": 1092,
      "結": 1093,
      "經": 1094,
      "編": 1095,
      "緩": 1096,
      "織": 1097,
      "红": 1098,
      "纺": 1099,
      "织": 1100,
      "缶": 1101,
      "義": 1102,
      "考": 1103,
      "者": 1104,
      "聞": 1105,
      "聲": 1106,
      "育": 1107,
      "自": 1108,
      "臺": 1109,
      "興": 1110,
      "舞": 1111,
      "茶": 1112,
      "获": 1113,
      "菊": 1114,
      "華": 1115,
      "菱": 1116,
      "萍": 1117,
      "葉": 1118,
      "蒙": 1119,
      "蒲": 1120,
      "蔵": 1121,
      "藏": 1122,
      "蘭": 1123,
      "虎": 1124,
      "處": 1125,
      "表": 1126,
      "西": 1127,
      "記": 1128,
      "語": 1129,
      "護": 1130,
      "记": 1131,
      "象": 1132,
      "貝": 1133,
      "资": 1134,
      "赵": 1135,
      "趙": 1136,
      "路": 1137,
      "辦": 1138,
      "通": 1139,
      "道": 1140,
      "邑": 1141,
      "邦": 1142,
      "邪": 1143,
      "郎": 1144,
      "郡": 1145,
      "都": 1146,
      "里": 1147,
      "金": 1148,
      "釦": 1149,
      "鉄": 1150,
      "鍾": 1151,
      "鐘": 1152,
      "镇": 1153,
      "镜": 1154,
      "関": 1155,
      "閭": 1156,
      "门": 1157,
      "阁": 1158,
      "阪": 1159,
      "阳": 1160,
      "际": 1161,
      "陈": 1162,
      "院": 1163,
      "陵": 1164,
      "集": 1165,
      "震": 1166,
      "青": 1167,
      "项": 1168,
      "飞": 1169,
      "飯": 1170,
      "香": 1171,
      "馬": 1172,
      "駐": 1173,
      "高": 1174,
      "鳶": 1175,
      "黑": 1176,
      "黒": 1177,
      "龙": 1178,
      "경": 1179,
      "계": 1180,
      "골": 1181,
      "공": 1182,
      "관": 1183,
      "국": 1184,
      "군": 1185,
      "굴": 1186,
      "급": 1187,
      "난": 1188,
      "남": 1189,
      "내": 1190,
      "년": 1191,
      "는": 1192,
      "대": 1193,
      "도": 1194,
      "동": 1195,
      "땅": 1196,
      "몽": 1197,
      "문": 1198,
      "민": 1199,
      "별": 1200,
      "보": 1201,
      "북": 1202,
      "선": 1203,
      "성": 1204,
      "세": 1205,
      "소": 1206,
      "시": 1207,
      "에": 1208,
      "오": 1209,
      "읍": 1210,
      "의": 1211,
      "이": 1212,
      "인": 1213,
      "일": 1214,
      "전": 1215,
      "제": 1216,
      "조": 1217,
      "주": 1218,
      "지": 1219,
      "탈": 1220,
      "특": 1221,
      "팔": 1222,
      "편": 1223,
      "학": 1224,
      "화": 1225,
      "﴾": 1226,
      "﴿": 1227,
      "ﷲ": 1228,
      "ﷺ": 1229,
      "﻿": 1230,
      "（": 1231,
      "）": 1232,
      "，": 1233,
      "￥": 1234,
      "🏻": 1235,
      "🏼": 1236,
      "🏽": 1237,
      "🏾": 1238,
      "🏿": 1239,
      "👧": 1240,
      "👨": 1241,
      "👩": 1242,
      "য়": 1243,
      "ার": 1244,
      "্র": 1245,
      "্য": 1246,
      "ের": 1247,
      "ান": 1248,
      "কর": 1249,
      "্ত": 1250,
      "টি": 1251,
      "প্র": 1252,
      "িক": 1253,
      "র্": 1254,
      "বি": 1255,
      "াল": 1256,
      "নি": 1257,
      "েন": 1258,
      "স্": 1259,
      "তি": 1260,
      "বা": 1261,
      "য়ে": 1262,
      "বে": 1263,
      "কে": 1264,
      "িত": 1265,
      "বং": 1266,
      "এবং": 1267,
      "পর": 1268,
      "িল": 1269,
      "ায়": 1270,
      "এক": 1271,
      "তা": 1272,
      "করে": 1273,
      "জন": 1274,
      "সা": 1275,
      "তে": 1276,
      "রা": 1277,
      "ক্": 1278,
      "সম": 1279,
      "না": 1280,
      "ন্": 1281,
      "ছিল": 1282,
      "্যা": 1283,
      "দ্": 1284,
      "মা": 1285,
      "হয়": 1286,
      "দের": 1287,
      "সে": 1288,
      "ছে": 1289,
      "লে": 1290,
      "লা": 1291,
      "কা": 1292,
      "দে": 1293,
      "ষ্": 1294,
      "কার": 1295,
      "ক্ষ": 1296,
      "ভা": 1297,
      "সাল": 1298,
      "তার": 1299,
      "থে": 1300,
      "লি": 1301,
      "একটি": 1302,
      "নে": 1303,
      "ার্": 1304,
      "কি": 1305,
      "ন্ত": 1306,
      "য়া": 1307,
      "ড়": 1308,
      "করা": 1309,
      "্ব": 1310,
      "গু": 1311,
      "ক্ত": 1312,
      "রে": 1313,
      "যে": 1314,
      "স্থ": 1315,
      "্প": 1316,
      "মান": 1317,
      "ব্য": 1318,
      "সং": 1319,
      "হি": 1320,
      "পা": 1321,
      "ীয়": 1322,
      "১৯": 1323,
      "মি": 1324,
      "ুর": 1325,
      "এর": 1326,
      "তিনি": 1327,
      "পরি": 1328,
      "দি": 1329,
      "সি": 1330,
      "মে": 1331,
      "জন্য": 1332,
      "হয়ে": 1333,
      "অন": 1334,
      "এই": 1335,
      "ধ্য": 1336,
      "২০": 1337,
      "স্ত": 1338,
      "দ্ধ": 1339,
      "যা": 1340,
      "জা": 1341,
      "গ্র": 1342,
      "সালে": 1343,
      "হা": 1344,
      "টে": 1345,
      "ভি": 1346,
      "থেকে": 1347,
      "ত্র": 1348,
      "করেন": 1349,
      "নের": 1350,
      "কো": 1351,
      "লো": 1352,
      "শি": 1353,
      "বার": 1354,
      "বর": 1355,
      "্চ": 1356,
      "য়ার": 1357,
      "যু": 1358,
      "্যান": 1359,
      "োগ": 1360,
      "টা": 1361,
      "ব্যব": 1362,
      "ট্র": 1363,
      "প্রতি": 1364,
      "শে": 1365,
      "রি": 1366,
      "মধ্য": 1367,
      "থা": 1368,
      "ডি": 1369,
      "ক্র": 1370,
      "ঙ্": 1371,
      "ৃত": 1372,
      "্ড": 1373,
      "পার": 1374,
      "জি": 1375,
      "নির্": 1376,
      "হার": 1377,
      "দেশ": 1378,
      "ভাবে": 1379,
      "টার": 1380,
      "দু": 1381,
      "মু": 1382,
      "মধ্যে": 1383,
      "বর্ত": 1384,
      "ছিলেন": 1385,
      "ুন": 1386,
      "ষ্ঠ": 1387,
      "ত্ত": 1388,
      "এটি": 1389,
      "েন্": 1390,
      "যোগ": 1391,
      "অনু": 1392,
      "ূর্": 1393,
      "্ম": 1394,
      "দা": 1395,
      "থম": 1396,
      "অব": 1397,
      "রো": 1398,
      "ন্ন": 1399,
      "গে": 1400,
      "ীর": 1401,
      "সাথে": 1402,
      "বিশ": 1403,
      "ানে": 1404,
      "ধার": 1405,
      "খন": 1406,
      "০০": 1407,
      "ক্তি": 1408,
      "তাদের": 1409,
      "শন": 1410,
      "সর": 1411,
      "সু": 1412,
      "চে": 1413,
      "হিসে": 1414,
      "তিক": 1415,
      "যায়": 1416,
      "খে": 1417,
      "দ্র": 1418,
      "হিসেবে": 1419,
      "২০১": 1420,
      "প্রা": 1421,
      "ংশ": 1422,
      "প্রথম": 1423,
      "জে": 1424,
      "গুলি": 1425,
      "ইন": 1426,
      "পূর্": 1427,
      "সালের": 1428,
      "পে": 1429,
      "ব্যবহার": 1430,
      "গুলো": 1431,
      "ারা": 1432,
      "র্থ": 1433,
      "তাঁ": 1434,
      "করতে": 1435,
      "স্ট": 1436,
      "বল": 1437,
      "িকে": 1438,
      "শেষ": 1439,
      "ভার": 1440,
      "সম্প": 1441,
      "শা": 1442,
      "মন": 1443,
      "ওয়া": 1444,
      "ব্র": 1445,
      "মের": 1446,
      "ধান": 1447,
      "রু": 1448,
      "সময়": 1449,
      "খা": 1450,
      "তীয়": 1451,
      "পি": 1452,
      "ীন": 1453,
      "বছ": 1454,
      "নী": 1455,
      "২০০": 1456,
      "জ্": 1457,
      "আর": 1458,
      "ান্ত": 1459,
      "প্": 1460,
      "পারে": 1461,
      "িতে": 1462,
      "ুরু": 1463,
      "সব": 1464,
      "সের": 1465,
      "in": 1466,
      "ঙ্গ": 1467,
      "ইউ": 1468,
      "উপ": 1469,
      "্যাল": 1470,
      "ছু": 1471,
      "করার": 1472,
      "চিত": 1473,
      "বন্": 1474,
      "হয়েছিল": 1475,
      "ধারণ": 1476,
      "বছর": 1477,
      "স্থা": 1478,
      "ন্ত্র": 1479,
      "মো": 1480,
      "ানি": 1481,
      "ানের": 1482,
      "যুক্ত": 1483,
      "ব্যা": 1484,
      "ব্": 1485,
      "ক্ষে": 1486,
      "লের": 1487,
      "কোন": 1488,
      "কের": 1489,
      "চাল": 1490,
      "চ্": 1491,
      "গ্রহ": 1492,
      "ছা": 1493,
      "ষণ": 1494,
      "কিছু": 1495,
      "দ্বার": 1496,
      "জ্ঞ": 1497,
      "িকা": 1498,
      "দ্বারা": 1499,
      "ছেন": 1500,
      "তু": 1501,
      "নিয়": 1502,
      "বী": 1503,
      "ূল": 1504,
      "অধ": 1505,
      "চ্চ": 1506,
      "ষ্ট": 1507,
      "ড়া": 1508,
      "পর্য": 1509,
      "ম্প": 1510,
      "ঞ্চ": 1511,
      "হয়েছে": 1512,
      "ন্তু": 1513,
      "বিশ্ব": 1514,
      "িক্": 1515,
      "সম্": 1516,
      "নার": 1517,
      "বাস": 1518,
      "য়েছে": 1519,
      "িয়": 1520,
      "জ্য": 1521,
      "দী": 1522,
      "ৃতি": 1523,
      "মার্": 1524,
      "নাম": 1525,
      "বো": 1526,
      "ষ্ট্র": 1527,
      "কল": 1528,
      "তাঁর": 1529,
      "তারা": 1530,
      "খানে": 1531,
      "হর": 1532,
      "রাষ্ট্র": 1533,
      "ণের": 1534,
      "অভি": 1535,
      "টির": 1536,
      "স্থান": 1537,
      "হত": 1538,
      "ম্ব": 1539,
      "সহ": 1540,
      "কিন্তু": 1541,
      "চার": 1542,
      "কাজ": 1543,
      "শুরু": 1544,
      "ডে": 1545,
      "কু": 1546,
      "কাল": 1547,
      "সাম": 1548,
      "হন": 1549,
      "বিদ": 1550,
      "প্ত": 1551,
      "ভূ": 1552,
      "অনে": 1553,
      "দান": 1554,
      "িয়ে": 1555,
      "কারণ": 1556,
      "অংশ": 1557,
      "করেছে": 1558,
      "গো": 1559,
      "সরকার": 1560,
      "য়ের": 1561,
      "ইং": 1562,
      "ফি": 1563,
      "বেশ": 1564,
      "আই": 1565,
      "মূল": 1566,
      "ল্": 1567,
      "গত": 1568,
      "একজন": 1569,
      "চল": 1570,
      "জান": 1571,
      "অনেক": 1572,
      "an": 1573,
      "মাত্র": 1574,
      "স্বা": 1575,
      "শ্র": 1576,
      "জী": 1577,
      "যুদ্ধ": 1578,
      "গা": 1579,
      "শু": 1580,
      "কাশ": 1581,
      "উপর": 1582,
      ")।": 1583,
      "্যার": 1584,
      "ভিন্ন": 1585,
      "প্রায়": 1586,
      "সাবে": 1587,
      "সংখ": 1588,
      "রয়েছে": 1589,
      "মত": 1590,
      "যদি": 1591,
      "বেশি": 1592,
      "ড়ে": 1593,
      "পু": 1594,
      "থাকে": 1595,
      "বৃ": 1596,
      "ির": 1597,
      "প্রতিষ্ঠ": 1598,
      "er": 1599,
      "বর্": 1600,
      "োর": 1601,
      "হল": 1602,
      "বলে": 1603,
      "কর্ম": 1604,
      "পো": 1605,
      "সার": 1606,
      "লার": 1607,
      "ন্তর্": 1608,
      "এস": 1609,
      "িক্ষ": 1610,
      "ওয়": 1611,
      "িকার": 1612,
      "চা": 1613,
      "পর্যন্ত": 1614,
      "ত্ব": 1615,
      "ফে": 1616,
      "নিয়ে": 1617,
      "জার": 1618,
      "ফ্র": 1619,
      "কৃত": 1620,
      "মাণ": 1621,
      "প্রধান": 1622,
      "হিসাবে": 1623,
      "্যান্ড": 1624,
      "on": 1625,
      "বিষ": 1626,
      "ইন্": 1627,
      "বর্তী": 1628,
      "ভে": 1629,
      "অর্থ": 1630,
      "মার": 1631,
      "সাধারণ": 1632,
      "ীদের": 1633,
      "১৯৯": 1634,
      "িত্র": 1635,
      "মাধ্য": 1636,
      "ভাষ": 1637,
      "নত": 1638,
      "১৮": 1639,
      "ওয়ার": 1640,
      "স্য": 1641,
      "গ্রা": 1642,
      "পুর": 1643,
      "সম্পর্": 1644,
      "ভাগ": 1645,
      "ইংরে": 1646,
      "টো": 1647,
      "স্টে": 1648,
      "প্রকাশ": 1649,
      "চেয়ে": 1650,
      "জু": 1651,
      "জের": 1652,
      "ভাব": 1653,
      "তৈ": 1654,
      "হু": 1655,
      "রিক": 1656,
      "সর্": 1657,
      "টের": 1658,
      "গঠ": 1659,
      "দিয়ে": 1660,
      "চি": 1661,
      "বাং": 1662,
      "যার": 1663,
      "ইস": 1664,
      "দিকে": 1665,
      "অন্য": 1666,
      "ান্": 1667,
      "উৎ": 1668,
      "ক্ষা": 1669,
      "তের": 1670,
      "কর্ত": 1671,
      "বিভিন্ন": 1672,
      "নয়": 1673,
      "রের": 1674,
      "চ্ছে": 1675,
      "হবে": 1676,
      "শী": 1677,
      "কম": 1678,
      "ডা": 1679,
      "সো": 1680,
      "বাদ": 1681,
      "মিটার": 1682,
      "বৈ": 1683,
      "বু": 1684,
      "হতে": 1685,
      "পরে": 1686,
      "বাহি": 1687,
      "ৈতিক": 1688,
      "লেখ": 1689,
      "গ্রহণ": 1690,
      "য়ান": 1691,
      "বন": 1692,
      "মাল": 1693,
      "শিক্ষ": 1694,
      "নতুন": 1695,
      "ভু": 1696,
      "সী": 1697,
      "ধর্": 1698,
      "দেয়": 1699,
      "দল": 1700,
      "তাল": 1701,
      "লাই": 1702,
      "হে": 1703,
      "গণ": 1704,
      "ল্প": 1705,
      "বাংলা": 1706,
      "মাধ্যমে": 1707,
      "শ্চ": 1708,
      "উত্ত": 1709,
      "অন্যান": 1710,
      "ইংরেজি": 1711,
      "ত্য": 1712,
      "দুই": 1713,
      "অন্যান্য": 1714,
      "ম্": 1715,
      "বাহ": 1716,
      "বিশেষ": 1717,
      "দ্বি": 1718,
      "খু": 1719,
      "es": 1720,
      "সদ": 1721,
      "শহর": 1722,
      "যখন": 1723,
      "পূর্ণ": 1724,
      "অর্": 1725,
      "তবে": 1726,
      "মিল": 1727,
      "তির": 1728,
      "উদ্": 1729,
      "ম্বর": 1730,
      "ব্রি": 1731,
      "ar": 1732,
      "al": 1733,
      "ত্রে": 1734,
      "স্থাপ": 1735,
      "যেখানে": 1736,
      "তাকে": 1737,
      "পূর্ব": 1738,
      "ফা": 1739,
      "ুষ": 1740,
      "্রি": 1741,
      "বিক": 1742,
      "at": 1743,
      "সেন": 1744,
      "আছে": 1745,
      "হাস": 1746,
      "বন্ধ": 1747,
      "or": 1748,
      "দক্ষ": 1749,
      "পাল": 1750,
      "উন্ন": 1751,
      "কারী": 1752,
      "বিমান": 1753,
      "পরিচাল": 1754,
      "বাই": 1755,
      "নিক": 1756,
      "অঞ্চ": 1757,
      "েন্ট": 1758,
      "ঞ্": 1759,
      "ফল": 1760,
      "গুলির": 1761,
      "অ্যা": 1762,
      "য়ো": 1763,
      "যদিও": 1764,
      "তিন": 1765,
      "ছাড়া": 1766,
      "ার্থ": 1767,
      "তৈরি": 1768,
      "করণ": 1769,
      "মানুষ": 1770,
      "দেশের": 1771,
      "কিন": 1772,
      "পের": 1773,
      "ওয়ে": 1774,
      "en": 1775,
      "দর্": 1776,
      "দায়": 1777,
      "ধর": 1778,
      "ক্রম": 1779,
      "দর": 1780,
      "দ্য": 1781,
      "পরবর্তী": 1782,
      "দশ": 1783,
      "পুন": 1784,
      "হো": 1785,
      "ক্ষম": 1786,
      "ষণা": 1787,
      "ানা": 1788,
      "ফলে": 1789,
      "ম্যা": 1790,
      "সমা": 1791,
      "ঙ্গে": 1792,
      "বর্তমান": 1793,
      "্রা": 1794,
      "স্ব": 1795,
      "দিন": 1796,
      "তম": 1797,
      "পরিবর্ত": 1798,
      "েন্দ্র": 1799,
      "দন": 1800,
      "নো": 1801,
      "নামে": 1802,
      "প্লে": 1803,
      "শিল": 1804,
      "ঘট": 1805,
      "তো": 1806,
      "মিত": 1807,
      "বিত": 1808,
      "উদ্ধ": 1809,
      "ূপ": 1810,
      "চলচ্চ": 1811,
      "জাতীয়": 1812,
      "উন্": 1813,
      "চলচ্চিত্র": 1814,
      "ষ্টি": 1815,
      "দার": 1816,
      "০০০": 1817,
      "চু": 1818,
      "দো": 1819,
      "সংস্": 1820,
      "চনা": 1821,
      "ধা": 1822,
      "ানো": 1823,
      "স্ট্র": 1824,
      "অবস্থ": 1825,
      "১৯৭": 1826,
      "থাক": 1827,
      "কেন্দ্র": 1828,
      "করেছিলেন": 1829,
      "মার্কিন": 1830,
      "হচ্ছে": 1831,
      "যেমন": 1832,
      "রাজ": 1833,
      "জ্ঞান": 1834,
      "পদ": 1835,
      "য়ন": 1836,
      "ব্যক্তি": 1837,
      "শিল্প": 1838,
      "কৃতি": 1839,
      "বার্": 1840,
      "lin": 1841,
      "১৯৮": 1842,
      "দক্ষি": 1843,
      "দ্বিতীয়": 1844,
      "ঘো": 1845,
      "বয়": 1846,
      "প্য": 1847,
      "সদস্য": 1848,
      "উল্": 1849,
      "কটি": 1850,
      "বিশ্": 1851,
      "যুক্তরাষ্ট্র": 1852,
      "জাতিক": 1853,
      "ভিত": 1854,
      "করেছিল": 1855,
      "কারণে": 1856,
      "িত্ব": 1857,
      "ক্ষেত্রে": 1858,
      "করেছেন": 1859,
      "সন": 1860,
      "ুয়ার": 1861,
      "ল্যান্ড": 1862,
      "পরিচিত": 1863,
      "বের": 1864,
      "লাভ": 1865,
      "১০": 1866,
      "ক্যা": 1867,
      "পৃ": 1868,
      "ীত": 1869,
      "বিদ্যাল": 1870,
      "সবচেয়ে": 1871,
      "কয়ে": 1872,
      "োট": 1873,
      "যান": 1874,
      "সঙ্গে": 1875,
      "নির্বা": 1876,
      "দক্ষিণ": 1877,
      "দেখা": 1878,
      "আল": 1879,
      "দেন": 1880,
      "উদ্ধৃতি": 1881,
      "সূ": 1882,
      "প্যারা": 1883,
      "কার্য": 1884,
      "আন্তর্": 1885,
      "ধীন": 1886,
      "রাজ্য": 1887,
      "স্তা": 1888,
      "তেন": 1889,
      "মৃত": 1890,
      "আন্তর্জাতিক": 1891,
      "প্রদান": 1892,
      "ব্দ": 1893,
      "ফো": 1894,
      "িতা": 1895,
      "একই": 1896,
      "্যের": 1897,
      "দেখ": 1898,
      "এম": 1899,
      "আর্": 1900,
      "গুরু": 1901,
      "স্ত্র": 1902,
      "এটা": 1903,
      "is": 1904,
      "ইউরো": 1905,
      "প্লেট": 1906,
      "link": 1907,
      "আইন": 1908,
      "বড়": 1909,
      "লু": 1910,
      "থি": 1911,
      "উই": 1912,
      "১৫": 1913,
      "সাই": 1914,
      "টেম": 1915,
      "উল্লেখ": 1916,
      "এমন": 1917,
      "th": 1918,
      "এলা": 1919,
      "সংখ্যা": 1920,
      "্যু": 1921,
      "টিশ": 1922,
      "সেই": 1923,
      "কর্তৃ": 1924,
      "ধর্ম": 1925,
      "ভিত্ত": 1926,
      "পার্": 1927,
      "য়োজন": 1928,
      "িয়া": 1929,
      "ফু": 1930,
      "উচ্চ": 1931,
      "উত্তর": 1932,
      "তৃত": 1933,
      "টেমপ্লেট": 1934,
      "ইতি": 1935,
      "কাছে": 1936,
      "শতা": 1937,
      "রাজন": 1938,
      "প্যারামিটার": 1939,
      "িকভাবে": 1940,
      "বই": 1941,
      "ভব": 1942,
      "বাহিনী": 1943,
      "ধু": 1944,
      "১৯৬": 1945,
      "ব্রিটিশ": 1946,
      "বস": 1947,
      "তখন": 1948,
      "িনি": 1949,
      "গবে": 1950,
      "ক্ষণ": 1951,
      "পরা": 1952,
      "ন্ড": 1953,
      "ic": 1954,
      "মী": 1955,
      "ন্যা": 1956,
      "নায়": 1957,
      "সমূ": 1958,
      "মন্ত্র": 1959,
      "ক্স": 1960,
      "পশ্চ": 1961,
      "ম্যান": 1962,
      "সম্পর্ক": 1963,
      "আমি": 1964,
      "চর": 1965,
      "সময়ে": 1966,
      "আন": 1967,
      "ত্যা": 1968,
      "যোগ্য": 1969,
      "পান": 1970,
      "মিক": 1971,
      "দূ": 1972,
      "ত্ম": 1973,
      "১৭": 1974,
      "পশ্চি": 1975,
      "এন": 1976,
      "ৃষ্টি": 1977,
      "শীল": 1978,
      "কিস্ত": 1979,
      "অনুষ্ঠ": 1980,
      "শক্তি": 1981,
      "বর্ণ": 1982,
      "ণ্ড": 1983,
      "টন": 1984,
      "বৃদ্ধ": 1985,
      "িয়ন": 1986,
      "ভারতীয়": 1987,
      "মাঝ": 1988,
      "এখন": 1989,
      "ভাষা": 1990,
      "কমি": 1991,
      "নিউ": 1992,
      "জাতি": 1993,
      "আগে": 1994,
      "পক্ষে": 1995,
      "বলা": 1996,
      "ঐতি": 1997,
      "মুস": 1998,
      "বিষয়": 1999,
      "ণি": 2000,
      "যারা": 2001,
      "ছি": 2002,
      "ঠে": 2003,
      "হৃত": 2004,
      "দ্বী": 2005,
      "ন্য": 2006,
      "শো": 2007,
      "রী": 2008,
      "জন্ম": 2009,
      "পাকিস্ত": 2010,
      "ারে": 2011,
      "ত্ত্ব": 2012,
      "হের": 2013,
      "বলেন": 2014,
      "জার্": 2015,
      "),": 2016,
      "কোম্প": 2017,
      "গ্রে": 2018,
      "ষ্টা": 2019,
      "সামরিক": 2020,
      "সার্": 2021,
      "ভাল": 2022,
      "আমের": 2023,
      "ব্যবহৃত": 2024,
      "১৯৫": 2025,
      "আধ": 2026,
      "মুখ": 2027,
      "ভুক্ত": 2028,
      "অন্তর্": 2029,
      "ইল": 2030,
      "নিয়ন্ত্র": 2031,
      "শুধু": 2032,
      "লিক": 2033,
      "রুদ্ধ": 2034,
      "গান": 2035,
      "পরী": 2036,
      "স্প": 2037,
      "দেশে": 2038,
      "মহা": 2039,
      "পাওয়া": 2040,
      "গুরুত্ব": 2041,
      "আগ": 2042,
      "তুল": 2043,
      "মনে": 2044,
      "চীন": 2045,
      "্যে": 2046,
      "জীব": 2047,
      "যৌ": 2048,
      "আরও": 2049,
      "ত্": 2050,
      "মহ": 2051,
      "এছাড়া": 2052,
      "সকল": 2053,
      "১৯৪": 2054,
      "হলে": 2055,
      "তী": 2056,
      "অথ": 2057,
      "ফিল": 2058,
      "পরিবার": 2059,
      "বৃহ": 2060,
      "চী": 2061,
      "ব্যাপ": 2062,
      "চিত্র": 2063,
      "তারি": 2064,
      "দুটি": 2065,
      "উভ": 2066,
      "পরিক": 2067,
      "রোধ": 2068,
      "৩০": 2069,
      "শত": 2070,
      "জিক": 2071,
      "লক্ষ": 2072,
      "গঠন": 2073,
      "খ্রি": 2074,
      "আস": 2075,
      "টিকে": 2076,
      "ঘোষণা": 2077,
      "ion": 2078,
      "আলো": 2079,
      "খ্যা": 2080,
      "বিশ্ববিদ্যাল": 2081,
      "১৬": 2082,
      "সাধারণত": 2083,
      "সর্ব": 2084,
      "ইসলা": 2085,
      "লেন": 2086,
      "প্রে": 2087,
      "স্বী": 2088,
      "গুল": 2089,
      "নির্মাণ": 2090,
      "র্ট": 2091,
      "কল্প": 2092,
      "হিত": 2093,
      "ছোট": 2094,
      "পদ্ধ": 2095,
      "বর্তমানে": 2096,
      "স্বাধীন": 2097,
      "প্রশ": 2098,
      "কথা": 2099,
      "গুলোর": 2100,
      "নীতি": 2101,
      "ওয়ার্": 2102,
      "জয়": 2103,
      "আরো": 2104,
      "প্রয়োজন": 2105,
      "র্ক": 2106,
      "অথবা": 2107,
      "সাং": 2108,
      "বাড়": 2109,
      "তর": 2110,
      "বন্দর": 2111,
      "it": 2112,
      "নিজে": 2113,
      "পায়": 2114,
      "যিনি": 2115,
      "ুত": 2116,
      "বাণি": 2117,
      "সাহা": 2118,
      "বাণিজ্য": 2119,
      "শ্রে": 2120,
      "দেওয়া": 2121,
      "ুয়ারি": 2122,
      "রাজনৈতিক": 2123,
      "সমর্থ": 2124,
      "বছরের": 2125,
      "কালে": 2126,
      "পরিকল্প": 2127,
      "নারী": 2128,
      "লী": 2129,
      "সংঘ": 2130,
      "পতি": 2131,
      "of": 2132,
      "ধরে": 2133,
      "শিক্ষা": 2134,
      "সাহায": 2135,
      "সফ": 2136,
      "একা": 2137,
      "পাঠ": 2138,
      "মৌ": 2139,
      "বিরুদ্ধ": 2140,
      "শিষ্ট": 2141,
      "ভারতের": 2142,
      "কোনো": 2143,
      "আক্রম": 2144,
      "পানি": 2145,
      "১৪": 2146,
      "টিতে": 2147,
      "re": 2148,
      "য়েত": 2149,
      "কন": 2150,
      "ান্তর": 2151,
      "লিম": 2152,
      "কখন": 2153,
      "্রম": 2154,
      "র্ঘ": 2155,
      "স্থানীয়": 2156,
      "মস": 2157,
      "শাস": 2158,
      "যুদ্ধের": 2159,
      "ল্যা": 2160,
      "স্যা": 2161,
      "স্টি": 2162,
      "যুক্তি": 2163,
      "বিরুদ্ধে": 2164,
      "এল": 2165,
      "সম্প্র": 2166,
      "পুরু": 2167,
      "চুক্তি": 2168,
      "ণী": 2169,
      "অক্": 2170,
      "স্কু": 2171,
      "কর্তৃক": 2172,
      "জিত": 2173,
      "নৈতিক": 2174,
      "পণ": 2175,
      "পক্ষ": 2176,
      "সেনা": 2177,
      "পথ": 2178,
      "হওয়ার": 2179,
      "প্রভাব": 2180,
      "বিজ্ঞান": 2181,
      "জেন": 2182,
      "১২": 2183,
      "তথ": 2184,
      "টাই": 2185,
      "বাংলাদেশ": 2186,
      "শাল": 2187,
      "িলা": 2188,
      "শব্দ": 2189,
      "বদ্ধ": 2190,
      "ক্লা": 2191,
      "যায়ী": 2192,
      "পূর্বে": 2193,
      "পুরুষ": 2194,
      "কৌ": 2195,
      "অবস্থিত": 2196,
      "সম্ভব": 2197,
      "ধি": 2198,
      "নদী": 2199,
      "পরিবর্তন": 2200,
      "গি": 2201,
      "শনের": 2202,
      "নীর": 2203,
      "চলে": 2204,
      "কদের": 2205,
      "জো": 2206,
      "শর": 2207,
      "মুসলিম": 2208,
      "তাই": 2209,
      "ডিয়া": 2210,
      "খুব": 2211,
      "কোম্পানি": 2212,
      "িকান": 2213,
      "স্কার": 2214,
      "ক্ষমতা": 2215,
      "ব্যবস্থা": 2216,
      "প্রাথম": 2217,
      "প্রিয়": 2218,
      "জীবন": 2219,
      "বেশির": 2220,
      "ভর": 2221,
      "le": 2222,
      "লায়": 2223,
      "সিরি": 2224,
      "জাহা": 2225,
      "সম্পর্কে": 2226,
      "বিশ্বাস": 2227,
      "পত্র": 2228,
      "দুর্": 2229,
      "মিলিয়ন": 2230,
      "ধরনের": 2231,
      "st": 2232,
      "বিশ্বের": 2233,
      "ুনিক": 2234,
      "গের": 2235,
      "ভিয়েত": 2236,
      "অর্জন": 2237,
      "বৃদ্ধি": 2238,
      "সঙ্গ": 2239,
      "তন্ত্র": 2240,
      "দলের": 2241,
      "নির্বাচ": 2242,
      "ঘটনা": 2243,
      "মাসে": 2244,
      "গুরুত্বপূর্ণ": 2245,
      "শ্য": 2246,
      "ষে": 2247,
      "ংক": 2248,
      "গর": 2249,
      "দেয়া": 2250,
      "সিদ্ধ": 2251,
      "টর": 2252,
      "্যান্": 2253,
      "প্রতিযোগ": 2254,
      "উভয়": 2255,
      "রাখ": 2256,
      "আধুনিক": 2257,
      "om": 2258,
      "গঠিত": 2259,
      "দর্শন": 2260,
      "ঘটে": 2261,
      "বরা": 2262,
      "20": 2263,
      "ঁচ": 2264,
      "পরবর্তীতে": 2265,
      "উপা": 2266,
      "কৃ": 2267,
      "কায়": 2268,
      "পৌ": 2269,
      "্বে": 2270,
      "যেতে": 2271,
      "ধারণা": 2272,
      "and": 2273,
      "ূর্ণ": 2274,
      "অনুযায়ী": 2275,
      "পদ্ধতি": 2276,
      "১১": 2277,
      "এছাড়াও": 2278,
      "বহু": 2279,
      "গিয়ে": 2280,
      "পড়ে": 2281,
      "র্ড": 2282,
      "জুলাই": 2283,
      "সিল": 2284,
      "ধিক": 2285,
      "শ্ব": 2286,
      "ঠা": 2287,
      "উৎপা": 2288,
      "প্রকল্প": 2289,
      "বিবে": 2290,
      "শিয়া": 2291,
      "ডিসে": 2292,
      "চেষ্টা": 2293,
      "আফ": 2294,
      "দিষ্ট": 2295,
      "জার্মান": 2296,
      "ডো": 2297,
      "পত্ত": 2298,
      "যাত্র": 2299,
      "ক্রিকে": 2300,
      "শুধুমাত্র": 2301,
      "প্রতিষ্ঠিত": 2302,
      "জায়": 2303,
      "২৫": 2304,
      "ভারত": 2305,
      "২০১২": 2306,
      "অক্টো": 2307,
      "কয়েক": 2308,
      "নভে": 2309,
      "কৃতিক": 2310,
      "তথ্য": 2311,
      "পর্": 2312,
      "স্থাপন": 2313,
      "য়াল": 2314,
      "নির্দিষ্ট": 2315,
      "আম": 2316,
      "আবি": 2317,
      "আত্ম": 2318,
      "প্ল": 2319,
      "তন": 2320,
      "যাতে": 2321,
      "এফ": 2322,
      "মতো": 2323,
      "অর্থনৈতিক": 2324,
      "সাহায্য": 2325,
      "১৩": 2326,
      "িন": 2327,
      "করতেন": 2328,
      "সংস্থা": 2329,
      "গ্রাম": 2330,
      "ed": 2331,
      "ডিও": 2332,
      "২০১৩": 2333,
      "টু": 2334,
      "সামা": 2335,
      "স্ক": 2336,
      "বেন": 2337,
      "সন্": 2338,
      "তিনটি": 2339,
      "বিভাগ": 2340,
      "স্ট্রে": 2341,
      "অঞ্চল": 2342,
      "নিজ": 2343,
      "প্রস্তা": 2344,
      "জনপ্রিয়": 2345,
      "পোর্ট": 2346,
      "ou": 2347,
      "ঘা": 2348,
      "কৌশ": 2349,
      "সৈ": 2350,
      "অন্তর্ভুক্ত": 2351,
      "হ্": 2352,
      "করবে": 2353,
      "বিস্ত": 2354,
      "উদা": 2355,
      "হরণ": 2356,
      "সমূহ": 2357,
      "পশ্চিম": 2358,
      "প্রতিষ্ঠা": 2359,
      "প্রো": 2360,
      "২০১১": 2361,
      "স্টার": 2362,
      "মানুষের": 2363,
      "ইউরোপ": 2364,
      "আনু": 2365,
      "নির্মিত": 2366,
      "অধিকার": 2367,
      "জল": 2368,
      "ীরা": 2369,
      "নিরা": 2370,
      "২০১০": 2371,
      "সম্পূর্ণ": 2372,
      "হত্যা": 2373,
      "চার্": 2374,
      "বাহিনীর": 2375,
      "বেশিরভাগ": 2376,
      "গ্": 2377,
      "এপ্র": 2378,
      "কালীন": 2379,
      "এপ্রিল": 2380,
      "সেখানে": 2381,
      "পালন": 2382,
      "রাস": 2383,
      "মতে": 2384,
      "রূপ": 2385,
      "নেয়": 2386,
      "১৯৩": 2387,
      "রান": 2388,
      "লিয়া": 2389,
      "ফ্": 2390,
      "সৃষ্টি": 2391,
      "রেকর": 2392,
      "ভাই": 2393,
      "প্রাপ্ত": 2394,
      "কেন": 2395,
      "মাস": 2396,
      "হাম": 2397,
      "ভূম": 2398,
      "মন্": 2399,
      "ফুট": 2400,
      "এসে": 2401,
      "স্বর": 2402,
      "কিং": 2403,
      "সিদ্ধান্ত": 2404,
      "ফিরে": 2405,
      "19": 2406,
      "জ্ঞা": 2407,
      "নেই": 2408,
      "মার্চ": 2409,
      "আসে": 2410,
      "রায়": 2411,
      "বাদী": 2412,
      "পুরস্কার": 2413,
      "যেটি": 2414,
      "মূলক": 2415,
      "উদ্দেশ": 2416,
      "শিশু": 2417,
      "বান": 2418,
      "দর্শ": 2419,
      "পরিকল্পনা": 2420,
      "রেল": 2421,
      "দীর্ঘ": 2422,
      "আফ্র": 2423,
      "আন্": 2424,
      "অফ": 2425,
      "সামাজিক": 2426,
      "টেন": 2427,
      "নির্দেশ": 2428,
      "am": 2429,
      "স্টা": 2430,
      "ব্যাপক": 2431,
      "খান": 2432,
      "সহায়": 2433,
      "৫০": 2434,
      "টেলি": 2435,
      "প্রকাশিত": 2436,
      "ণা": 2437,
      "বিরোধ": 2438,
      "পরিচালনা": 2439,
      "দিত": 2440,
      "স্থায়": 2441,
      "বৃহত্ত": 2442,
      "দৃ": 2443,
      "নাই": 2444,
      "ষ্কার": 2445,
      "মুক্তি": 2446,
      "নেট": 2447,
      "as": 2448,
      "উন্নয়ন": 2449,
      "নির": 2450,
      "ইন্টার": 2451,
      "লাইন": 2452,
      "চালু": 2453,
      "অতি": 2454,
      "একে": 2455,
      "মর": 2456,
      "সেপ্": 2457,
      "il": 2458,
      "মারা": 2459,
      "যো": 2460,
      "খো": 2461,
      "টিং": 2462,
      "সিস্টে": 2463,
      "গার": 2464,
      "প্রজা": 2465,
      "িকি": 2466,
      "তায়": 2467,
      "স্থি": 2468,
      "প্রাচীন": 2469,
      "গুলিতে": 2470,
      "মাই": 2471,
      "পাঁচ": 2472,
      "রেকর্ড": 2473,
      "ছবি": 2474,
      "শের": 2475,
      "উদাহরণ": 2476,
      "ডের": 2477,
      "হাই": 2478,
      "িকাংশ": 2479,
      "আমা": 2480,
      "ড়িয়ে": 2481,
      "সেপ্টে": 2482,
      "তত্ত্ব": 2483,
      "অধিকাংশ": 2484,
      "আক্রমণ": 2485,
      "যৌন": 2486,
      "এখানে": 2487,
      "কাউন্": 2488,
      "ing": 2489,
      "অনুষ্ঠিত": 2490,
      "ভো": 2491,
      "ষ্ঠান": 2492,
      "দায়িত্ব": 2493,
      "অক্টোবর": 2494,
      "ানোর": 2495,
      "অফি": 2496,
      "মনো": 2497,
      "ভ্য": 2498,
      "সোভিয়েত": 2499,
      "তালিকা": 2500,
      "মেন": 2501,
      "তারিখে": 2502,
      "ch": 2503,
      "ডার": 2504,
      "্যারি": 2505,
      "আমার": 2506,
      "el": 2507,
      "প্রবেশ": 2508,
      "অবস্থান": 2509,
      "নিয়োগ": 2510,
      "সারে": 2511,
      "ালো": 2512,
      "২০০৮": 2513,
      "মূলত": 2514,
      "টার্": 2515,
      "শিয়ার": 2516,
      "দিতে": 2517,
      "অস্ট্রে": 2518,
      "দিক": 2519,
      "দ্রুত": 2520,
      "গবেষণা": 2521,
      "বহন": 2522,
      "গ্রী": 2523,
      "নাল": 2524,
      "তাঁকে": 2525,
      "কয়েকটি": 2526,
      "২০১৪": 2527,
      "মহিলা": 2528,
      "ol": 2529,
      "মাঝে": 2530,
      "রক্ষ": 2531,
      "প্রতিনি": 2532,
      "বাস্ত": 2533,
      "শহরের": 2534,
      "সুবি": 2535,
      "ডিসেম্বর": 2536,
      "ধ্": 2537,
      "the": 2538,
      "এলাকা": 2539,
      "ূর": 2540,
      "প্রতিক": 2541,
      "ক্রি": 2542,
      "ফেব্র": 2543,
      "সময়ের": 2544,
      "অধি": 2545,
      "নভেম্বর": 2546,
      "পরীক্ষা": 2547,
      "কর্": 2548,
      "মৃত্যু": 2549,
      "ধ্বং": 2550,
      "ল্ড": 2551,
      "আপ": 2552,
      "গৃ": 2553,
      "২০১৫": 2554,
      "জুন": 2555,
      "বিবাহ": 2556,
      "েন্স": 2557,
      "গেছে": 2558,
      "ad": 2559,
      "নিজের": 2560,
      "ড়ি": 2561,
      "সায়": 2562,
      "ান্ড": 2563,
      "মুদ্র": 2564,
      "আবার": 2565,
      "ষি": 2566,
      "ঞ্জ": 2567,
      "পৃথি": 2568,
      "অংশগ্রহণ": 2569,
      "ভাষায়": 2570,
      "তৃতীয়": 2571,
      "কলে": 2572,
      "চিহ্": 2573,
      "জাহাজ": 2574,
      "ুদ্র": 2575,
      "ল্লা": 2576,
      "নিয়ন্ত্রণ": 2577,
      "সরকারি": 2578,
      "পরিচালিত": 2579,
      "যুক্তরাষ্ট্রের": 2580,
      "সফল": 2581,
      "অন্যতম": 2582,
      "টিক": 2583,
      "হিন্": 2584,
      "বিষয়ে": 2585,
      "বায়": 2586,
      "বাজার": 2587,
      "ক্রিয়": 2588,
      "ভিত্তি": 2589,
      "ভূত": 2590,
      "মন্ত্রী": 2591,
      "ঐতিহ": 2592,
      "বাল": 2593,
      "নেন": 2594,
      "ধন": 2595,
      "্তি": 2596,
      "ফ্রান্": 2597,
      "বর্ণনা": 2598,
      "সংখ্য": 2599,
      "ইউনি": 2600,
      "্যুর": 2601,
      "অ্যাল": 2602,
      "কম্প": 2603,
      "ক্রিয়া": 2604,
      "প্রতিষ্ঠান": 2605,
      "ালে": 2606,
      "অধী": 2607,
      "সৌ": 2608,
      "সংগ্রহ": 2609,
      "নাগ": 2610,
      "ব্রা": 2611,
      "দোল": 2612,
      "ছিলো": 2613,
      "প্রতিটি": 2614,
      "মুক্ত": 2615,
      "পড়": 2616,
      "নিত": 2617,
      "একটা": 2618,
      "লক্ষ্য": 2619,
      "সমর্থন": 2620,
      "পন": 2621,
      "ইয়": 2622,
      "নিশ্চ": 2623,
      "স্বাস্থ": 2624,
      "দ্বীপ": 2625,
      "সপ্ত": 2626,
      "শেষে": 2627,
      "মোট": 2628,
      "দাবি": 2629,
      "স্থিতি": 2630,
      "গভ": 2631,
      "প্রচার": 2632,
      "এক্": 2633,
      "ক্রান্ত": 2634,
      "২০০৬": 2635,
      "নেতৃত": 2636,
      "কী": 2637,
      "প্রত্য": 2638,
      "প্রত্যা": 2639,
      "অভিনয়": 2640,
      "রক্ষা": 2641,
      "সরকারের": 2642,
      "প্রাথমিক": 2643,
      "আরব": 2644,
      "অধিক": 2645,
      "জানা": 2646,
      "নির্বাচিত": 2647,
      "মায়": 2648,
      "লস": 2649,
      "চরিত্র": 2650,
      "প্রস্তাব": 2651,
      "স্বরূপ": 2652,
      "অধীনে": 2653,
      "এইচ": 2654,
      "বস্ত": 2655,
      "পারেন": 2656,
      "আন্দোল": 2657,
      "ন্দ": 2658,
      "সংস্করণ": 2659,
      "ট্রা": 2660,
      "সর্বো": 2661,
      "to": 2662,
      "কৌশল": 2663,
      "বীর": 2664,
      "মালিক": 2665,
      "পুনর্": 2666,
      "্রাজ্য": 2667,
      "ডলার": 2668,
      "সক্ষম": 2669,
      "রাখা": 2670,
      "হলো": 2671,
      "ক্ষর": 2672,
      "লিশ": 2673,
      "আমেরিকান": 2674,
      "ইতিহাস": 2675,
      "শালী": 2676,
      "বিশ্ববিদ্যালয়": 2677,
      "et": 2678,
      "ভবন": 2679,
      "লোক": 2680,
      "ঐতিহাস": 2681,
      "য়ায়": 2682,
      "পরিমাণ": 2683,
      "খেলো": 2684,
      "ঠিক": 2685,
      "ঙ্গা": 2686,
      "বিমানবন্দর": 2687,
      "বিধান": 2688,
      "কেবল": 2689,
      "খেলা": 2690,
      "গ্রু": 2691,
      "স্কুল": 2692,
      "গৃহ": 2693,
      "খেলোয়া": 2694,
      "২৪": 2695,
      "গোষ্ঠ": 2696,
      "সেবা": 2697,
      "সাম্রাজ্য": 2698,
      "ভূমিকা": 2699,
      "নিয়া": 2700,
      "নিম্": 2701,
      "ক্রিকেট": 2702,
      "পরের": 2703,
      "ইউনিয়": 2704,
      "স্থার": 2705,
      "ইউরোপীয়": 2706,
      "খেলোয়াড়": 2707,
      "এয়ার": 2708,
      "ভ্রম": 2709,
      "বেদন": 2710,
      "সরবরা": 2711,
      "ent": 2712,
      "গতি": 2713,
      "হওয়া": 2714,
      "শনাল": 2715,
      "ক্ষতি": 2716,
      "পাকিস্তান": 2717,
      "উল্লেখযোগ্য": 2718,
      "he": 2719,
      "ur": 2720,
      "ধী": 2721,
      "মেন্ট": 2722,
      "এরপর": 2723,
      "ia": 2724,
      "দেরকে": 2725,
      "যোগা": 2726,
      "সীমান": 2727,
      "ড্র": 2728,
      "ধিকার": 2729,
      "একমাত্র": 2730,
      "জানুয়ারি": 2731,
      "অঞ্চলে": 2732,
      "ফিলি": 2733,
      "আলা": 2734,
      "ওঠে": 2735,
      "দৈ": 2736,
      "প্রযুক্তি": 2737,
      "স্কো": 2738,
      "পুরো": 2739,
      "প্যা": 2740,
      "ালি": 2741,
      "হয়নি": 2742,
      "In": 2743,
      "চক": 2744,
      "ধর্মীয়": 2745,
      "গুলোতে": 2746,
      "২০০৯": 2747,
      "দশকে": 2748,
      "সমান": 2749,
      "ac": 2750,
      "ধে": 2751,
      "নর": 2752,
      "ট্রো": 2753,
      "২০০৫": 2754,
      "চ্যা": 2755,
      "সমস্ত": 2756,
      "ইংল্যান্ড": 2757,
      "গানি": 2758,
      "ফরা": 2759,
      "সমালো": 2760,
      "যোগাযোগ": 2761,
      "রোগ": 2762,
      "শান্ত": 2763,
      "২১": 2764,
      "বিল": 2765,
      "রেখে": 2766,
      "অঞ্চলের": 2767,
      "হোক": 2768,
      "মৃত্যুর": 2769,
      "বির": 2770,
      "সাহিত": 2771,
      "শতাংশ": 2772,
      "সৈন্য": 2773,
      "নিরাপত্ত": 2774,
      "পরিণ": 2775,
      "লিখ": 2776,
      "মানব": 2777,
      "ঐতিহ্য": 2778,
      "ংস": 2779,
      "ক্য": 2780,
      "সম্পন্ন": 2781,
      "ডেল": 2782,
      "ation": 2783,
      "নৌ": 2784,
      "শার": 2785,
      "যুদ্ধে": 2786,
      "ay": 2787,
      "থাকা": 2788,
      "ভূমি": 2789,
      "বৈশিষ্ট": 2790,
      "ছাত্র": 2791,
      "পাশা": 2792,
      "কোরি": 2793,
      "ঙ্ক": 2794,
      "আফগানি": 2795,
      "চিকি": 2796,
      "করছে": 2797,
      "প্রমাণ": 2798,
      "সেপ্টেম্বর": 2799,
      "পরিবেশ": 2800,
      "প্রি": 2801,
      "বৃহত্তম": 2802,
      "চিকিৎ": 2803,
      "us": 2804,
      "আট": 2805,
      "সভা": 2806,
      "ছয়": 2807,
      "রক্ষণ": 2808,
      "২০০৭": 2809,
      "সমাজ": 2810,
      "সংস্কৃতি": 2811,
      "সুবিধা": 2812,
      "বেল": 2813,
      "কর্তা": 2814,
      "খ্যাত": 2815,
      "শহ": 2816,
      "কাঠা": 2817,
      "বাংলাদেশের": 2818,
      "আনুষ্ঠান": 2819,
      "এতে": 2820,
      "জন্যে": 2821,
      "শাসন": 2822,
      "সন্ত": 2823,
      "বসবাস": 2824,
      "স্থায়ী": 2825,
      "আরে": 2826,
      "নির্ভর": 2827,
      "বিপ্ল": 2828,
      "দিনের": 2829,
      "উৎপাদন": 2830,
      "নাগরিক": 2831,
      "সর্বোচ্চ": 2832,
      "আসেন": 2833,
      "লেখা": 2834,
      "ফার": 2835,
      "সমস্যা": 2836,
      "স্তি": 2837,
      "মূল্য": 2838,
      "গ্রন্": 2839,
      "কেন্দ্রীয়": 2840,
      "ারেল": 2841,
      "আফগানিস্ত": 2842,
      "নক": 2843,
      "খল": 2844,
      "বিভ": 2845,
      "সুযোগ": 2846,
      "উট": 2847,
      "দানের": 2848,
      "ন্যাশনাল": 2849,
      "ro": 2850,
      "করত": 2851,
      "করি": 2852,
      "স্বাস্থ্য": 2853,
      "সাব": 2854,
      "00": 2855,
      "চের": 2856,
      "লিং": 2857,
      "অনুসারে": 2858,
      "আগস্ট": 2859,
      "পণ্য": 2860,
      "২৩": 2861,
      "হাজার": 2862,
      "২৬": 2863,
      "দিল": 2864,
      "পাশি": 2865,
      "পুনরায়": 2866,
      "পাশাপাশি": 2867,
      "ফের": 2868,
      "ার্ড": 2869,
      "বারের": 2870,
      "জীবনের": 2871,
      "পর্যা": 2872,
      "রাজা": 2873,
      "পাত": 2874,
      "নাট": 2875,
      "পেয়ে": 2876,
      "আকার": 2877,
      "বিবেচনা": 2878,
      "রাই": 2879,
      "মতি": 2880,
      "হতো": 2881,
      "পরিণত": 2882,
      "অপরা": 2883,
      "দৃষ্টি": 2884,
      "ফুটবল": 2885,
      "িং": 2886,
      "বিচার": 2887,
      "নির্মা": 2888,
      "অনুমো": 2889,
      "যন্ত্র": 2890,
      "প্রদর্শন": 2891,
      "সংবাদ": 2892,
      "আমরা": 2893,
      "বৃত": 2894,
      "শিয়ান": 2895,
      "ইতিহা": 2896,
      "সহযোগ": 2897,
      "জুড়ে": 2898,
      "ব্যক্তিগত": 2899,
      "দূর": 2900,
      "কার্": 2901,
      "স্টেশন": 2902,
      "আর্থ": 2903,
      "খর": 2904,
      "পৌঁ": 2905,
      "গড়ে": 2906,
      "৪০": 2907,
      "তুলনায়": 2908,
      "১০০": 2909,
      "প্রাণ": 2910,
      "সম্মান": 2911,
      "মন্দি": 2912,
      "ধ্বংস": 2913,
      "অলি": 2914,
      "ভারতে": 2915,
      "শতকের": 2916,
      "রূ": 2917,
      "শৈ": 2918,
      "তারপর": 2919,
      "ওয়্যার": 2920,
      "একক": 2921,
      "বোঝ": 2922,
      "ফরাসি": 2923,
      "পিতা": 2924,
      "ঐতিহাসিক": 2925,
      "নিম্ন": 2926,
      "সিক": 2927,
      "রাজ্যের": 2928,
      "আমাদের": 2929,
      "উন্নত": 2930,
      "কার্যকর": 2931,
      "সপ্তা": 2932,
      "আদ": 2933,
      "ইলে": 2934,
      "শুর": 2935,
      "কেট": 2936,
      "প্রায়ই": 2937,
      "কানা": 2938,
      "সুর": 2939,
      "ফেব্রুয়ারি": 2940,
      "অপারে": 2941,
      "কিল": 2942,
      "য়েল": 2943,
      "বিক্রি": 2944,
      "জিন": 2945,
      "বাহী": 2946,
      "ভিত্তিক": 2947,
      "মৌসু": 2948,
      "িউ": 2949,
      "িকায়": 2950,
      "ধারা": 2951,
      "হিন্দু": 2952,
      "নিশ্চিত": 2953,
      "প্রস্ত": 2954,
      "যুক্তরাষ্ট্রে": 2955,
      "কাঠামো": 2956,
      "গর্": 2957,
      "নিয়ার": 2958,
      "রাজধান": 2959,
      "পরিবারের": 2960,
      "..": 2961,
      "উঠে": 2962,
      "সিস্টেম": 2963,
      "উন": 2964,
      "২০১৬": 2965,
      "সংখ্যার": 2966,
      "ভালো": 2967,
      "বিজ্ঞ": 2968,
      "বন্ধু": 2969,
      "জাতিসংঘ": 2970,
      "কবি": 2971,
      "সম্প্রদায়": 2972,
      "সরবরাহ": 2973,
      "সিড": 2974,
      "টেস্ট": 2975,
      "বাইরে": 2976,
      "id": 2977,
      "২৭": 2978,
      "নিবন্ধ": 2979,
      "সিং": 2980,
      "িক্ষণ": 2981,
      "ইসরা": 2982,
      "সীমা": 2983,
      "সম্পর্কিত": 2984,
      "কখনও": 2985,
      "২৮": 2986,
      "লিউ": 2987,
      "সহায়তা": 2988,
      "কঠ": 2989,
      "ায়িত": 2990,
      "প্রক্রিয়া": 2991,
      "১৯০": 2992,
      "চ্ছা": 2993,
      "থাকেন": 2994,
      "লিন": 2995,
      "ড়িত": 2996,
      "প্রচল": 2997,
      "বন্দ": 2998,
      "প্রজাতন্ত্র": 2999,
      "গল্প": 3000,
      "ফর": 3001,
      "ফলা": 3002,
      "যাই": 3003,
      "কাজের": 3004,
      "হেতু": 3005,
      "শহরে": 3006,
      "সত্ত": 3007,
      "ুরি": 3008,
      "স্থানান্তর": 3009,
      "কম্পিউ": 3010,
      "নিরাপত্তা": 3011,
      "রাষ্ট্রপতি": 3012,
      "বৈশিষ্ট্য": 3013,
      "ময়": 3014,
      "সেন্": 3015,
      "অনুমতি": 3016,
      "টেলিভি": 3017,
      "ণ্": 3018,
      "ভার্": 3019,
      "সারা": 3020,
      "ক্ট": 3021,
      "ওয়েব": 3022,
      "এলাকায়": 3023,
      "এক্স": 3024,
      "সরাস": 3025,
      "৬০": 3026,
      "সাংস্": 3027,
      "কর্তৃপক্ষ": 3028,
      "স্বীকৃতি": 3029,
      "রাজধানী": 3030,
      "সিটি": 3031,
      "দ্রো": 3032,
      "অগ্র": 3033,
      "সংযুক্ত": 3034,
      "ডিং": 3035,
      "তুলে": 3036,
      "জটি": 3037,
      "িতার": 3038,
      "বছরে": 3039,
      "ইন্দো": 3040,
      "ব্যবসায়": 3041,
      "প্রশিক্ষণ": 3042,
      "অলিম্প": 3043,
      "সরাসরি": 3044,
      "জর": 3045,
      "সত্য": 3046,
      "বাধ্য": 3047,
      "মানের": 3048,
      "ক্ষেত্র": 3049,
      "বিক্র": 3050,
      "ist": 3051,
      "কখনো": 3052,
      "চীনা": 3053,
      "আলাদা": 3054,
      "The": 3055,
      "ণাল": 3056,
      "কাছ": 3057,
      "্যানে": 3058,
      "জনের": 3059,
      "স্বাধীনতা": 3060,
      "বাণিজ্যিক": 3061,
      "আবিষ্কার": 3062,
      "অপ": 3063,
      "দখল": 3064,
      "ষিক": 3065,
      "টাল": 3066,
      "উদ": 3067,
      "কান": 3068,
      "বহ": 3069,
      "সঙ্গীত": 3070,
      "ইরা": 3071,
      "পার্থ": 3072,
      "ারের": 3073,
      "পুলিশ": 3074,
      "ধরণের": 3075,
      "সম্ভবত": 3076,
      "প্রত্যে": 3077,
      "ig": 3078,
      "ir": 3079,
      "অভ্য": 3080,
      "অনুর": 3081,
      "ক্রো": 3082,
      "ম্বরে": 3083,
      "দশকের": 3084,
      "চিহ্নিত": 3085,
      "গ্যা": 3086,
      "ঝু": 3087,
      "বাবা": 3088,
      "লেও": 3089,
      "সাত": 3090,
      "টেল": 3091,
      "জেলা": 3092,
      "২০০৪": 3093,
      "খ্রিস্ট": 3094,
      "ক্লাব": 3095,
      "ভ্রমণ": 3096,
      "সাংস্কৃতিক": 3097,
      "প্রকৃত": 3098,
      "ভাবিত": 3099,
      "১৯৯০": 3100,
      "উৎস": 3101,
      "সফট": 3102,
      "জিল": 3103,
      "লন্ড": 3104,
      "হীন": 3105,
      "ীতি": 3106,
      "নামের": 3107,
      "উদ্দেশ্য": 3108,
      "স্থানে": 3109,
      "২০০০": 3110,
      "বয়সে": 3111,
      "সুপার": 3112,
      "সেরা": 3113,
      "যেহেতু": 3114,
      "জমি": 3115,
      "উনি": 3116,
      "চতু": 3117,
      "করণের": 3118,
      "ালা": 3119,
      "কাজে": 3120,
      "খুঁ": 3121,
      "তারিখ": 3122,
      "আয়": 3123,
      "সান": 3124,
      "ব্যাখ্যা": 3125,
      "কলকা": 3126,
      "পৃথ": 3127,
      "iv": 3128,
      "বিপক্ষে": 3129,
      "তাঁদের": 3130,
      "ার্থী": 3131,
      "im": 3132,
      "রঙ": 3133,
      "201": 3134,
      "কম্পিউটার": 3135,
      "জেন্": 3136,
      "প্রাকৃতিক": 3137,
      "গবেষণ": 3138,
      "ইতাল": 3139,
      "২২": 3140,
      "য়োগ": 3141,
      "বাম": 3142,
      "নেতা": 3143,
      "সংযোগ": 3144,
      "যাদের": 3145,
      "২০০৩": 3146,
      "চারটি": 3147,
      "এমনকি": 3148,
      "সমূহের": 3149,
      "চীনের": 3150,
      "সেনাবাহিনী": 3151,
      "বিদ্রো": 3152,
      "নিতে": 3153,
      "লাইট": 3154,
      "নিজস্ব": 3155,
      "স্থিত": 3156,
      "সংখ্যক": 3157,
      "ঢা": 3158,
      "জনক": 3159,
      "রাস্তা": 3160,
      "অন্ত": 3161,
      "ইহু": 3162,
      "কূ": 3163,
      "মেয়ে": 3164,
      "অস্ত্র": 3165,
      "আহ": 3166,
      "জর্": 3167,
      "শক্তিশালী": 3168,
      "নির্মাণের": 3169,
      "ওপর": 3170,
      "টিন": 3171,
      "র্ষ": 3172,
      "ভাগে": 3173,
      "বিদ্যু": 3174,
      "একাডে": 3175,
      "উপাদান": 3176,
      "প্রতিনিধ": 3177,
      "্লি": 3178,
      "পরিষ": 3179,
      "ers": 3180,
      "অর্থনীতি": 3181,
      "দৃশ্য": 3182,
      "em": 3183,
      "কমান": 3184,
      "স্বীকার": 3185,
      "রূপে": 3186,
      "াদ": 3187,
      "ব্দে": 3188,
      "বিরোধী": 3189,
      "for": 3190,
      "তান": 3191,
      "পাবল": 3192,
      "আজ": 3193,
      "ইর": 3194,
      "২৯": 3195,
      "নিয়মিত": 3196,
      "গোল": 3197,
      "সর্বা": 3198,
      "খ্রিস্টা": 3199,
      "দলে": 3200,
      "হ্যা": 3201,
      "বাসী": 3202,
      "ফেড": 3203,
      "ভবিষ": 3204,
      "প্রভাবিত": 3205,
      "বিজয়": 3206,
      "নির্বাচন": 3207,
      "উদাহরণস্বরূপ": 3208,
      "মডেল": 3209,
      "দেব": 3210,
      "শতাব্": 3211,
      "শ্রেণ": 3212,
      "পর্যায়ে": 3213,
      "মর্": 3214,
      "বিখ্যাত": 3215,
      "জাপান": 3216,
      "থেকেই": 3217,
      "বিভক্ত": 3218,
      "ভবিষ্য": 3219,
      "ইয়া": 3220,
      "বিয়ে": 3221,
      "রাখে": 3222,
      "হাউ": 3223,
      "চ্ছ": 3224,
      "অধ্য": 3225,
      "আব": 3226,
      "প্রয়োগ": 3227,
      "ব্যর্থ": 3228,
      "মেল": 3229,
      "কুর": 3230,
      "ঘু": 3231,
      "জড়িত": 3232,
      "কেউ": 3233,
      "সুই": 3234,
      "হলেও": 3235,
      "যাইহোক": 3236,
      "জাপ": 3237,
      "অবশ্য": 3238,
      "পেশা": 3239,
      "থাকতে": 3240,
      "ব্যাপী": 3241,
      "পৃথক": 3242,
      "গ্রুপ": 3243,
      "অত্য": 3244,
      "টস": 3245,
      "গুলোকে": 3246,
      "কোনও": 3247,
      "স্বাক্ষর": 3248,
      "নিজেদের": 3249,
      "যাবে": 3250,
      "চলা": 3251,
      "নিযুক্ত": 3252,
      "পাতাল": 3253,
      "মসজি": 3254,
      "বস্তু": 3255,
      "নকশা": 3256,
      "ংশে": 3257,
      "সম্ম": 3258,
      "সংরক্ষ": 3259,
      "দুইটি": 3260,
      "সংস্কার": 3261,
      "আল্লা": 3262,
      "শতাব্দ": 3263,
      "বেক্ষণ": 3264,
      "লিখে": 3265,
      "সরণ": 3266,
      "তিক্রম": 3267,
      "মিনি": 3268,
      "সরকারী": 3269,
      "ধীরে": 3270,
      "অভ্যন্ত": 3271,
      "নিবেশ": 3272,
      "পৃথিবীর": 3273,
      "শান্তি": 3274,
      "প্রতিনিধিত্ব": 3275,
      "কলা": 3276,
      "খেলার": 3277,
      "ান্ত্র": 3278,
      "ফোর্": 3279,
      "পর্ব": 3280,
      "ঘন": 3281,
      "অভিযোগ": 3282,
      "খরচ": 3283,
      "un": 3284,
      "ঘর": 3285,
      "৭০": 3286,
      "ত্যাগ": 3287,
      "ul": 3288,
      "৮০": 3289,
      "টেড": 3290,
      "কর্মকর্তা": 3291,
      "আরেকটি": 3292,
      "েনের": 3293,
      "কারীদের": 3294,
      "পুত্র": 3295,
      "নিকট": 3296,
      "Ch": 3297,
      "সমুদ্র": 3298,
      "খাদ্য": 3299,
      "নারীদের": 3300,
      "লেখক": 3301,
      "পাকিস্তানের": 3302,
      "প্রয়োজনীয়": 3303,
      "কং": 3304,
      "চূ": 3305,
      "প্রথ": 3306,
      "প্রশাস": 3307,
      "রোমান": 3308,
      "একাধিক": 3309,
      "শতাব্দী": 3310,
      "ra": 3311,
      "উত্": 3312,
      "্ডার": 3313,
      "শেষের": 3314,
      "ব্যাট": 3315,
      "বিদ্য": 3316,
      "ফোন": 3317,
      "্বেও": 3318,
      "কাছা": 3319,
      "ক্ষেপ": 3320,
      "ec": 3321,
      "কাছি": 3322,
      "সংগঠন": 3323,
      "চাই": 3324,
      "বুঝ": 3325,
      "অপরাধ": 3326,
      "ইন্দোনে": 3327,
      "দেখে": 3328,
      "পরিবহন": 3329,
      "নামকরণ": 3330,
      "চিন্ত": 3331,
      "শ্রেণী": 3332,
      "গোষ্ঠী": 3333,
      "শতাব্দীর": 3334,
      "গায়": 3335,
      "জোর": 3336,
      "ায়ন": 3337,
      "এটিকে": 3338,
      "অস্ট্রেলি": 3339,
      "ব্যবহারের": 3340,
      "ব্যাংক": 3341,
      "কিলো": 3342,
      "ান্ত্রিক": 3343,
      "হাসপাতাল": 3344,
      "বার্ষিক": 3345,
      "সূত্র": 3346,
      "স্পষ্ট": 3347,
      "ক্যাল": 3348,
      "um": 3349,
      "ুতি": 3350,
      "বিলি": 3351,
      "দেখতে": 3352,
      "জেনারেল": 3353,
      "জ্ব": 3354,
      "দ্বন্": 3355,
      "আলোচনা": 3356,
      "ফলাফল": 3357,
      "িশ": 3358,
      "ভূমিক": 3359,
      "পদার্থ": 3360,
      "ইভ": 3361,
      "বিস্তৃত": 3362,
      "নামক": 3363,
      "সন্তান": 3364,
      "এখনও": 3365,
      "কাউন্সিল": 3366,
      "বায়ু": 3367,
      "আর্থিক": 3368,
      "কাছাকাছি": 3369,
      "আয়োজন": 3370,
      "সির": 3371,
      "পৃষ্ঠ": 3372,
      "ডু": 3373,
      "সক্রিয়": 3374,
      "সাক্ষা": 3375,
      "এটির": 3376,
      "সাইট": 3377,
      "প্রচলিত": 3378,
      "নেটওয়ার্": 3379,
      "খোলা": 3380,
      "op": 3381,
      "ছড়িয়ে": 3382,
      "সাম্": 3383,
      "বৃহৎ": 3384,
      "সীমান্ত": 3385,
      "বর্ধ": 3386,
      "তুর": 3387,
      "পড়া": 3388,
      "জনসংখ্যা": 3389,
      "মাত্রা": 3390,
      "ত্বের": 3391,
      "বিশ্ববিদ্যালয়ের": 3392,
      "সন্ধান": 3393,
      "জিতে": 3394,
      "গ্রি": 3395,
      "যুগ": 3396,
      "ক্রে": 3397,
      "চ্ছি": 3398,
      "পার্থক্য": 3399,
      "চূড়": 3400,
      "লাল": 3401,
      "হস্ত": 3402,
      "হাতে": 3403,
      "খেলায়": 3404,
      "ফেলে": 3405,
      "স্ত্রী": 3406,
      "বিস্তার": 3407,
      "আদাল": 3408,
      "আচর": 3409,
      "প্রচ": 3410,
      "তৈরী": 3411,
      "খুবই": 3412,
      "শব্দটি": 3413,
      "অবস্থায়": 3414,
      "কমিশন": 3415,
      "এদের": 3416,
      "চো": 3417,
      "প্রকৃতি": 3418,
      "ভাব্য": 3419,
      "বিতর্ক": 3420,
      "বাড়ি": 3421,
      "আগ্রহ": 3422,
      "জানি": 3423,
      "পঞ্চ": 3424,
      "প্রের": 3425,
      "ড্রা": 3426,
      "ফিক": 3427,
      "হ্রা": 3428,
      "ুজ": 3429,
      "কেই": 3430,
      "অনুসরণ": 3431,
      "পরিবর্তে": 3432,
      "ag": 3433,
      "শিকা": 3434,
      "েরা": 3435,
      "অত্যন্ত": 3436,
      "সংক্রান্ত": 3437,
      "দাঁ": 3438,
      "২০০১": 3439,
      "বেশী": 3440,
      "শ্রমিক": 3441,
      "১৯৭০": 3442,
      "St": 3443,
      "ঈশ্ব": 3444,
      "ট্যা": 3445,
      "য়নের": 3446,
      "্তু": 3447,
      "নিষি": 3448,
      "প্রাচ": 3449,
      "রুশ": 3450,
      "নীতির": 3451,
      "১৯৮০": 3452,
      "নিষিদ্ধ": 3453,
      "অল্প": 3454,
      "্তা": 3455,
      "বৈজ্ঞান": 3456,
      "কাহি": 3457,
      "সফটওয়্যার": 3458,
      "প্রশ্": 3459,
      "প্রতিযোগিতা": 3460,
      "বিদ্যমান": 3461,
      "লীয়": 3462,
      "স্ফ": 3463,
      "ন্স": 3464,
      "পাই": 3465,
      "বরণ": 3466,
      "ন্যাস": 3467,
      "অলিম্পিক": 3468,
      "থিয়ে": 3469,
      "স্যার": 3470,
      "বয়স": 3471,
      "ক্যাম্প": 3472,
      "নেতৃত্ব": 3473,
      "মন্দির": 3474,
      "বিদ্যুৎ": 3475,
      "চূড়ান্ত": 3476,
      "শিকাগো": 3477,
      "বিশিষ্ট": 3478,
      "দিনে": 3479,
      "জানায়": 3480,
      "রিক্ত": 3481,
      "ব্যাপকভাবে": 3482,
      "চিকিৎসা": 3483,
      "বৈজ্ঞানিক": 3484,
      "de": 3485,
      "ধরা": 3486,
      "েনে": 3487,
      "ক্টর": 3488,
      "ব্যক্ত": 3489,
      "তাদেরকে": 3490,
      "ভাষার": 3491,
      "টেলিভিশন": 3492,
      "ঝুঁ": 3493,
      "৯০": 3494,
      "ছেলে": 3495,
      "লিঙ্গ": 3496,
      "তাঁরা": 3497,
      "ঞ্জা": 3498,
      "বিশ্লে": 3499,
      "পরাজিত": 3500,
      "ককে": 3501,
      "পলি": 3502,
      "সাগর": 3503,
      "সম্ভাব্য": 3504,
      "জানুয়ার": 3505,
      "পরীক্ষ": 3506,
      "শিকার": 3507,
      "সড়": 3508,
      "নিজেকে": 3509,
      "উদ্দেশ্যে": 3510,
      "সর্বাধিক": 3511,
      "কিলোমিটার": 3512,
      "জ্যা": 3513,
      "পন্": 3514,
      "ফর্": 3515,
      "কর্প": 3516,
      "বাঁ": 3517,
      "বাদের": 3518,
      "িতায়": 3519,
      "লিপি": 3520,
      "পাশে": 3521,
      "অবস্থা": 3522,
      "স্থাপিত": 3523,
      "অনুষ্ঠান": 3524,
      "ত্ত্বিক": 3525,
      "কলেজ": 3526,
      "সমগ্র": 3527,
      "নামূল": 3528,
      "পাবলিক": 3529,
      "প্রথমে": 3530,
      "্ট": 3531,
      "বিনিয়োগ": 3532,
      "মির": 3533,
      "রিয়ে": 3534,
      "কার্যক্রম": 3535,
      "মৌলিক": 3536,
      "জটিল": 3537,
      "সমন্": 3538,
      "মাম": 3539,
      "ষ্ণ": 3540,
      "ইউনিয়ন": 3541,
      "অবদান": 3542,
      "শ্রী": 3543,
      "স্থাপনা": 3544,
      "পরিচালক": 3545,
      "দন্ত": 3546,
      "লঙ্": 3547,
      "নিহত": 3548,
      "বিশাল": 3549,
      "উপস্থিত": 3550,
      "প্রাথমিকভাবে": 3551,
      "লিখিত": 3552,
      "সত্ত্বেও": 3553,
      "বৌ": 3554,
      "মাসের": 3555,
      "ম্ভ": 3556,
      "ter": 3557,
      "ব্ব": 3558,
      "ব্দের": 3559,
      "মন্ত্রণাল": 3560,
      "গ্রীষ্": 3561,
      "থিয়েটার": 3562,
      "আনা": 3563,
      "নেপাল": 3564,
      "স্বাভাব": 3565,
      "থাকবে": 3566,
      "১৯৬০": 3567,
      "দ্বীপের": 3568,
      "আন্দোলন": 3569,
      "বৌদ্ধ": 3570,
      "ারি": 3571,
      "পাস": 3572,
      "গভীর": 3573,
      "চ্যানে": 3574,
      "চতুর্থ": 3575,
      "শ্রেণীর": 3576,
      "ণে": 3577,
      "বক্ত": 3578,
      "৩১": 3579,
      "জনসংখ্যার": 3580,
      "কির": 3581,
      "প্রাণী": 3582,
      "শোধ": 3583,
      "অতিরিক্ত": 3584,
      "বিদ্রোহ": 3585,
      "ew": 3586,
      "পল": 3587,
      "রক্ত": 3588,
      "নাক্ত": 3589,
      "থাকার": 3590,
      "বর্গ": 3591,
      "কর্মী": 3592,
      "ফ্রে": 3593,
      "যাত্রা": 3594,
      "অতিক্রম": 3595,
      "ভৌ": 3596,
      "যাওয়ার": 3597,
      "বোর্ড": 3598,
      "বহি": 3599,
      "রাম": 3600,
      "জাত": 3601,
      "কোম্পানির": 3602,
      "যথা": 3603,
      "িক্স": 3604,
      "গুলিকে": 3605,
      "os": 3606,
      "গণের": 3607,
      "হার্": 3608,
      "পেক্ষ": 3609,
      "শুরুতে": 3610,
      "কৃষি": 3611,
      "মালিকানা": 3612,
      "হ্রাস": 3613,
      "ইঞ্": 3614,
      "সৃ": 3615,
      "পশ্চিমা": 3616,
      "াই": 3617,
      "কালো": 3618,
      "কংগ্রে": 3619,
      "৫০০": 3620,
      "কেল": 3621,
      "সাফল": 3622,
      "সংবিধান": 3623,
      "বরং": 3624,
      "নির্ধারণ": 3625,
      "অনুমোদন": 3626,
      "গড়": 3627,
      "াস": 3628,
      "প্রধানমন্ত্রী": 3629,
      "ইন্ডি": 3630,
      "যাত্রী": 3631,
      "প্রস্তুত": 3632,
      "আঞ্চ": 3633,
      "কীয়": 3634,
      "স্ম": 3635,
      "পরিষে": 3636,
      "ক্রমে": 3637,
      "বর্তন": 3638,
      "ষক": 3639,
      "যুগের": 3640,
      "ইসলাম": 3641,
      "গৃহীত": 3642,
      "আঞ্চলিক": 3643,
      "ot": 3644,
      "তৃ": 3645,
      "ভঙ্গ": 3646,
      "রচনা": 3647,
      "শনে": 3648,
      "োধ": 3649,
      "ন্দা": 3650,
      "est": 3651,
      "ঘটনার": 3652,
      "পরামর্": 3653,
      "োরে": 3654,
      "বাকি": 3655,
      "নিয়ম": 3656,
      "আনুষ্ঠানিকভাবে": 3657,
      "ab": 3658,
      "পছ": 3659,
      "বিদেশ": 3660,
      "দেওয়ার": 3661,
      "অভিজ্ঞ": 3662,
      "রাজনীতি": 3663,
      "উচিত": 3664,
      "গরি": 3665,
      "প্রতী": 3666,
      "যাওয়া": 3667,
      "ব্রু": 3668,
      "ভুল": 3669,
      "রীণ": 3670,
      "চ্ছিন্ন": 3671,
      "াম": 3672,
      "বিনি": 3673,
      "বাচক": 3674,
      "জাদু": 3675,
      "ত্রি": 3676,
      "গিয়েছিল": 3677,
      "টার্মি": 3678,
      "ut": 3679,
      "আশা": 3680,
      "ালের": 3681,
      "বাতি": 3682,
      "চলচ্চিত্রের": 3683,
      "ভিত্তিতে": 3684,
      "অস্ত": 3685,
      "পতা": 3686,
      "নিস": 3687,
      "ছেড়ে": 3688,
      "দেহ": 3689,
      "মান্য": 3690,
      "ক্রী": 3691,
      "পরিবর্তিত": 3692,
      "রূপান্তর": 3693,
      "পেশাদার": 3694,
      "কন্": 3695,
      "ভের": 3696,
      "ব্যান্ড": 3697,
      "নির্ধার": 3698,
      "পর্যায়": 3699,
      "বিশেষত": 3700,
      "সমাধান": 3701,
      "ইসরায়ে": 3702,
      "প্রতিরোধ": 3703,
      "ডিজা": 3704,
      "ফার্": 3705,
      "প্রযো": 3706,
      "স্পে": 3707,
      "পরিচ": 3708,
      "্মদ": 3709,
      "শিল্পী": 3710,
      "বিভাগের": 3711,
      "চ্যাম্প": 3712,
      "ইহুদি": 3713,
      "সাম্প্রতিক": 3714,
      "শীয়": 3715,
      "হবার": 3716,
      "ব্যয়": 3717,
      "বুদ্ধ": 3718,
      "ব্যক্তির": 3719,
      "মুসল": 3720,
      "ইসলামী": 3721,
      "গর্ভ": 3722,
      "বোধ": 3723,
      "মুদ্রা": 3724,
      "এশিয়া": 3725,
      "গন": 3726,
      "বিচ্ছিন্ন": 3727,
      "পর্তু": 3728,
      "নীত": 3729,
      "পৃথিবী": 3730,
      "ow": 3731,
      "অত": 3732,
      "অংশে": 3733,
      "পয়": 3734,
      "বজায়": 3735,
      "ীতে": 3736,
      "রেডিও": 3737,
      "ট্রেন": 3738,
      "পুরা": 3739,
      "ত্মক": 3740,
      "সাম্রাজ্যের": 3741,
      "সেতু": 3742,
      "যোগদান": 3743,
      "ব্যাপারে": 3744,
      "বিজ্ঞানের": 3745,
      "অ্যান্ড": 3746,
      "আসা": 3747,
      "আকর্": 3748,
      "উঠ": 3749,
      "গল": 3750,
      "দুর": 3751,
      "নিং": 3752,
      "বিদ্যালয়": 3753,
      "200": 3754,
      "ঘাত": 3755,
      "ইয়ে": 3756,
      "জাপানি": 3757,
      "ম্বা": 3758,
      "ল্যান্ডের": 3759,
      "আমেরিকার": 3760,
      "সৌদি": 3761,
      "ইয়র্ক": 3762,
      "গভর্": 3763,
      "og": 3764,
      "তাপ": 3765,
      "মাইল": 3766,
      "ক্ষুদ্র": 3767,
      "সিয়ে": 3768,
      "ট্রে": 3769,
      "সম্পদ": 3770,
      "১৮৯": 3771,
      "রাজ্যে": 3772,
      "সংরক্ষিত": 3773,
      "পরামর্শ": 3774,
      "পেন": 3775,
      "বেড়ে": 3776,
      "ব্ল": 3777,
      "হত্যার": 3778,
      "ইন্স": 3779,
      "কোম্পান": 3780,
      "প্রেসিড": 3781,
      "শুরুর": 3782,
      "চিন্তা": 3783,
      "াতে": 3784,
      "িপ্ত": 3785,
      "একত্র": 3786,
      "সংস্থার": 3787,
      "মিশর": 3788,
      "মিডিয়া": 3789,
      "শিরো": 3790,
      "বলতে": 3791,
      "সম্পাদ": 3792,
      "গতভাবে": 3793,
      "পুনঃ": 3794,
      "এসেছে": 3795,
      "তান্ত্রিক": 3796,
      "রহ": 3797,
      "সেন্ট": 3798,
      "৩৫": 3799,
      "টিভি": 3800,
      "কিনা": 3801,
      "মেট্রো": 3802,
      "ব্যবস্থার": 3803,
      "ট্রান্": 3804,
      "অব্যা": 3805,
      "গেম": 3806,
      "খেলে": 3807,
      "প্লা": 3808,
      "খুঁজে": 3809,
      "বিলিয়ন": 3810,
      "অভ": 3811,
      "সাগ": 3812,
      "কার্ড": 3813,
      "গুণ": 3814,
      "স্থল": 3815,
      "সিনে": 3816,
      "ব্রিটেন": 3817,
      "চলচ্চিত্রে": 3818,
      "বিশ্লেষণ": 3819,
      "সঠিক": 3820,
      "নেয়া": 3821,
      "প্রতিবেদন": 3822,
      "রিপোর্ট": 3823,
      "গ্রহণের": 3824,
      "িয়ান": 3825,
      "শিক্ষক": 3826,
      "প্রতিনিধি": 3827,
      "স্বাভাবিক": 3828,
      "টার্মিনাল": 3829,
      "কথ": 3830,
      "সেস": 3831,
      "সংজ্ঞ": 3832,
      "২০১৭": 3833,
      "গ্রামের": 3834,
      "শিল্পের": 3835,
      "ইলেক": 3836,
      "মুসলমান": 3837,
      "বিধ": 3838,
      "ন্তব্য": 3839,
      "গ্রিক": 3840,
      "কোর": 3841,
      "কালের": 3842,
      "ফ্রি": 3843,
      "বার্ট": 3844,
      "এলাকার": 3845,
      "মসজিদ": 3846,
      "ce": 3847,
      "ri": 3848,
      "ভোট": 3849,
      "তেল": 3850,
      "মেয়া": 3851,
      "বিশ্বব্যাপী": 3852,
      "ard": 3853,
      "od": 3854,
      "দনের": 3855,
      "বিংশ": 3856,
      "তাত্ত্বিক": 3857,
      "টাওয়ার": 3858,
      "ব্যবসা": 3859,
      "জিয়া": 3860,
      "১৯৯১": 3861,
      "স্ট্রি": 3862,
      "আফগান": 3863,
      "ak": 3864,
      "ঘন্": 3865,
      "মিথ": 3866,
      "কোর্": 3867,
      "পেক্ষা": 3868,
      "সূর": 3869,
      "বৃদ্ধির": 3870,
      "গ্ন": 3871,
      "ইতিহাসে": 3872,
      "সীমাবদ্ধ": 3873,
      "মেন্": 3874,
      "দেশিক": 3875,
      "সম্মেল": 3876,
      "সারিত": 3877,
      "আদি": 3878,
      "ষিত": 3879,
      "করলে": 3880,
      "হয়েছিলেন": 3881,
      "খেল": 3882,
      "শ্রুতি": 3883,
      "ওয়েস্ট": 3884,
      "জন্মগ্রহণ": 3885,
      "চ্যাম্পিয়ন": 3886,
      "এসব": 3887,
      "টান": 3888,
      "প্রদেশ": 3889,
      "ত্রু": 3890,
      "প্তি": 3891,
      "জানান": 3892,
      "ম্যাচ": 3893,
      "ইউরোপের": 3894,
      "১৯৫০": 3895,
      "সফর": 3896,
      "চায়": 3897,
      "হুম": 3898,
      "দিয়েছিলেন": 3899,
      "উন্ডে": 3900,
      "শারীর": 3901,
      "পথে": 3902,
      "জ্যো": 3903,
      "সাবেক": 3904,
      "পোর্": 3905,
      "যৌথ": 3906,
      "অভ্যন্তরীণ": 3907,
      "কমে": 3908,
      "দীর": 3909,
      "নব": 3910,
      "ন্দর": 3911,
      "ক্রু": 3912,
      "স্টো": 3913,
      "শীত": 3914,
      "পরবর্তীকালে": 3915,
      "হাম্মদ": 3916,
      "প্রতিক্রি": 3917,
      "কর্পোরে": 3918,
      "আদর্শ": 3919,
      "বণ": 3920,
      "টিত": 3921,
      "সিস": 3922,
      "১৯৯৬": 3923,
      "অর্ধে": 3924,
      "ম্যাক": 3925,
      "শৈলী": 3926,
      "এন্ড": 3927,
      "হান": 3928,
      "হংক": 3929,
      "প্রকার": 3930,
      "কারা": 3931,
      "অবশেষে": 3932,
      "ভাবনা": 3933,
      "ইস্ট": 3934,
      "ভিল": 3935,
      "মূর": 3936,
      "যত": 3937,
      "ৎকার": 3938,
      "অনুসন্ধান": 3939,
      "মোবাই": 3940,
      "জাপানের": 3941,
      "হংকং": 3942,
      "ap": 3943,
      "কূল": 3944,
      "প্রণ": 3945,
      "প্রচেষ্টা": 3946,
      "ন্ধ": 3947,
      "যুব": 3948,
      "উপরে": 3949,
      "নিয়ন্ত্রিত": 3950,
      "বাস্তব": 3951,
      "গ্রন্থ": 3952,
      "জাতিসংঘের": 3953,
      "আচরণ": 3954,
      "আকর্ষণ": 3955,
      "তর্ক": 3956,
      "প্রজাতি": 3957,
      "নিষ্ঠ": 3958,
      "মিং": 3959,
      "কোড": 3960,
      "বিশ্বযুদ্ধের": 3961,
      "চাহি": 3962,
      "সীমিত": 3963,
      "আর্মে": 3964,
      "পরিষেবা": 3965,
      "ইলেকট্র": 3966,
      "সমকা": 3967,
      "স্টেট": 3968,
      "প্রোগ্রাম": 3969,
      "প্রত্যেক": 3970,
      "কাহিনী": 3971,
      "অস্তিত্ব": 3972,
      "ণু": 3973,
      "মুর": 3974,
      "সকে": 3975,
      "প্রতিরক্ষা": 3976,
      "জেলার": 3977,
      "ঙ্গো": 3978,
      "বাংলাদেশে": 3979,
      "ফাইন": 3980,
      "বিবেচিত": 3981,
      "সাহিত্য": 3982,
      "খ্রিস্টাব্দে": 3983,
      "ডিজাইন": 3984,
      "উদ্য": 3985,
      "চনার": 3986,
      "তিব্ব": 3987,
      "স্থানের": 3988,
      "ডিজি": 3989,
      "সুল": 3990,
      "রাষ্ট্রের": 3991,
      "আইনের": 3992,
      "মালা": 3993,
      "নির্ধারিত": 3994,
      "ডায়": 3995,
      "তরু": 3996,
      "করছেন": 3997,
      "টিউ": 3998,
      "বেগ": 3999,
      "তাহলে": 4000,
      "সম্প্রচার": 4001,
      "জায়গা": 4002,
      "পাঁচটি": 4003,
      "গবেষণায়": 4004,
      "জ্যোতি": 4005,
      "এভাবে": 4006,
      "বিন": 4007,
      "সহজ": 4008,
      "১৯৯৮": 4009,
      "১৯৯৯": 4010,
      "হোটেল": 4011,
      "বিজ্ঞানী": 4012,
      "Ind": 4013,
      "সেন্টার": 4014,
      "পছন্দ": 4015,
      "ডেন": 4016,
      "পূর": 4017,
      "ফ্যা": 4018,
      "য়িক": 4019,
      "মার্ক": 4020,
      "প্রতিযোগিতায়": 4021,
      "রাখেন": 4022,
      "সভাপতি": 4023,
      "অপারেশন": 4024,
      "কঠিন": 4025,
      "প্যারি": 4026,
      "লড়া": 4027,
      "সংরক্ষণ": 4028,
      "মেড": 4029,
      "পারি": 4030,
      "শীর্ষ": 4031,
      "ডাক": 4032,
      "পত্তি": 4033,
      "যোদ্ধ": 4034,
      "বন্দরের": 4035,
      "রণ": 4036,
      "মাদ": 4037,
      "পাথ": 4038,
      "প্রধানত": 4039,
      "ধারাবাহ": 4040,
      "ভূমিকম্প": 4041,
      "এন্": 4042,
      "এগুলো": 4043,
      "ভোগ": 4044,
      "সেট": 4045,
      "মানসিক": 4046,
      "আরবি": 4047,
      "গাছ": 4048,
      "ov": 4049,
      "প্রবাহ": 4050,
      "শিয়ায়": 4051,
      "রিয়া": 4052,
      "১৯৯৭": 4053,
      "উত্তরা": 4054,
      "কারীরা": 4055,
      "বিষয়ক": 4056,
      "স্বীকৃত": 4057,
      "ওয়ার্ল্ড": 4058,
      "অফিস": 4059,
      "ঢ়": 4060,
      "বিকা": 4061,
      "ায়ার": 4062,
      "১৯৩০": 4063,
      "পরিবে": 4064,
      "যুগে": 4065,
      "খাবার": 4066,
      "গঠনের": 4067,
      "সার্ব": 4068,
      "পাঠানো": 4069,
      "দৈর্ঘ": 4070,
      "সমালোচনা": 4071,
      "মোবাইল": 4072,
      "গী": 4073,
      "সেল": 4074,
      "অধ্যা": 4075,
      "শিক্ষার": 4076,
      "এখনো": 4077,
      "আক্রমণের": 4078,
      "সিরিজ": 4079,
      "ইউনিভার্": 4080,
      "আনুষ্ঠানিক": 4081,
      "Re": 4082,
      "sh": 4083,
      "তৎ": 4084,
      "যথে": 4085,
      "বাব": 4086,
      "য়েড": 4087,
      "মাছ": 4088,
      "ার্স": 4089,
      "কিভাবে": 4090,
      "সিয়া": 4091,
      "টেক": 4092,
      "প্রথমবারের": 4093,
      "জন্মের": 4094,
      "প্রকল্পের": 4095,
      "অনুরূপ": 4096,
      "অপর": 4097,
      "আদেশ": 4098,
      "আহত": 4099,
      "হিংস": 4100,
      "ভিডিও": 4101,
      "মাধ্যম": 4102,
      "বৈধ": 4103,
      "ধর্মের": 4104,
      "বিকল্প": 4105,
      "দশক": 4106,
      "রাখার": 4107,
      "শিশুদের": 4108,
      "আফ্রিকা": 4109,
      "অস্ট্রেলিয়া": 4110,
      "স্থানান্তরিত": 4111,
      "চ্যানেল": 4112,
      "হাল": 4113,
      "প্রদেশের": 4114,
      "সামান্য": 4115,
      "নাত": 4116,
      "ক্ষিপ্ত": 4117,
      "পাখ": 4118,
      "বাদিক": 4119,
      "রাখতে": 4120,
      "ইউনিট": 4121,
      "সম্প্রদায়ের": 4122,
      "ঢাকা": 4123,
      "ঝুঁকি": 4124,
      "ানু": 4125,
      "মিশ্র": 4126,
      "হাত": 4127,
      "কোষ": 4128,
      "হারা": 4129,
      "উপল": 4130,
      "বয়সী": 4131,
      "পার্টি": 4132,
      "তনের": 4133,
      "রত": 4134,
      "পূর্বা": 4135,
      "সাংবাদিক": 4136,
      "মাইক্রো": 4137,
      "বিদেশী": 4138,
      "এশিয়ার": 4139,
      "শস্ত্র": 4140,
      "পরিমা": 4141,
      "পেয়েছে": 4142,
      "ইউএস": 4143,
      "সম্মুখ": 4144,
      "জীবিত": 4145,
      "১৯৯৩": 4146,
      "ধর্ষণ": 4147,
      "নেটওয়ার্ক": 4148,
      "পরিচয়": 4149,
      "ইট": 4150,
      "এত": 4151,
      "বাসের": 4152,
      "সাদা": 4153,
      "ড়ায়": 4154,
      "মহিলাদের": 4155,
      "পৌঁছ": 4156,
      "যথেষ্ট": 4157,
      "২০০২": 4158,
      "ইন্ডিয়া": 4159,
      "কমিউনি": 4160,
      "স্পেন": 4161,
      "প্রেস": 4162,
      "ইতিহাসের": 4163,
      "অব্যাহত": 4164,
      "oc": 4165,
      "৭৫": 4166,
      "িকো": 4167,
      "বিভাগে": 4168,
      "সম্রা": 4169,
      "সংসদ": 4170,
      "সম্পত্ত": 4171,
      "প্রতিষ্ঠার": 4172,
      "ওয়াল": 4173,
      "জীবনে": 4174,
      "ইন্টারন্যাশনাল": 4175,
      "অ্যালবাম": 4176,
      "ফেডারে": 4177,
      "ক্রীড়া": 4178,
      "নদীর": 4179,
      "সতর্ক": 4180,
      "গ্রস্ত": 4181,
      "দূরে": 4182,
      "মাঝা": 4183,
      "চুক্তির": 4184,
      "স্কুলে": 4185,
      "ইউনিয়নের": 4186,
      "সপ্তাহ": 4187,
      "মৌসুমে": 4188,
      "স্মৃতি": 4189,
      "বিলু": 4190,
      "সাহ": 4191,
      "সংগঠিত": 4192,
      "কেরা": 4193,
      "অভিযান": 4194,
      "১৯৯৫": 4195,
      "উন্ড": 4196,
      "সদস্যদের": 4197,
      "প্রশ্ন": 4198,
      "সংজ্ঞায়িত": 4199,
      "ian": 4200,
      "তবু": 4201,
      "থাই": 4202,
      "অনুবাদ": 4203,
      "অবসর": 4204,
      "পর্যবেক্ষণ": 4205,
      "স্যু": 4206,
      "অর্থা": 4207,
      "মাঝামাঝ": 4208,
      "আলে": 4209,
      "এরা": 4210,
      "নেওয়া": 4211,
      "মানে": 4212,
      "ট্রি": 4213,
      "অবৈ": 4214,
      "শাহ": 4215,
      "গ্রামে": 4216,
      "শক্তির": 4217,
      "পানির": 4218,
      "বুঝতে": 4219,
      "আক্রান্ত": 4220,
      "বংশ": 4221,
      "গুন": 4222,
      "যেগুলো": 4223,
      "যাকে": 4224,
      "ওয়ান": 4225,
      "স্টেডিয়া": 4226,
      "দারি": 4227,
      "পার্ক": 4228,
      "প্রচুর": 4229,
      ")-": 4230,
      "জরি": 4231,
      "বাগ": 4232,
      "কাপ": 4233,
      "কাণ্ড": 4234,
      "সংক্ষিপ্ত": 4235,
      "জিং": 4236,
      "বোন": 4237,
      "রাষ্ট্রীয়": 4238,
      "কমিটি": 4239,
      "প্রতীক": 4240,
      "শ্": 4241,
      "েস": 4242,
      "য়েন": 4243,
      "জনগণের": 4244,
      "কিউ": 4245,
      "সুস্থ": 4246,
      "পেতে": 4247,
      "ঙ্গের": 4248,
      "ক্যাথ": 4249,
      "আলোক": 4250,
      "পতাকা": 4251,
      "ts": 4252,
      "উড়": 4253,
      "গার্": 4254,
      "রাশিয়ান": 4255,
      "ক্লি": 4256,
      "ang": 4257,
      "আমেরিকা": 4258,
      "শ্রেষ্ঠ": 4259,
      "লীগ": 4260,
      "লিয়াম": 4261,
      "প্রজাতির": 4262,
      "ফ্রান্স": 4263,
      "অবশ্যই": 4264,
      "প্রশাসনিক": 4265,
      "পন্থ": 4266,
      "অর্থাৎ": 4267,
      "আশ্র": 4268,
      "পক": 4269,
      "পিত": 4270,
      "প্রান্ত": 4271,
      "বিয়া": 4272,
      "সামনে": 4273,
      "প্রতিক্রিয়া": 4274,
      "আবাস": 4275,
      "৩৩": 4276,
      "মিউ": 4277,
      "বর্ষ": 4278,
      "দূত": 4279,
      "গভর্নর": 4280,
      "তরুণ": 4281,
      "খারা": 4282,
      "ধানে": 4283,
      "পদে": 4284,
      "রাতে": 4285,
      "পাওয়ার": 4286,
      "বোমা": 4287,
      "ফ্রা": 4288,
      "ess": 4289,
      "ওয়ার্ড": 4290,
      "ডিজিটাল": 4291,
      "খানা": 4292,
      "নথি": 4293,
      "শূ": 4294,
      "নিচে": 4295,
      "জনসাধারণ": 4296,
      "জির": 4297,
      "শাখা": 4298,
      "পিছ": 4299,
      "গোপন": 4300,
      "১৯৭১": 4301,
      "শরীর": 4302,
      "ভেন": 4303,
      "দিয়েছে": 4304,
      "অভিনে": 4305,
      "ফেল": 4306,
      "১৯৯৪": 4307,
      "সম্পর্কের": 4308,
      "সড়ক": 4309,
      "এড": 4310,
      "প্রার্থ": 4311,
      "মিয়া": 4312,
      "প্রতিদ্বন্": 4313,
      "ব্লিউ": 4314,
      "চালিয়ে": 4315,
      "বলেছেন": 4316,
      "গণ্য": 4317,
      "উন্নয়নের": 4318,
      "দূতা": 4319,
      "সেনাবাহিনীর": 4320,
      "নির্যা": 4321,
      "av": 4322,
      "আবেদন": 4323,
      "কক্ষ": 4324,
      "ডান": 4325,
      "পন্ন": 4326,
      "মতা": 4327,
      "টিউট": 4328,
      "বাদে": 4329,
      "রাশিয়ার": 4330,
      "শিপ": 4331,
      "ট্র্যা": 4332,
      "সাময়িক": 4333,
      "দিয়েছিল": 4334,
      "শহরটি": 4335,
      "স্বাধীনতার": 4336,
      "আফ্রিকার": 4337,
      "নেতৃত্বে": 4338,
      "কোরিয়া": 4339,
      "শতাব্দীতে": 4340,
      "চাহিদা": 4341,
      "য়ং": 4342,
      "প্রদানের": 4343,
      "বেসামরিক": 4344,
      "রাশিয়া": 4345,
      "ড়ার": 4346,
      "প্রাই": 4347,
      "মিলি": 4348,
      "্যান্ট": 4349,
      "দিকের": 4350,
      "ওয়েবসাইট": 4351,
      "ফর্ম": 4352,
      "গ্রীষ্ম": 4353,
      "লড়াই": 4354,
      "An": 4355,
      "উত": 4356,
      "মানিক": 4357,
      "মধ্যেই": 4358,
      "দ্রা": 4359,
      "ব্যাং": 4360,
      "উইকেট": 4361,
      "সার্ভি": 4362,
      "মর্যা": 4363,
      "দিল্লি": 4364,
      "ld": 4365,
      "গারে": 4366,
      "জৈ": 4367,
      "বিক্ষ": 4368,
      "সহিংস": 4369,
      "৪৫": 4370,
      "স্বল": 4371,
      "একবার": 4372,
      "লাইস": 4373,
      "টারি": 4374,
      "অভিহিত": 4375,
      "চাপ": 4376,
      "উৎসব": 4377,
      "ফোর্ড": 4378,
      "ইউরোপে": 4379,
      "সংঘটিত": 4380,
      "পরিষদ": 4381,
      "মাঝামাঝি": 4382,
      "ly": 4383,
      "ইচ্ছা": 4384,
      "নগর": 4385,
      "করতো": 4386,
      "পরিবহ": 4387,
      "হারিয়ে": 4388,
      "চেয়ার": 4389,
      "স্টু": 4390,
      "সম্ভাবনা": 4391,
      "ওয়েল": 4392,
      "নায়ক": 4393,
      "কোরিয়ার": 4394,
      "গ্যাস": 4395,
      "বিজয়ী": 4396,
      "রপ্ত": 4397,
      "নীল": 4398,
      "পূর্বের": 4399,
      "পুরুষদের": 4400,
      "পত্রিকা": 4401,
      "কেবলমাত্র": 4402,
      "আফগানিস্তানের": 4403,
      "অবৈধ": 4404,
      "জমা": 4405,
      "সিঙ্গা": 4406,
      "নামটি": 4407,
      "গাড়ি": 4408,
      "ঞ্জে": 4409,
      "তৈরির": 4410,
      "তীব্র": 4411,
      "বাজারে": 4412,
      "কলকাতা": 4413,
      "মহাস": 4414,
      "বেদ": 4415,
      "সিন": 4416,
      "পারবে": 4417,
      "দাবী": 4418,
      "রোড": 4419,
      "ভেল": 4420,
      "ফাউন্ডে": 4421,
      "স্বল্প": 4422,
      "ph": 4423,
      "pl": 4424,
      "ম্য": 4425,
      "ৃদ্ধ": 4426,
      "টিভ": 4427,
      "শিন": 4428,
      "উপায়": 4429,
      "কিংবা": 4430,
      "বৃহত্তর": 4431,
      "কবিতা": 4432,
      "বিত্র": 4433,
      "জনা": 4434,
      "সমী": 4435,
      "সমৃদ্ধ": 4436,
      "যেটা": 4437,
      "পর্যট": 4438,
      "১৯৯২": 4439,
      "বিশেষজ্ঞ": 4440,
      "উন্মুক্ত": 4441,
      "বিশ্বে": 4442,
      "সর্বশেষ": 4443,
      "দুর্বল": 4444,
      "চার্চ": 4445,
      "ইন্টারনেট": 4446,
      "আন্দোলনের": 4447,
      "নামূলক": 4448,
      "সাফল্য": 4449,
      "খারাপ": 4450,
      "up": 4451,
      "আন্ত": 4452,
      "দ্যা": 4453,
      "ধূ": 4454,
      "বরে": 4455,
      "ষ্কৃত": 4456,
      "হলেন": 4457,
      "১৮৬": 4458,
      "১৮৮": 4459,
      "গ্রেট": 4460,
      "আগের": 4461,
      "পদ্ধতির": 4462,
      "কঠোর": 4463,
      "বাতিল": 4464,
      "অ্যান": 4465,
      "য়েন্": 4466,
      "প্রথা": 4467,
      "নিষে": 4468,
      "স্কা": 4469,
      "বেঁ": 4470,
      "মিশন": 4471,
      "শেখ": 4472,
      "দেখানো": 4473,
      "গোষ্ঠীর": 4474,
      "রক্ষণা": 4475,
      "পৌঁছে": 4476,
      "অস্ট্রেলিয়ার": 4477,
      "অভিজ্ঞতা": 4478,
      "শারীরিক": 4479,
      "ct": 4480,
      "সশস্ত্র": 4481,
      "দিবস": 4482,
      "ইনস্টি": 4483,
      "উপন্যাস": 4484,
      "ডেভি": 4485,
      "প্রায়শ": 4486,
      "জারি": 4487,
      "মালয়ে": 4488,
      "মনোনীত": 4489,
      "ফিলিস্ত": 4490,
      "বৃত্তি": 4491,
      "মালিকানাধীন": 4492,
      "প্রেসিডেন্ট": 4493,
      "ric": 4494,
      "অণু": 4495,
      "ঘণ্": 4496,
      "তহ": 4497,
      "দণ্ড": 4498,
      "ধ্ব": 4499,
      "যেন": 4500,
      "রেড": 4501,
      "কমপক্ষে": 4502,
      "তালিকায়": 4503,
      "গ্রেফ": 4504,
      "মহান": 4505,
      "আসলে": 4506,
      "অভাব": 4507,
      "আসন": 4508,
      "আউট": 4509,
      "জম": 4510,
      "ঠি": 4511,
      "পী": 4512,
      "বাধিকার": 4513,
      "লাও": 4514,
      "ক্তন": 4515,
      "তুর্": 4516,
      "পোস্ট": 4517,
      "পদক": 4518,
      "ity": 4519,
      "খ্রিস্টান": 4520,
      "উক্ত": 4521,
      "কত": 4522,
      "পবিত্র": 4523,
      "রয়ে": 4524,
      "বাসি": 4525,
      "বাধা": 4526,
      "বেলা": 4527,
      "সিসি": 4528,
      "প্রাক্তন": 4529,
      "িকেশন": 4530,
      "ঙ্গল": 4531,
      "বন্দী": 4532,
      "সোসাই": 4533,
      "ill": 4534,
      "তত্ত্বের": 4535,
      "একত্রিত": 4536,
      "তবুও": 4537,
      "ev": 4538,
      "অল": 4539,
      "খ্যান": 4540,
      "র্ণ": 4541,
      "ক্ষিত": 4542,
      "পরিসংখ": 4543,
      "টেস্টে": 4544,
      "দলটি": 4545,
      "বাড়িতে": 4546,
      "ফেব্রুয়ার": 4547,
      "লিখেছেন": 4548,
      "তদন্ত": 4549,
      "স্নাত": 4550,
      "ষ্টির": 4551,
      "কিমি": 4552,
      "টাকা": 4553,
      "মুখে": 4554,
      "অনুমান": 4555,
      "চেতন": 4556,
      "মেরা": 4557,
      "উপস্থাপন": 4558,
      "উপকূল": 4559,
      "নারীর": 4560,
      "বৃত্ত": 4561,
      "বর্ধমান": 4562,
      "ধারাবাহিক": 4563,
      "আজার": 4564,
      "আঘাত": 4565,
      "চির": 4566,
      "বলি": 4567,
      "শিত": 4568,
      "সঞ্চ": 4569,
      "নাগা": 4570,
      "সংজ্ঞা": 4571,
      "হয়েছিলো": 4572,
      "বিদ্যা": 4573,
      "যোগ্যতা": 4574,
      "দ্বীপে": 4575,
      "লক্ষ্যে": 4576,
      "নির্বাচনের": 4577,
      "সংস্কৃতির": 4578,
      "...": 4579,
      "বিলুপ্ত": 4580,
      "গ্রেফতার": 4581,
      "ies": 4582,
      "ob": 4583,
      "আব্": 4584,
      "হেন": 4585,
      "হচ্": 4586,
      "মিন": 4587,
      "দুজন": 4588,
      "শ্রম": 4589,
      "কর্মসং": 4590,
      "পুরনো": 4591,
      "পদক্ষেপ": 4592,
      "ফ্রান্সের": 4593,
      "চরিত্রে": 4594,
      "পরিমাণে": 4595,
      "আকারে": 4596,
      "ইঞ্জি": 4597,
      "আজারবাই": 4598,
      "ংসা": 4599,
      "বিজ্ঞা": 4600,
      "পরিস্থিতি": 4601,
      "প্রাসা": 4602,
      "্যালো": 4603,
      "সমাজের": 4604,
      "টনৈতিক": 4605,
      "ভর্তি": 4606,
      "নির্বাচনে": 4607,
      "চিহ্ন": 4608,
      "অঙ্গ": 4609,
      "ওর": 4610,
      "খালি": 4611,
      "রক": 4612,
      "সন্ত্র": 4613,
      "করবেন": 4614,
      "টিয়ে": 4615,
      "করেনি": 4616,
      "দেয়ার": 4617,
      "ার্ন": 4618,
      "উপস্থিতি": 4619,
      "উপনিবেশ": 4620,
      "সারণ": 4621,
      "ইংরেজ": 4622,
      "উন্নতি": 4623,
      "বয়স্ক": 4624,
      "উইকি": 4625,
      "গিজ": 4626,
      "আবির্": 4627,
      "আদালত": 4628,
      "এশিয়ান": 4629,
      "দপ্ত": 4630,
      "স্তান": 4631,
      "মুনা": 4632,
      "িকেল": 4633,
      "পালিয়ে": 4634,
      "প্রতিষ্ঠাতা": 4635,
      "মেনে": 4636,
      "কূটনৈতিক": 4637,
      "জর্জ": 4638,
      "পঞ্চম": 4639,
      "সম্মুখীন": 4640,
      "অস্বীকার": 4641,
      "সক": 4642,
      "কারি": 4643,
      "্যালে": 4644,
      "পুল": 4645,
      "ক্ষমতার": 4646,
      "পরিবর্তনের": 4647,
      "হামলা": 4648,
      "জানুয়ারী": 4649,
      "জক": 4650,
      "লাস": 4651,
      "লিও": 4652,
      "যেসব": 4653,
      "ওয়াই": 4654,
      "গ্রাহ": 4655,
      "ম্যাগা": 4656,
      "স্বপ্": 4657,
      "ত্মা": 4658,
      "অধ্যয়ন": 4659,
      "Sh": 4660,
      "আংশ": 4661,
      "দরি": 4662,
      "প্রদর্শ": 4663,
      "বেক্ষ": 4664,
      "জনগণ": 4665,
      "মানবাধিকার": 4666,
      "জেট": 4667,
      "ম্বো": 4668,
      "সহজে": 4669,
      "আইএস": 4670,
      "oun": 4671,
      "দৃঢ়": 4672,
      "অফিসার": 4673,
      "ইংল্যান্ডের": 4674,
      "বন্দরে": 4675,
      "igh": 4676,
      "আল্লাহ": 4677,
      "ip": 4678,
      "মনের": 4679,
      "োপ": 4680,
      "বিস্ফ": 4681,
      "মিশ": 4682,
      "অবকাঠামো": 4683,
      "ব্ল্যা": 4684,
      "বলেছিলেন": 4685,
      "শতকে": 4686,
      "আসছে": 4687,
      "199": 4688,
      "উদ্যোগ": 4689,
      "উত্প": 4690,
      "qu": 4691,
      "গতির": 4692,
      "সবাই": 4693,
      "ড়ের": 4694,
      "হিসাব": 4695,
      "বারে": 4696,
      "ব্যবস্থাপনা": 4697,
      "মধ্যকার": 4698,
      "দাস": 4699,
      "মাণবিক": 4700,
      "দিয়েছেন": 4701,
      "স্বতন্ত্র": 4702,
      "জাতীয়তা": 4703,
      "পক্ষের": 4704,
      "রেলপথ": 4705,
      "আফ্রিকান": 4706,
      "বিস্ফোর": 4707,
      "Wor": 4708,
      "উর্": 4709,
      "গ্যাল": 4710,
      "নু": 4711,
      "বিপর": 4712,
      "নিষ্": 4713,
      "স্মর": 4714,
      "রাস্ত": 4715,
      "কোটি": 4716,
      "দেশীয়": 4717,
      "বাসীদের": 4718,
      "কর্মসূ": 4719,
      "ক্রমবর্ধমান": 4720,
      "উইলিয়াম": 4721,
      "বিরোধিতা": 4722,
      "সিস্টেমের": 4723,
      "সম্মত": 4724,
      "মন্ত্রণালয়": 4725,
      "থান": 4726,
      "পূ": 4727,
      "ৃঙ্": 4728,
      "সংশ": 4729,
      "মেক্স": 4730,
      "স্বামী": 4731,
      "প্রতিষ্ঠানের": 4732,
      "শরণ": 4733,
      "পদ্ধতিতে": 4734,
      "আনুমানিক": 4735,
      "বিপ্লবের": 4736,
      "সহযোগিতা": 4737,
      "বিতর্কিত": 4738,
      "বুদ্ধি": 4739,
      "মূর্তি": 4740,
      "সনাক্ত": 4741,
      "ন্দ্র": 4742,
      "রেজি": 4743,
      "ঙ্গু": 4744,
      "পারমাণবিক": 4745,
      "চালায়": 4746,
      "কিছুটা": 4747,
      "গণিত": 4748,
      "আফগানিস্তান": 4749,
      "কমান্ড": 4750,
      "হুমকি": 4751,
      "বিপরীত": 4752,
      "ক্যান্": 4753,
      "খের": 4754,
      "বনে": 4755,
      "প্রকৌশল": 4756,
      "বিব": 4757,
      "স্তরের": 4758,
      "পোশা": 4759,
      "চ্ছেদ": 4760,
      "বৈচিত্র": 4761,
      "চলচ্চিত্রটি": 4762,
      "বহুল": 4763,
      "অন্তত": 4764,
      "অর্ধেক": 4765,
      "সম্রাট": 4766,
      "পরিসংখ্যান": 4767,
      "মঞ্চ": 4768,
      "মন্তব্য": 4769,
      "স্বে": 4770,
      "স্থির": 4771,
      "জাতির": 4772,
      "জেমস": 4773,
      "আইনি": 4774,
      "কর্মীদের": 4775,
      "বুল": 4776,
      "স্থাপত্য": 4777,
      "দেখায়": 4778,
      "ফিল্ড": 4779,
      "জায়গায়": 4780,
      "উপলব্": 4781,
      "দরিদ্র": 4782,
      "ex": 4783,
      "if": 4784,
      "এলি": 4785,
      "তল": 4786,
      "থায়": 4787,
      "দত্ত": 4788,
      "নীয়": 4789,
      "ভয়": 4790,
      "৪০০": 4791,
      "স্কি": 4792,
      "সবসময়": 4793,
      "ওয়ায়": 4794,
      "শোনা": 4795,
      "সিরিজের": 4796,
      "ক্যালি": 4797,
      "জনসাধারণের": 4798,
      "বিট": 4799,
      "বিনো": 4800,
      "সেকেন": 4801,
      "পরিষ্কার": 4802,
      "অনুশীল": 4803,
      "অভিয": 4804,
      "জাহাজের": 4805,
      "মহাসড়": 4806,
      "18": 4807,
      "En": 4808,
      "গানের": 4809,
      "ঘ্র": 4810,
      "ঠের": 4811,
      "েট": 4812,
      "তেই": 4813,
      "সমস্যার": 4814,
      "সিয়াল": 4815,
      "ফাইল": 4816,
      "অবস্থার": 4817,
      "১৯৭৩": 4818,
      "মুখো": 4819,
      "শর্ত": 4820,
      "নিরাপদ": 4821,
      "আপনি": 4822,
      "সংগ্রহের": 4823,
      "বিপ্লব": 4824,
      "অগ্রসর": 4825,
      "যোদ্ধা": 4826,
      "com": 4827,
      "ওই": 4828,
      "কবর": 4829,
      "৫৫": 4830,
      "বিসি": 4831,
      "সাঁ": 4832,
      "ত্রী": 4833,
      "বলী": 4834,
      "বিশেষভাবে": 4835,
      "বিশ্ববিদ্যালয়ে": 4836,
      "মেয়েদের": 4837,
      "ব্যাটম্যান": 4838,
      "তুর্কি": 4839,
      "উল": 4840,
      "খণ্ড": 4841,
      "জাল": 4842,
      "সমি": 4843,
      "বার্তা": 4844,
      "নির্বাহী": 4845,
      "সাধারণভাবে": 4846,
      "মিলিত": 4847,
      "পেরে": 4848,
      "১৯৮৫": 4849,
      "সূচনা": 4850,
      "বইয়ের": 4851,
      "তুলনা": 4852,
      "ফিল্ম": 4853,
      "স্থিতিশীল": 4854,
      "আকারের": 4855,
      "তৎকালীন": 4856,
      "অ্যান্": 4857,
      "আকাশ": 4858,
      "করলেন": 4859,
      "কোচ": 4860,
      "শাস্ত্র": 4861,
      "জীবী": 4862,
      "পার্ট": 4863,
      "রেলওয়ে": 4864,
      "প্রত্যাখ্যান": 4865,
      "জ্যোতির্": 4866,
      "াক": 4867,
      "পাহা": 4868,
      "হারে": 4869,
      "সরঞ্জা": 4870,
      "ব্রাজিল": 4871,
      "ছয়টি": 4872,
      "অনুমোদিত": 4873,
      "প্রেরণ": 4874,
      "জ্যাক": 4875,
      "ক্যাথলিক": 4876,
      "আসার": 4877,
      "আকৃতি": 4878,
      "চর্": 4879,
      "চেন": 4880,
      "জয়ের": 4881,
      "রান্": 4882,
      "রবার্ট": 4883,
      "র্কের": 4884,
      "সেগুলো": 4885,
      "উদ্ভি": 4886,
      "পূর্ববর্তী": 4887,
      "দায়ী": 4888,
      "গবেষণার": 4889,
      "হাউস": 4890,
      "ঈশ্বর": 4891,
      "মিশরীয়": 4892,
      "কমিউনিস্ট": 4893,
      "মর্যাদা": 4894,
      "বিক্ষো": 4895,
      "চান": 4896,
      "সচেতন": 4897,
      "৬৫": 4898,
      "বেকার": 4899,
      "সম্ব": 4900,
      "কিয়ে": 4901,
      "স্তর": 4902,
      "টেইন": 4903,
      "ব্যাক": 4904,
      "কর্মচার": 4905,
      "art": 4906,
      "নিকো": 4907,
      "তোলে": 4908,
      "কমিটির": 4909,
      "মুখী": 4910,
      "ক্লাবের": 4911,
      "জার্মানি": 4912,
      "সম্পূর্ণরূপে": 4913,
      "বিক্রয়": 4914,
      "্লিষ্ট": 4915,
      "পন্থী": 4916,
      "সিঙ্গাপুর": 4917,
      "অটো": 4918,
      "ইত্যা": 4919,
      "কন্যা": 4920,
      "লিনা": 4921,
      "যেত": 4922,
      "মাত্রার": 4923,
      "পুনরুদ্ধ": 4924,
      "রাজকীয়": 4925,
      "জেনে": 4926,
      "ফ্লাইট": 4927,
      "মায়ের": 4928,
      "গ্রন্থা": 4929,
      "সিয়েশন": 4930,
      "ঘন্টা": 4931,
      "ঘ্রই": 4932,
      "ub": 4933,
      "অসুস্থ": 4934,
      "ইরান": 4935,
      "হিল": 4936,
      "্টি": 4937,
      "ক্ল": 4938,
      "য়ারের": 4939,
      "ব্লু": 4940,
      "ইতিবাচক": 4941,
      "জনপ্রিয়তা": 4942,
      "নিরপেক্ষ": 4943,
      "ক্ষতিগ্রস্ত": 4944,
      "দৃষ্টিভঙ্গ": 4945,
      "জিল্যান্ড": 4946,
      "ট্রান্স": 4947,
      "উত্তরাধিকার": 4948,
      "আশ্রয়": 4949,
      "সংশ্লিষ্ট": 4950,
      "বিবৃতি": 4951,
      "একর": 4952,
      "মকে": 4953,
      "শোর": 4954,
      "কেও": 4955,
      "কল্যা": 4956,
      "চাষ": 4957,
      "দক্ষতা": 4958,
      "গবেষ": 4959,
      "১৯৪৭": 4960,
      "পর্বত": 4961,
      "রপ্তানি": 4962,
      "বেঁচে": 4963,
      "ব্ল্যাক": 4964,
      "ud": 4965,
      "অপেক্ষা": 4966,
      "আলি": 4967,
      "উইন্": 4968,
      "উসমান": 4969,
      "ওঠ": 4970,
      "টল": 4971,
      "ুক": 4972,
      "সালা": 4973,
      "নির্ণ": 4974,
      "সুন্দর": 4975,
      "গ্রহন": 4976,
      "অংশের": 4977,
      "ণ্ডিত": 4978,
      "স্প্যান": 4979,
      "ইসলামিক": 4980,
      "শ্বিক": 4981,
      "বোঝা": 4982,
      "বিস্তারিত": 4983,
      "পরীক্ষার": 4984,
      "শ্রীলঙ্": 4985,
      "রূপান্তরিত": 4986,
      "ঘরে": 4987,
      "ঘনিষ্ঠ": 4988,
      "চক্র": 4989,
      "রকম": 4990,
      "শয়": 4991,
      "সরিয়ে": 4992,
      "৩০০": 4993,
      "উপযুক্ত": 4994,
      "সর্গ": 4995,
      "শিক্ষার্থ": 4996,
      "ম্বাই": 4997,
      "১৯৮১": 4998,
      "উভয়ই": 4999,
      "সীমানা": 5000,
      "প্রাণিত": 5001,
      "ঈশ্বরের": 5002,
      "পয়েন্ট": 5003,
      "দৈর্ঘ্য": 5004,
      "10": 5005,
      "আমন্ত্র": 5006,
      "আত্মা": 5007,
      "সনের": 5008,
      "রাত": 5009,
      "সেটি": 5010,
      "পাশের": 5011,
      "১৯২০": 5012,
      "জানতে": 5013,
      "ডাকা": 5014,
      "মানুষকে": 5015,
      "বিতরণ": 5016,
      "উদ্ধার": 5017,
      "পার্টির": 5018,
      "নিউজিল্যান্ড": 5019,
      "গির্": 5020,
      "স্কট": 5021,
      "আমাকে": 5022,
      "কংগ্রেস": 5023,
      "সিনেমা": 5024,
      "নাগাদ": 5025,
      "Ar": 5026,
      "আও": 5027,
      "এগিয়ে": 5028,
      "ওয়ের": 5029,
      "খার": 5030,
      "গিল": 5031,
      "নং": 5032,
      "মঙ্গো": 5033,
      "করুন": 5034,
      "প্রসারিত": 5035,
      "রাতের": 5036,
      "অর্থনীতির": 5037,
      "ary": 5038,
      "ছাড়াও": 5039,
      "ব্যক্তিদের": 5040,
      "জাতিগত": 5041,
      "১৯৪৫": 5042,
      "পুরুষের": 5043,
      "সাতটি": 5044,
      "জ্বল": 5045,
      "পর্তুগিজ": 5046,
      "প্রায়শই": 5047,
      "সেকেন্ড": 5048,
      "ইত্যাদি": 5049,
      "15": 5050,
      "New": 5051,
      "উড": 5052,
      "এশীয়": 5053,
      "বেই": 5054,
      "লেট": 5055,
      "মধ্যপ্রাচ": 5056,
      "মোকা": 5057,
      "অভিনেতা": 5058,
      "গোলা": 5059,
      "শীঘ্রই": 5060,
      "নামেও": 5061,
      "আর্জেন্": 5062,
      "গুরুতর": 5063,
      "পাকিস্তানে": 5064,
      "মেডিকেল": 5065,
      "স্টুডিও": 5066,
      "World": 5067,
      "por": 5068,
      "আশ": 5069,
      "গান্": 5070,
      "চৌ": 5071,
      "৪৪": 5072,
      "ায়া": 5073,
      "ক্সি": 5074,
      "শিং": 5075,
      "মুহাম্মদ": 5076,
      "ফিন": 5077,
      "১৮৭": 5078,
      "স্বয়ং": 5079,
      "১৯৮৬": 5080,
      "দেখুন": 5081,
      "বসতি": 5082,
      "প্রতিযোগিতার": 5083,
      "কয়েকজন": 5084,
      "কাউন্টি": 5085,
      "অনুরোধ": 5086,
      "লন্ডন": 5087,
      "পূরণ": 5088,
      "সম্পত্তি": 5089,
      "শূন্য": 5090,
      "ক্যালিফোর্": 5091,
      "Al": 5092,
      "জগ": 5093,
      "শত্রু": 5094,
      "সভ্য": 5095,
      "হ্র": 5096,
      "বাসা": 5097,
      "কেইন": 5098,
      "ন্দু": 5099,
      "দাম": 5100,
      "গাড়": 5101,
      "নোবেল": 5102,
      "সংবাদপত্র": 5103,
      "কার্যকরী": 5104,
      "প্রজাতন্ত্রের": 5105,
      "সাগরের": 5106,
      "Pr": 5107,
      "অন্ধ": 5108,
      "নজর": 5109,
      "পট": 5110,
      "লম্বা": 5111,
      "৩২": 5112,
      "কাস": 5113,
      "কারীর": 5114,
      "হয়েছেন": 5115,
      "করেননি": 5116,
      "মুম্বাই": 5117,
      "অনুপ": 5118,
      "অংশী": 5119,
      "দর্শনের": 5120,
      "আলী": 5121,
      "বিষয়টি": 5122,
      "ত্ন": 5123,
      "ফেডারেল": 5124,
      "ইন্ডিয়ান": 5125,
      "কপি": 5126,
      "সজ্": 5127,
      "স্বর্ণ": 5128,
      "সংক্রম": 5129,
      "যোগী": 5130,
      "রুট": 5131,
      "প্ল্যা": 5132,
      "গামী": 5133,
      "উদ্ভাব": 5134,
      "১৯৭৯": 5135,
      "১৯৮৯": 5136,
      "১৯৪০": 5137,
      "স্টিক": 5138,
      "প্রভাবশালী": 5139,
      "অর্জনের": 5140,
      "পৌর": 5141,
      "লাইসেন্স": 5142,
      "নিষেধা": 5143,
      "ust": 5144,
      "ঋণ": 5145,
      "তীত": 5146,
      "পিতার": 5147,
      "বদলে": 5148,
      "াদন": 5149,
      "ানমার": 5150,
      "নাথ": 5151,
      "কাউ": 5152,
      "মুল": 5153,
      "চালান": 5154,
      "ডাটা": 5155,
      "বৈশ্বিক": 5156,
      "ish": 5157,
      "দৈনিক": 5158,
      "নির্ভরশীল": 5159,
      "বিপ্লবী": 5160,
      "India": 5161,
      "রক্ষণাবেক্ষণ": 5162,
      "ment": 5163,
      "ভ্র": 5164,
      "ভ্যা": 5165,
      "স্কের": 5166,
      "কাশন": 5167,
      "সিয়ান": 5168,
      "কোয়": 5169,
      "কুমার": 5170,
      "ম্যানে": 5171,
      "মৃত্যুবরণ": 5172,
      "মায়ানমার": 5173,
      "নাটক": 5174,
      "সুরক্ষা": 5175,
      "ial": 5176,
      "ইয়ের": 5177,
      "খবর": 5178,
      "দার্": 5179,
      "মজ": 5180,
      "মডে": 5181,
      "সরে": 5182,
      "বায়ন": 5183,
      "একসাথে": 5184,
      "কারে": 5185,
      "যাপন": 5186,
      "দেশটির": 5187,
      "অনুপ্রাণিত": 5188,
      "যায়নি": 5189,
      "চলতে": 5190,
      "শিক্ষিত": 5191,
      "১৯৭২": 5192,
      "ical": 5193,
      "টাইম": 5194,
      "প্রস্তাবিত": 5195,
      "প্রত্যাহার": 5196,
      "বোঝায়": 5197,
      "উদ্যান": 5198,
      "মামলা": 5199,
      "ফাউন্ডেশন": 5200,
      "ah": 5201,
      "ear": 5202,
      "ডোর": 5203,
      "ডব্লিউ": 5204,
      "৩৬": 5205,
      "স্পি": 5206,
      "পরিত": 5207,
      "লাম": 5208,
      "ুরী": 5209,
      "ডিভি": 5210,
      "ল্ট": 5211,
      "গ্রামী": 5212,
      "সমাপ্ত": 5213,
      "অনুষ্ঠানে": 5214,
      "আবিষ্কৃত": 5215,
      "নাইট": 5216,
      "হাসপাতালে": 5217,
      "পাখি": 5218,
      "স্পেনীয়": 5219,
      "ইনস্টিটিউট": 5220,
      "ফিলিস্তিনি": 5221,
      "তত্ত": 5222,
      "বিধি": 5223,
      "কারনে": 5224,
      "পর্যটন": 5225,
      "ভূতি": 5226,
      "পুলি": 5227,
      "১৯৭৪": 5228,
      "মহাকাশ": 5229,
      "ক্রিয়ার": 5230,
      "নাগরিকদের": 5231,
      "সাক্ষাৎকার": 5232,
      "কোম্পানী": 5233,
      "সার্বভৌ": 5234,
      "প্রদর্শিত": 5235,
      "man": 5236,
      "ال": 5237,
      "ক্যান": 5238,
      "ক্যারি": 5239,
      "ভায়": 5240,
      "প্রার্থী": 5241,
      "দেশি": 5242,
      "জিও": 5243,
      "গেট": 5244,
      "অন্যদিকে": 5245,
      "দলকে": 5246,
      "আধ্যা": 5247,
      "মুখি": 5248,
      "our": 5249,
      "পড়েন": 5250,
      "ঐতিহ্যবাহী": 5251,
      "লন্ডনে": 5252,
      "যথাক্রমে": 5253,
      "ইঞ্জিনিয়ার": 5254,
      "মূ": 5255,
      "িয়ার": 5256,
      "৩৪": 5257,
      "৩৭": 5258,
      "সাধার": 5259,
      "কারখানা": 5260,
      "প্রতিশ্রুতি": 5261,
      "ব্রের": 5262,
      "উপকূ": 5263,
      "্যালঘু": 5264,
      "১৮৫": 5265,
      "ডাই": 5266,
      "বৈদেশিক": 5267,
      "ফাই": 5268,
      "ছাড়াই": 5269,
      "১৫০": 5270,
      "কর্পোরেশন": 5271,
      "সমকামী": 5272,
      "ফেডারেশন": 5273,
      "উসমানীয়": 5274,
      "অংশীদার": 5275,
      "ith": 5276,
      "জর্ড": 5277,
      "বাসে": 5278,
      "হিউ": 5279,
      "দুঃ": 5280,
      "দুল": 5281,
      "গেলে": 5282,
      "ক্ষেপণ": 5283,
      "চালানো": 5284,
      "ভাগ্য": 5285,
      "অর্ধ": 5286,
      "১৯৭৫": 5287,
      "আগেই": 5288,
      "ন্যায়": 5289,
      "শাসিত": 5290,
      "খোঁ": 5291,
      "কানাডা": 5292,
      "ইরানের": 5293,
      "দ্বন্দ্": 5294,
      "ধনী": 5295,
      "৪৮": 5296,
      "স্কে": 5297,
      "বাবার": 5298,
      "সম্যান": 5299,
      "এরও": 5300,
      "টাইন": 5301,
      "ট্রিক": 5302,
      "ক্রয়": 5303,
      "খেলেন": 5304,
      "সংখ্যালঘু": 5305,
      "মিলে": 5306,
      "ate": 5307,
      "১৯৭৮": 5308,
      "থিও": 5309,
      "১৯৬৬": 5310,
      "১৯৫৬": 5311,
      "চীনে": 5312,
      "শাসনের": 5313,
      "সঙ্গী": 5314,
      "উৎপাদনের": 5315,
      "পশ্চিমব": 5316,
      "ড্রো": 5317,
      "সপ্তাহে": 5318,
      "প্রকৃতপক্ষে": 5319,
      "স্পেস": 5320,
      "সুলতান": 5321,
      "অধ্যাপক": 5322,
      "দূতাবাস": 5323,
      "ডেভিড": 5324,
      "অসংখ্য": 5325,
      "ডল": 5326,
      "দানি": 5327,
      "ভিক্": 5328,
      "৯৯": 5329,
      "জনীন": 5330,
      "মাতা": 5331,
      "মাথা": 5332,
      "লেস": 5333,
      "সিপি": 5334,
      "উপরন্তু": 5335,
      "কর্মজীবন": 5336,
      "চাকরি": 5337,
      "লাইব্রের": 5338,
      "ফাঁ": 5339,
      "১৯৮৭": 5340,
      "এমএস": 5341,
      "উচ্চতর": 5342,
      "খ্রিষ্টা": 5343,
      "আসল": 5344,
      "ফ্লো": 5345,
      "আপনার": 5346,
      "বিবাহের": 5347,
      "বস্তুর": 5348,
      "আফগানিস্তানে": 5349,
      "ব্যক্তিত্ব": 5350,
      "পুরাতন": 5351,
      "সূর্য": 5352,
      "স্নাতক": 5353,
      "ff": 5354,
      "এজ": 5355,
      "ঔপ": 5356,
      "ভিক্ষ": 5357,
      "মস্কো": 5358,
      "ীভূত": 5359,
      "কাম": 5360,
      "যাচ্ছে": 5361,
      "প্রতিবাদ": 5362,
      "ডিগ্রি": 5363,
      "েন্টের": 5364,
      "যুক্তরাজ্য": 5365,
      "চালিত": 5366,
      "চেয়েছিলেন": 5367,
      "স্থাপনের": 5368,
      "ডিসেম্বরে": 5369,
      "অধিনায়ক": 5370,
      "ল্লাহ": 5371,
      "বিমানবন্দরটি": 5372,
      "আহ্ব": 5373,
      "স্বাক্ষরিত": 5374,
      "মিনিট": 5375,
      "স্মরণ": 5376,
      "সরঞ্জাম": 5377,
      "গ্রামীণ": 5378,
      "অগ্": 5379,
      "আবু": 5380,
      "টায়": 5381,
      "ধের": 5382,
      "ভান": 5383,
      "প্রকৌশ": 5384,
      "বাক": 5385,
      "পররাষ্ট্র": 5386,
      "হাঁ": 5387,
      "শিখ": 5388,
      "প্রতিফল": 5389,
      "পিং": 5390,
      "১৯৮৮": 5391,
      "বর্ণিত": 5392,
      "বেশিরভাগই": 5393,
      "পরিষদের": 5394,
      "আল্লাহর": 5395,
      "সাগরীয়": 5396,
      "বিনিম": 5397,
      "পোশাক": 5398,
      "Com": 5399,
      "অতী": 5400,
      "নম্বর": 5401,
      "পণ্ডিত": 5402,
      "মিত্র": 5403,
      "ুদ্ধ": 5404,
      "ব্যতীত": 5405,
      "অনলাইন": 5406,
      "জিনিস": 5407,
      "সম্প্রতি": 5408,
      "অনেকগুলো": 5409,
      "ভেঙ্গে": 5410,
      "প্রকাশের": 5411,
      "অ্যাসো": 5412,
      "কার্যকলা": 5413,
      "১৯৬৪": 5414,
      "১৯৬৫": 5415,
      "বাংলাদেশী": 5416,
      "অক্টোবরে": 5417,
      "গ্রুপের": 5418,
      "ইংল্যান্ডে": 5419,
      "আরেক": 5420,
      "ive": 5421,
      "গ্রন্থাগার": 5422,
      "পনের": 5423,
      "যথ": 5424,
      "শক্ত": 5425,
      "োল": 5426,
      "প্রবণ": 5427,
      "কাতার": 5428,
      "মানচিত্র": 5429,
      "হিট": 5430,
      "রিচার্": 5431,
      "পারস্য": 5432,
      "ফির": 5433,
      "তিনজন": 5434,
      "১৯৭৬": 5435,
      "তুলনামূলক": 5436,
      "কৌশলগত": 5437,
      "উঠেছে": 5438,
      "চলাচল": 5439,
      "আগ্রহী": 5440,
      "অতঃ": 5441,
      "অনুশীলন": 5442,
      "আরা": 5443,
      "ইবনে": 5444,
      "খাল": 5445,
      "ঙে": 5446,
      "পতন": 5447,
      "মণ্ড": 5448,
      "্‌": 5449,
      "৩৯": 5450,
      "য়নে": 5451,
      "বিপরী": 5452,
      "ন্ট": 5453,
      "দেবী": 5454,
      "ক্ষয়": 5455,
      "ভাইস": 5456,
      "দুটো": 5457,
      "ফিরিয়ে": 5458,
      "সূচক": 5459,
      "বিনিময়": 5460,
      "মুখোমুখি": 5461,
      "অতঃপর": 5462,
      "আয়ো": 5463,
      "পর্যালো": 5464,
      "তেও": 5465,
      "সংকে": 5466,
      "ক্রা": 5467,
      "পিটার": 5468,
      "উন্নীত": 5469,
      "সমূহে": 5470,
      "শোধন": 5471,
      "সার্ভার": 5472,
      "ইসলামি": 5473,
      "জয়লাভ": 5474,
      "ষ্ঠানিক": 5475,
      "পেয়েছিল": 5476,
      "আবহা": 5477,
      "সমন্বয়": 5478,
      "সম্পাদক": 5479,
      "ঘণ্টা": 5480,
      "আহ্বান": 5481,
      "ey": 5482,
      "অজানা": 5483,
      "আকা": 5484,
      "খ্য": 5485,
      "বয়ে": 5486,
      "রয়": 5487,
      "বিয়ের": 5488,
      "বিপুল": 5489,
      "বিন্দু": 5490,
      "সামুদ্র": 5491,
      "নেল": 5492,
      "ধারণার": 5493,
      "বাসীরা": 5494,
      "গোল্ড": 5495,
      "পুরি": 5496,
      "হুরে": 5497,
      "সদর": 5498,
      "দোষ": 5499,
      "চরম": 5500,
      "১৯৪৮": 5501,
      "নিজেই": 5502,
      "ঘটেছে": 5503,
      "মৌসুম": 5504,
      "ইতালীয়": 5505,
      "সৃষ্ট": 5506,
      "দপ্তর": 5507,
      "স্প্যানিশ": 5508,
      "সামুদ্রিক": 5509,
      "ain": 5510,
      "অবর": 5511,
      "অপরের": 5512,
      "কান্": 5513,
      "চ্যালে": 5514,
      "জঙ্গ": 5515,
      "শহুরে": 5516,
      "হতা": 5517,
      "হ্যারি": 5518,
      "বাঙ": 5519,
      "তাতে": 5520,
      "ক্সের": 5521,
      "দির": 5522,
      "তিকে": 5523,
      "যুক্তরাজ্যে": 5524,
      "অধীন": 5525,
      "কর্মকাণ্ড": 5526,
      "লাইনের": 5527,
      "হেল": 5528,
      "ম্বে": 5529,
      "বিমানবন্দরের": 5530,
      "বাইরের": 5531,
      "১৯৮৩": 5532,
      "আর্মেন": 5533,
      "মুসলিমদের": 5534,
      "ভ্রমণের": 5535,
      "সমালোচ": 5536,
      "নৌবাহিনী": 5537,
      "ইন্দোনেশিয়ার": 5538,
      "বর্ধিত": 5539,
      "পরিবেশন": 5540,
      "অভিনেত্রী": 5541,
      "স্বেচ্ছা": 5542,
      "আছেন": 5543,
      "উথ": 5544,
      "কট": 5545,
      "গীত": 5546,
      "ঝা": 5547,
      "পশু": 5548,
      "সচি": 5549,
      "করলেও": 5550,
      "বিবর্তন": 5551,
      "বেসরকারি": 5552,
      "িত্বে": 5553,
      "ার্ক": 5554,
      "সংস": 5555,
      "ডিস": 5556,
      "অবশিষ্ট": 5557,
      "বিশ্বকা": 5558,
      "বন্য": 5559,
      "মালদ্বীপের": 5560,
      "all": 5561,
      "১৯৮৪": 5562,
      "সফরে": 5563,
      "কৃষ": 5564,
      "নভেম্বরে": 5565,
      "সন্দেহ": 5566,
      "এসেছিল": 5567,
      "ational": 5568,
      "বন্ধুত্ব": 5569,
      "বাসিন্দা": 5570,
      "সোসাইটি": 5571,
      "উইন্ডো": 5572,
      "আধ্যাত্ম": 5573,
      "বিপরীতে": 5574,
      "ry": 5575,
      "আঁ": 5576,
      "ইঙ্গ": 5577,
      "চন্দ্র": 5578,
      "নকে": 5579,
      "রং": 5580,
      "শব্দের": 5581,
      "বিয়ার": 5582,
      "বিন্যাস": 5583,
      "সেটা": 5584,
      "দাত": 5585,
      "পিএ": 5586,
      "উপত্য": 5587,
      "ব্যাপার": 5588,
      "বাংলার": 5589,
      "শিক্ষার্থী": 5590,
      "সদস্যের": 5591,
      "উইল": 5592,
      "পার্শ্ব": 5593,
      "ঘাঁ": 5594,
      "চ্যাপ": 5595,
      "সৈন্যদের": 5596,
      "000": 5597,
      "জাপানে": 5598,
      "ইসরায়েলি": 5599,
      "শিরোনাম": 5600,
      "আর্জেন্টি": 5601,
      "প্ল্যাট": 5602,
      "):": 5603,
      "ie": 5604,
      "ছো": 5605,
      "নানা": 5606,
      "শায়": 5607,
      "শনাক্ত": 5608,
      "সভার": 5609,
      "েই": 5610,
      "্লা": 5611,
      "৩৮": 5612,
      "করছিল": 5613,
      "প্রচে": 5614,
      "সাস": 5615,
      "মাস্টার": 5616,
      "কিনে": 5617,
      "গুপ্ত": 5618,
      "পরিচি": 5619,
      "প্রতিদিন": 5620,
      "েন্টে": 5621,
      "পেল": 5622,
      "স্টের": 5623,
      "ইউনাই": 5624,
      "যুক্তরাজ্যের": 5625,
      "পর্যবেক্ষ": 5626,
      "বোলিং": 5627,
      "সহকারী": 5628,
      "অনেকগুলি": 5629,
      "উৎপত্তি": 5630,
      "কর্তৃত": 5631,
      "পদত্যাগ": 5632,
      "রীতি": 5633,
      "পাকিস্তানি": 5634,
      "আত্মহত্যা": 5635,
      "প্রযুক্তিগত": 5636,
      "নিষেধাজ্ঞা": 5637,
      "Un": 5638,
      "ure": 5639,
      "কয়": 5640,
      "বট": 5641,
      "মীর": 5642,
      "হার্ড": 5643,
      "টিই": 5644,
      "হিরো": 5645,
      "রিয়াল": 5646,
      "ঞ্চলীয়": 5647,
      "বোধন": 5648,
      "অভিন": 5649,
      "ফেলা": 5650,
      "উৎসাহিত": 5651,
      "উৎপন্ন": 5652,
      "গণনা": 5653,
      "উদ্বোধন": 5654,
      "ory": 5655,
      "দোকান": 5656,
      "আসতে": 5657,
      "ইসলামের": 5658,
      "কৃষ্ট": 5659,
      "জলবায়ু": 5660,
      "ack": 5661,
      "ইউনিভার্সিটি": 5662,
      "স্টেডিয়াম": 5663,
      "আধ্যাত্মিক": 5664,
      "ik": 5665,
      "ran": 5666,
      "পতির": 5667,
      "শৃঙ্": 5668,
      "াত": 5669,
      "ীয়া": 5670,
      "টিস": 5671,
      "টিয়া": 5672,
      "প্রশাসন": 5673,
      "পরমাণ": 5674,
      "তারকা": 5675,
      "ার্ট": 5676,
      "গুজ": 5677,
      "হিম": 5678,
      "স্তরে": 5679,
      "কোর্ট": 5680,
      "ডিয়ার": 5681,
      "ঙ্গার": 5682,
      "সরকারকে": 5683,
      "শিল্পে": 5684,
      "১৯৬৯": 5685,
      "স্যাটে": 5686,
      "সেপ্টেম্বরে": 5687,
      "ell": 5688,
      "দ্বীপপু": 5689,
      "ডলারের": 5690,
      "ইসরায়েল": 5691,
      "ক্ষেত্রের": 5692,
      "বক্তব্য": 5693,
      "গরিষ্ঠ": 5694,
      "পরিমাপ": 5695,
      "দারিদ্র": 5696,
      "se": 5697,
      "ওভার": 5698,
      "নন": 5699,
      "লর্ড": 5700,
      "দ্দ": 5701,
      "কাগ": 5702,
      "সংশোধ": 5703,
      "রির": 5704,
      "তুমি": 5705,
      "নিয়র": 5706,
      "বাসন": 5707,
      "পুঁ": 5708,
      "কর্মের": 5709,
      "চাঁ": 5710,
      "প্রকাশনা": 5711,
      "চিঠি": 5712,
      "পরিচালনার": 5713,
      "এনএ": 5714,
      "উভয়ের": 5715,
      "সাহায্যে": 5716,
      "দুর্গ": 5717,
      "হামলার": 5718,
      "অফিসিয়াল": 5719,
      "রোগের": 5720,
      "সহযোগী": 5721,
      "নিকটবর্তী": 5722,
      "মিউজিক": 5723,
      "মতামত": 5724,
      "সার্ভিস": 5725,
      "কল্যাণ": 5726,
      "ওঠেন": 5727,
      "রিচার্ড": 5728,
      "aw": 5729,
      "দূর্": 5730,
      "নান": 5731,
      "ুদ": 5732,
      "্ডিং": 5733,
      "র্স": 5734,
      "বেস": 5735,
      "কাঁ": 5736,
      "পরিদর্শন": 5737,
      "সুড়": 5738,
      "নিয়ো": 5739,
      "ড়াতে": 5740,
      "বোর্": 5741,
      "টিরও": 5742,
      "কুস্তি": 5743,
      "চলমান": 5744,
      "বৃষ্টি": 5745,
      "ভুট": 5746,
      "দরকার": 5747,
      "বার্গ": 5748,
      "ঘোড়া": 5749,
      "সংঘর্ষ": 5750,
      "ভবনটি": 5751,
      "মন্ত্রণালয়ের": 5752,
      "আর্মেনীয়": 5753,
      "পতনের": 5754,
      "ফস": 5755,
      "মস্তি": 5756,
      "লম্ব": 5757,
      "৪১": 5758,
      "ক্কা": 5759,
      "সেমি": 5760,
      "কাটা": 5761,
      "লিমি": 5762,
      "ব্যবস্থায়": 5763,
      "দ্রি": 5764,
      "সবুজ": 5765,
      "মোটর": 5766,
      "পরেই": 5767,
      "ল্যান্ডে": 5768,
      "১৯৬১": 5769,
      "১৯৬২": 5770,
      "খ্রিষ্ট": 5771,
      "ক্রিকেটে": 5772,
      "প্রচারণা": 5773,
      "পুরোপুরি": 5774,
      "রেখেছে": 5775,
      "পেয়েছিলেন": 5776,
      "কানাডার": 5777,
      "চেয়ারম্যান": 5778,
      "তহবিল": 5779,
      "পরিচিতি": 5780,
      "ইনি": 5781,
      "ইনিং": 5782,
      "উইন": 5783,
      "ঔষ": 5784,
      "কণ্": 5785,
      "জলের": 5786,
      "নগ": 5787,
      "মন্ড": 5788,
      "হৃ": 5789,
      "্রু": 5790,
      "সমর্": 5791,
      "য়াতে": 5792,
      "শেয়ার": 5793,
      "২০১৮": 5794,
      "শাস্তি": 5795,
      "ব্রে": 5796,
      "ine": 5797,
      "অভিযুক্ত": 5798,
      "বৈষ": 5799,
      "অর্থে": 5800,
      "সমাজে": 5801,
      "তোমা": 5802,
      "সংখ্যাগরিষ্ঠ": 5803,
      "ব্রিটিশদের": 5804,
      "পানীয়": 5805,
      "অন্তর্গত": 5806,
      "সর্বপ্রথম": 5807,
      "প্রেম": 5808,
      "টাইমস": 5809,
      "প্রকল্পটি": 5810,
      "টুর্": 5811,
      "সহায়ক": 5812,
      "পরিবেশগত": 5813,
      "লিখেছিলেন": 5814,
      "ব্লক": 5815,
      "ast": 5816,
      "te": 5817,
      "আয়ার": 5818,
      "ওজন": 5819,
      "ভী": 5820,
      "ভিক": 5821,
      "ভক্ত": 5822,
      "হিক": 5823,
      "৪২": 5824,
      "৪৭": 5825,
      "নিয়েছে": 5826,
      "লির": 5827,
      "ক্তা": 5828,
      "রেস": 5829,
      "মিস": 5830,
      "মেদ": 5831,
      "এইভাবে": 5832,
      "েন্সের": 5833,
      "প্রাক": 5834,
      "ল্ডিং": 5835,
      "দুইজন": 5836,
      "ath": 5837,
      "অবস্থানের": 5838,
      "নারীরা": 5839,
      "গিয়েছে": 5840,
      "সৈনিক": 5841,
      "ভূমিতে": 5842,
      "তালিকাভুক্ত": 5843,
      "ভূমির": 5844,
      "ইন্দোনেশিয়া": 5845,
      "রহস্য": 5846,
      "পাথর": 5847,
      "বিক্ষোভ": 5848,
      "পুনরুদ্ধার": 5849,
      "কর্তৃত্ব": 5850,
      "নিয়োজিত": 5851,
      "উজ্": 5852,
      "ঝড়": 5853,
      "‍্যা": 5854,
      "প্রার": 5855,
      "প্রণাল": 5856,
      "প্রজন্মের": 5857,
      "সাক্ষ": 5858,
      "ব্যস্ত": 5859,
      "ধারার": 5860,
      "প্রাদেশিক": 5861,
      "স্ট্যা": 5862,
      "ind": 5863,
      "ভূক্ত": 5864,
      "ভেঙে": 5865,
      "গণতান্ত্রিক": 5866,
      "দক্ষিণে": 5867,
      "ভবনের": 5868,
      "পথের": 5869,
      "টাইপ": 5870,
      "আত্মহত্যার": 5871,
      "প্রাচীনতম": 5872,
      "মনোযোগ": 5873,
      "আটক": 5874,
      "ব্যাটসম্যান": 5875,
      "মেন্টের": 5876,
      "পিছনে": 5877,
      "সজ্জিত": 5878,
      "Con": 5879,
      "con": 5880,
      "ok": 5881,
      "ue": 5882,
      "বক": 5883,
      "বসে": 5884,
      "লং": 5885,
      "বিনামূল": 5886,
      "সেখান": 5887,
      "ষ্টার": 5888,
      "রোহি": 5889,
      "প্রাতি": 5890,
      "ভারী": 5891,
      "সময়কালে": 5892,
      "গাই": 5893,
      "এসএস": 5894,
      "টোকি": 5895,
      "উত্তরে": 5896,
      "চুক্ত": 5897,
      "কেন্দ্রে": 5898,
      "আলোচনার": 5899,
      "প্রশংসা": 5900,
      "পরিকল্পিত": 5901,
      "পরিকল্পনার": 5902,
      "স্কুলের": 5903,
      "প্রযুক্তির": 5904,
      "ফেরত": 5905,
      "সুপারিশ": 5906,
      "ইহুদী": 5907,
      "একাডেমি": 5908,
      "শ্রমিকদের": 5909,
      "পর্যায়ের": 5910,
      "শরণার্থী": 5911,
      "oh": 5912,
      "আনে": 5913,
      "খনি": 5914,
      "চিল": 5915,
      "চনায়": 5916,
      "ডস": 5917,
      "নৃত": 5918,
      "সাধন": 5919,
      "ভাড়া": 5920,
      "ার্থে": 5921,
      "পাইন": 5922,
      "ত্রা": 5923,
      "প্রতিস্থাপিত": 5924,
      "ওয়াট": 5925,
      "কিছুই": 5926,
      "নিয়ান": 5927,
      "িয়ায়": 5928,
      "সাম্য": 5929,
      "আইসি": 5930,
      "বৈঠ": 5931,
      "হোয়া": 5932,
      "জার্নাল": 5933,
      "শাসক": 5934,
      "মাইকেল": 5935,
      "প্রমাণিত": 5936,
      "কর্তৃপক্ষের": 5937,
      "ব্যবসায়িক": 5938,
      "খেলতে": 5939,
      "আন্তঃ": 5940,
      "টেইনার": 5941,
      "স্বয়ংক্রিয়": 5942,
      "সংকেত": 5943,
      "স্বেচ্ছাসে": 5944,
      "টুর্নাম": 5945,
      "অর": 5946,
      "গাল": 5947,
      "দৌ": 5948,
      "শান": 5949,
      "সিকি": 5950,
      "বংশের": 5951,
      "ক্লো": 5952,
      "নামা": 5953,
      "মাউন্": 5954,
      "ভিন": 5955,
      "টাউন": 5956,
      "ডিগ্রী": 5957,
      "ক্রমা": 5958,
      "অনুসার": 5959,
      "জেল": 5960,
      "গোয়েন্": 5961,
      "স্বায়": 5962,
      "মারি": 5963,
      "তৈর": 5964,
      "ডাচ": 5965,
      "esh": 5966,
      "ব্রিজ": 5967,
      "রাজত্ব": 5968,
      "ক্যামেরা": 5969,
      "তৃতীয়া": 5970,
      "মহিল": 5971,
      "পাঠ্য": 5972,
      "ass": 5973,
      "সৈন্যরা": 5974,
      "একাডেমী": 5975,
      "দেবতা": 5976,
      "জ্বাল": 5977,
      "তাপমাত্রা": 5978,
      "আবাসিক": 5979,
      "স্বপ্ন": 5980,
      "উদ্ভিদ": 5981,
      "তৃতীয়াংশ": 5982,
      "Sc": 5983,
      "ওষ": 5984,
      "ডিক": 5985,
      "পিক": 5986,
      "লক্ষণ": 5987,
      "াস্ত্র": 5988,
      "৬৬": 5989,
      "টিও": 5990,
      "তাৎ": 5991,
      "তামূলক": 5992,
      "সমসাময়িক": 5993,
      "যেকোন": 5994,
      "ব্যবস্থাপ": 5995,
      "সুখ": 5996,
      "ব্যবহারকারী": 5997,
      "বিষয়ের": 5998,
      "বিমানের": 5999,
      "end": 6000,
      "ঘটনায়": 6001,
      "পশ্চিমে": 6002,
      "১৯৫৪": 6003,
      "ইলেক্": 6004,
      "অগ্রগতি": 6005,
      "ফোর্স": 6006,
      "আদিবাসী": 6007,
      "প্রণয়ন": 6008,
      "শরীরের": 6009,
      "ঔপনিবেশ": 6010,
      "11": 6011,
      "Th": 6012,
      "pr": 6013,
      "আগুন": 6014,
      "গার্ড": 6015,
      "বাহন": 6016,
      "বেতন": 6017,
      "কেটে": 6018,
      "একত্রে": 6019,
      "মানবিক": 6020,
      "সংগীত": 6021,
      "এরকম": 6022,
      "ডিয়ান": 6023,
      "অভিবাসী": 6024,
      "উদ্বোধ": 6025,
      "ঘটায়": 6026,
      "বইটি": 6027,
      "খ্যাতি": 6028,
      "ঘাট": 6029,
      "ছবিটি": 6030,
      "নিশ্চয়": 6031,
      "মূল্যায়ন": 6032,
      "রঙের": 6033,
      "দৃশ্যমান": 6034,
      "কমান্ডার": 6035,
      "তানজানি": 6036,
      "হস্তান্তর": 6037,
      "ফাইনালে": 6038,
      "নির্যাতন": 6039,
      "প্রাসাদ": 6040,
      "বাঙালি": 6041,
      "Mar": 6042,
      "ss": 6043,
      "কান্ড": 6044,
      "থার": 6045,
      "থের": 6046,
      "প্রজন": 6047,
      "তিমুর": 6048,
      "বাছা": 6049,
      "সেফ": 6050,
      "কাও": 6051,
      "ষ্ক": 6052,
      "ক্ষমত": 6053,
      "নেওয়ার": 6054,
      "পাবে": 6055,
      "পাত্র": 6056,
      "মেশিন": 6057,
      "ব্যবধান": 6058,
      "হারের": 6059,
      "অভিষে": 6060,
      "জানো": 6061,
      "ভাষী": 6062,
      "বাইজেন্": 6063,
      "প্রোগ্রা": 6064,
      "অধিকাংশই": 6065,
      "মন্দিরের": 6066,
      "শৈশ": 6067,
      "জাদুঘর": 6068,
      "পৃথিবীতে": 6069,
      "সম্মেলন": 6070,
      "পারিবার": 6071,
      "বিকাশ": 6072,
      "আলেক": 6073,
      "বিনোদন": 6074,
      "লিনাক্স": 6075,
      "চ্যাপলিন": 6076,
      "স্যাটেলাইট": 6077,
      "গোয়েন্দা": 6078,
      "ঔপনিবেশিক": 6079,
      "Le": 6080,
      "এএফ": 6081,
      "এশিয়ায়": 6082,
      "পনে": 6083,
      "মরি": 6084,
      "্বা": 6085,
      "বিভা": 6086,
      "বিবরণ": 6087,
      "রাট": 6088,
      "নেদার": 6089,
      "কিশোর": 6090,
      "গুগল": 6091,
      "তিনিই": 6092,
      "মেই": 6093,
      "মুহ": 6094,
      "শনিক": 6095,
      "হিসেবেও": 6096,
      "ওয়াশিং": 6097,
      "ফিফা": 6098,
      "এসো": 6099,
      "গ্রাফ": 6100,
      "জেরুজ": 6101,
      "লাভের": 6102,
      "১৯৪৬": 6103,
      "প্রবেশের": 6104,
      "ঐতিহাসিকভাবে": 6105,
      "স্কোর": 6106,
      "দিল্": 6107,
      "কলকাতায়": 6108,
      "প্রকৃতির": 6109,
      "ক্ষেপণাস্ত্র": 6110,
      "দাতব্য": 6111,
      "জেরুজালে": 6112,
      "ber": 6113,
      "উষ্ণ": 6114,
      "এআই": 6115,
      "কশন": 6116,
      "গৌ": 6117,
      "চট": 6118,
      "তীর": 6119,
      "বানি": 6120,
      "লজি": 6121,
      "প্রক্রিয়ার": 6122,
      "বেক": 6123,
      "পরবর্ত": 6124,
      "নেতি": 6125,
      "যেকোনো": 6126,
      "পাঞ্জা": 6127,
      "রিপোর্": 6128,
      "ক্রমের": 6129,
      "অনুভূতি": 6130,
      "অবতর": 6131,
      "পেছ": 6132,
      "ব্রো": 6133,
      "পির": 6134,
      "রাষ্ট্রদূত": 6135,
      "কর্মকর্ত": 6136,
      "১৮০": 6137,
      "বুক": 6138,
      "বাহিত": 6139,
      "অর্ডার": 6140,
      "উদ্ভূত": 6141,
      "১৯৮২": 6142,
      "সদস্যরা": 6143,
      "আর্মি": 6144,
      "বসন্ত": 6145,
      "মুখ্য": 6146,
      "পরিবারে": 6147,
      "সাংবিধান": 6148,
      "পর্বে": 6149,
      "মুক্তির": 6150,
      "হিন্দি": 6151,
      "নৌবাহিনীর": 6152,
      "বিজ্ঞাপন": 6153,
      "ম্যাগাজিন": 6154,
      "ight": 6155,
      "প্রকৌশলী": 6156,
      "II": 6157,
      "ne": 6158,
      "ood": 6159,
      "ডন": 6160,
      "দম": 6161,
      "ভ্যাল": 6162,
      "মরু": 6163,
      "হওয়ায়": 6164,
      "৮০০": 6165,
      "নিউই": 6166,
      "পরই": 6167,
      "নাকে": 6168,
      "মাংস": 6169,
      "সেলো": 6170,
      "মানু": 6171,
      "পাশ": 6172,
      "পারত": 6173,
      "উপদে": 6174,
      "মোর": 6175,
      "িক্ষে": 6176,
      "শহরটির": 6177,
      "দ্যু": 6178,
      "বয়সের": 6179,
      "আর্ট": 6180,
      "১৯৩১": 6181,
      "ইরাক": 6182,
      "পড়াশোনা": 6183,
      "মেক্সিকো": 6184,
      "শিক্ষার্থীদের": 6185,
      "দার্শনিক": 6186,
      "বিনিময়ে": 6187,
      "ইঙ্গিত": 6188,
      "ওষু": 6189,
      "পারিবারিক": 6190,
      "নেতিবাচক": 6191,
      "cl": 6192,
      "অক্ষর": 6193,
      "আবদ্ধ": 6194,
      "গতিক": 6195,
      "চ্যু": 6196,
      "জগত": 6197,
      "টনের": 6198,
      "হায়": 6199,
      "৪৯": 6200,
      "প্রকাশন": 6201,
      "স্পোর্ট": 6202,
      "বেছে": 6203,
      "লোড": 6204,
      "প্রতিবেদ": 6205,
      "বর্তিত": 6206,
      "ম্বরের": 6207,
      "বিদদের": 6208,
      "মাত্রায়": 6209,
      "পুরে": 6210,
      "কর্মরত": 6211,
      "ফুল": 6212,
      "ব্রিটিশরা": 6213,
      "আলোর": 6214,
      "চার্চের": 6215,
      "খেলোয়াড়দের": 6216,
      "Inter": 6217,
      "সমাজতান্ত্রিক": 6218,
      "উত্থা": 6219,
      "মুসলমানদের": 6220,
      "কর্মসংস্থান": 6221,
      "ম্যানেজার": 6222,
      "প্রাতিষ্ঠানিক": 6223,
      "ইলি": 6224,
      "কম্বো": 6225,
      "ঘি": 6226,
      "দমন": 6227,
      "বান্": 6228,
      "হ্ম": 6229,
      "ীকরণ": 6230,
      "্বাব": 6231,
      "৪৩": 6232,
      "প্রদত্ত": 6233,
      "তাম": 6234,
      "্যাস": 6235,
      "ক্ষতির": 6236,
      "মিয়ার": 6237,
      "মেইন": 6238,
      "মেগা": 6239,
      "যাব": 6240,
      "কোণ": 6241,
      "নয়ন": 6242,
      "উন্নয়নে": 6243,
      "বিমানবন্দরে": 6244,
      "দরজা": 6245,
      "ম্যাচে": 6246,
      "অবস্থানে": 6247,
      "একইভাবে": 6248,
      "১৯৫২": 6249,
      "বাস্তু": 6250,
      "ঞ্জস্য": 6251,
      "পারেননি": 6252,
      "act": 6253,
      "শান্তির": 6254,
      "সুরক্ষিত": 6255,
      "সুইড": 6256,
      "হস্তক্ষেপ": 6257,
      "হালকা": 6258,
      "তত্ত্বাব": 6259,
      "রোহিঙ্গা": 6260,
      "চুক্তিতে": 6261,
      "বাইজেন্টাইন": 6262,
      "IC": 6263,
      "ge": 6264,
      "َا": 6265,
      "অনি": 6266,
      "অক্ষ": 6267,
      "ঘরের": 6268,
      "ধীর": 6269,
      "নবী": 6270,
      "ফেন": 6271,
      "শুন": 6272,
      "৬০০": 6273,
      "”।": 6274,
      "নিঃ": 6275,
      "বাচ্চ": 6276,
      "লাগ": 6277,
      "ক্ষার": 6278,
      "নেতাদের": 6279,
      "রেস্ট": 6280,
      "স্তো": 6281,
      "টেক্স": 6282,
      "থেকেও": 6283,
      "সুপরিচিত": 6284,
      "ব্যাটিং": 6285,
      "ডেভেল": 6286,
      "ভেট": 6287,
      "লেখার": 6288,
      "খুলে": 6289,
      "ঘোষণ": 6290,
      "১৯৬৩": 6291,
      "সিরিয়া": 6292,
      "omen": 6293,
      "জার্মানির": 6294,
      "পরীক্ষামূলক": 6295,
      "পর্যাপ্ত": 6296,
      "প্রাণীর": 6297,
      "সপ্তাহের": 6298,
      "ইঞ্জিন": 6299,
      "গ্রীষ্মকালীন": 6300,
      "সহজেই": 6301,
      "বৈচিত্র্য": 6302,
      "port": 6303,
      "অগ্নি": 6304,
      "পর্যালোচনা": 6305,
      "নিউইয়": 6306,
      "%)": 6307,
      "নমুনা": 6308,
      "প্যান": 6309,
      "স্র": 6310,
      "৮৫": 6311,
      "জনকে": 6312,
      "সিন্": 6313,
      "এইসব": 6314,
      "অনুভব": 6315,
      "জেলায়": 6316,
      "সামঞ্জস্য": 6317,
      "গণতন্ত্র": 6318,
      "অ্যাপ্ল": 6319,
      "হোম": 6320,
      "তোলা": 6321,
      "দেখান": 6322,
      "উচ্চার": 6323,
      "বাহিনীকে": 6324,
      "অনুষ্ঠানের": 6325,
      "কমিয়ে": 6326,
      "১৯৫১": 6327,
      "ঘটেছিল": 6328,
      "আমদানি": 6329,
      "চার্লস": 6330,
      "বিরল": 6331,
      "প্রদর্শনী": 6332,
      "পুঁজি": 6333,
      "সাংবিধানিক": 6334,
      "az": 6335,
      "be": 6336,
      "by": 6337,
      "অস্থায়ী": 6338,
      "ওল": 6339,
      "ওডি": 6340,
      "তরা": 6341,
      "থু": 6342,
      "নন্": 6343,
      "রচিত": 6344,
      "য়র": 6345,
      "ারো": 6346,
      "বাজে": 6347,
      "বাণী": 6348,
      "সাউথ": 6349,
      "কাজা": 6350,
      "ক্তার": 6351,
      "স্থলে": 6352,
      "পাতি": 6353,
      "পাইল": 6354,
      "শিশুর": 6355,
      "মধ্যবর্তী": 6356,
      "ডিজ": 6357,
      "ভাবেই": 6358,
      "দামে": 6359,
      "খাত": 6360,
      "চ্ছিল": 6361,
      "গোত্র": 6362,
      "পোষ": 6363,
      "নিয়েছিলেন": 6364,
      "জেরু": 6365,
      "সার্চ": 6366,
      "নিয়ন্ত্রণের": 6367,
      "জয়ী": 6368,
      "বাণিজ্যের": 6369,
      "ভিয়েতনাম": 6370,
      "পৌছ": 6371,
      "ফ্ল্যা": 6372,
      "বাজারের": 6373,
      "পড়তে": 6374,
      "যোগাযোগের": 6375,
      "নৌকা": 6376,
      "নাট্য": 6377,
      "দূরত্ব": 6378,
      "এক্সপ্রেস": 6379,
      "ব্যবসায়ী": 6380,
      "লন্ডনের": 6381,
      "ভূমিকায়": 6382,
      "জানিয়ে": 6383,
      "ইসরায়েলের": 6384,
      "প্রার্থনা": 6385,
      "অভিযানের": 6386,
      "উইন্ডোজ": 6387,
      "ইউনাইটেড": 6388,
      "স্বায়ত্ত": 6389,
      "আলেকজান": 6390,
      "gl": 6391,
      "সন্তু": 6392,
      "২টি": 6393,
      "বিল্ডিং": 6394,
      "বাগান": 6395,
      "কিয়া": 6396,
      "রেখা": 6397,
      "পাতের": 6398,
      "মেট": 6399,
      "অনন্য": 6400,
      "স্তম্ভ": 6401,
      "যাচাই": 6402,
      "রিং": 6403,
      "কুয়ে": 6404,
      "পূর্বক": 6405,
      "ফলশ্রুতি": 6406,
      "অ্যাড": 6407,
      "পুনরু": 6408,
      "সমাপ্তি": 6409,
      "ক্ষেত্রেই": 6410,
      "১৯৫৯": 6411,
      "লীগের": 6412,
      "স্যাম": 6413,
      "উপায়ে": 6414,
      "গ্লো": 6415,
      "বিরত": 6416,
      "চতুর্": 6417,
      "ভবিষ্যৎ": 6418,
      "ভবিষ্যতে": 6419,
      "সংস্কারের": 6420,
      "কর্মকর্তাদের": 6421,
      "সাগরে": 6422,
      "উইকিপি": 6423,
      "আবির্ভূত": 6424,
      "আমন্ত্রণ": 6425,
      "বেইজিং": 6426,
      "ভিক্টো": 6427,
      "বাছাই": 6428,
      "চম": 6429,
      "জনিত": 6430,
      "দাল": 6431,
      "পত্য": 6432,
      "মাদ্রি": 6433,
      "কারের": 6434,
      "সংশোধন": 6435,
      "মেয়ের": 6436,
      "মেইল": 6437,
      "প্রতিবেশী": 6438,
      "রিটি": 6439,
      "অবলম্ব": 6440,
      "মোহাম্মদ": 6441,
      "জানানো": 6442,
      "অন্যদের": 6443,
      "ান্ট": 6444,
      "বৈদ্যু": 6445,
      "দায়িত্বে": 6446,
      "লুই": 6447,
      "১৯৬৮": 6448,
      "সর্বনিম্ন": 6449,
      "সিরিজে": 6450,
      "198": 6451,
      "উন্নয়নশীল": 6452,
      "অতিথি": 6453,
      "জমির": 6454,
      "ঢাকায়": 6455,
      "ect": 6456,
      "খেলেছেন": 6457,
      "প্যারিস": 6458,
      "উর্দু": 6459,
      "ক্যান্সার": 6460,
      "চ্যালেঞ্জ": 6461,
      "লিমিটেড": 6462,
      "উপদেষ্টা": 6463,
      "30": 6464,
      "ai": 6465,
      "rom": 6466,
      "uc": 6467,
      "ঁচু": 6468,
      "অনা": 6469,
      "ক্যার": 6470,
      "খানের": 6471,
      "খন্ড": 6472,
      "ণিত": 6473,
      "ফলের": 6474,
      "সন্ন": 6475,
      "সভায়": 6476,
      "ীকে": 6477,
      "ুল": 6478,
      "্যোগ": 6479,
      "বিপ": 6480,
      "নাস": 6481,
      "কারন": 6482,
      "টারের": 6483,
      "বর্তনের": 6484,
      "এটিই": 6485,
      "গেল": 6486,
      "স্টন": 6487,
      "ইউক্র": 6488,
      "চালানোর": 6489,
      "চারের": 6490,
      "আইপি": 6491,
      "আধি": 6492,
      "উভয়ে": 6493,
      "লেনদেন": 6494,
      "অধিকারী": 6495,
      "১৯৩৬": 6496,
      "হাইড্রো": 6497,
      "রেখেছিল": 6498,
      "সন্তানের": 6499,
      "নিবন্ধন": 6500,
      "বাধ্যতামূলক": 6501,
      "রাস্তাটি": 6502,
      "খ্রিস্টাব্দের": 6503,
      "ব্যক্তিকে": 6504,
      "সঞ্চাল": 6505,
      "চর্চা": 6506,
      "কণ্ঠ": 6507,
      "DF": 6508,
      "dis": 6509,
      "iz": 6510,
      "কানে": 6511,
      "ঝো": 6512,
      "ষষ্ঠ": 6513,
      "সবার": 6514,
      "১০০০": 6515,
      "৯৬": 6516,
      "করায়": 6517,
      "বিস্": 6518,
      "দ্বৈ": 6519,
      "মাতৃ": 6520,
      "লেবান": 6521,
      "লাহ": 6522,
      "কাবু": 6523,
      "নেয়ার": 6524,
      "ধারনা": 6525,
      "বললেন": 6526,
      "আরবের": 6527,
      "মার্ট": 6528,
      "স্টেশনের": 6529,
      "ord": 6530,
      "বার্সেলো": 6531,
      "আমেরিকায়": 6532,
      "১৯৪১": 6533,
      "নারীবাদী": 6534,
      "দুর্ঘটনা": 6535,
      "সৌর": 6536,
      "কীভাবে": 6537,
      "ফিলিস্তি": 6538,
      "ইতালি": 6539,
      "পরীক্ষায়": 6540,
      "বহির্": 6541,
      "হচ্ছেন": 6542,
      "মহাসড়ক": 6543,
      "প্রারম্ভ": 6544,
      "ক্রমাগত": 6545,
      "জেরুসালে": 6546,
      "ফলশ্রুতিতে": 6547,
      "বৈদ্যুতিক": 6548,
      "ংশন": 6549,
      "অস্ট্র": 6550,
      "এসময়": 6551,
      "প্যাল": 6552,
      "রস": 6553,
      "ৃক্ত": 6554,
      "৪৬": 6555,
      "৪টি": 6556,
      "বাতা": 6557,
      "রাজি": 6558,
      "দেবে": 6559,
      "রেট": 6560,
      "স্তানের": 6561,
      "লোকের": 6562,
      "্যানি": 6563,
      "দাই": 6564,
      "দ্রব্য": 6565,
      "সম্পৃক্ত": 6566,
      "মেরি": 6567,
      "পারেনি": 6568,
      "িয়নের": 6569,
      "অনেকে": 6570,
      "অর্থায়ন": 6571,
      "ম্বিয়া": 6572,
      "ক্যাপ্": 6573,
      "আর্কা": 6574,
      "বিষয়বস্তু": 6575,
      "বাড়ির": 6576,
      "ল্যাটিন": 6577,
      "আফ্রিকায়": 6578,
      "ছবিতে": 6579,
      "বাস্তবায়ন": 6580,
      "ফ্রান্সে": 6581,
      "স্বাস্থ্যের": 6582,
      "সপ্তম": 6583,
      "প্রত্যক্ষ": 6584,
      "সরবরাহের": 6585,
      "ঐতিহ্যগত": 6586,
      "নিবন্ধিত": 6587,
      "কলকাতার": 6588,
      "লিপিবদ্ধ": 6589,
      "প্রতিদ্বন্দ্বি": 6590,
      "ফেব্রুয়ারী": 6591,
      "আংশিকভাবে": 6592,
      "রাস্তার": 6593,
      "অভিষেক": 6594,
      "টর্": 6595,
      "বক্স": 6596,
      "যি": 6597,
      "৭৮": 6598,
      "কেপ": 6599,
      "মাঞ্চ": 6600,
      "পাতা": 6601,
      "টেশন": 6602,
      "রিশ": 6603,
      "ত্তর": 6604,
      "রোবট": 6605,
      "সম্পদের": 6606,
      "ব্যাব": 6607,
      "অর্থের": 6608,
      "সীমার": 6609,
      "ধরন": 6610,
      "থাকলেও": 6611,
      "কেন্দ্রের": 6612,
      "সমর্থিত": 6613,
      "বরাবর": 6614,
      "রাসায়": 6615,
      "পুরস্কারের": 6616,
      "নির্দেশনা": 6617,
      "বাস্তবায়": 6618,
      "ফ্রান্সিস": 6619,
      "রাইট": 6620,
      "অপারেটিং": 6621,
      "রহমান": 6622,
      "ব্রিটেনের": 6623,
      "কোর্স": 6624,
      "পরিবহনের": 6625,
      "সন্ত্রা": 6626,
      "উপলব্ধি": 6627,
      "দৃষ্টিভঙ্গি": 6628,
      "রয়্যাল": 6629,
      "ঘাঁটি": 6630,
      "হোয়াইট": 6631,
      "ইজ": 6632,
      "উজ": 6633,
      "এনে": 6634,
      "এডি": 6635,
      "ণার": 6636,
      "তথা": 6637,
      "মনি": 6638,
      "লীর": 6639,
      "প্রতার": 6640,
      "বিয়ান": 6641,
      "নিচের": 6642,
      "বেসরকারী": 6643,
      "মাঠে": 6644,
      "লেফ": 6645,
      "দেহের": 6646,
      "ক্ষত্র": 6647,
      "কিট": 6648,
      "সিটির": 6649,
      "দাতা": 6650,
      "ব্যবহারকারীদের": 6651,
      "মার্শাল": 6652,
      "নিয়েছিল": 6653,
      "হোটে": 6654,
      "১৯৭৭": 6655,
      "থাকত": 6656,
      "সম্পর্কযুক্ত": 6657,
      "গ্রেড": 6658,
      "শতক": 6659,
      "১৯৩৪": 6660,
      "কিংব": 6661,
      "ূর্ত": 6662,
      "প্রচলন": 6663,
      "যথাযথ": 6664,
      "সংবিধানের": 6665,
      "ইলেকট্রন": 6666,
      "প্রতিদ্বন্দ্বী": 6667,
      "নির্ণয়": 6668,
      "আওতায়": 6669,
      "পুলিশের": 6670,
      "সচিব": 6671,
      "পরমাণু": 6672,
      "বিনামূল্যে": 6673,
      "টোকিও": 6674,
      "ক্ষমতায়": 6675,
      "ওয়াশিংটন": 6676,
      "অপরি": 6677,
      "আশে": 6678,
      "এগুলি": 6679,
      "এজেন্": 6680,
      "খায়": 6681,
      "জোট": 6682,
      "দম্প": 6683,
      "মরা": 6684,
      "শস্য": 6685,
      "২য়": 6686,
      "্রান্ত": 6687,
      "করছিলেন": 6688,
      "িক্যাল": 6689,
      "বিএস": 6690,
      "নিন": 6691,
      "েন্ড": 6692,
      "স্মার": 6693,
      "তাজিক": 6694,
      "মাহ": 6695,
      "স্থগ": 6696,
      "জাই": 6697,
      "হাম্": 6698,
      "কোল": 6699,
      "চেস্টার": 6700,
      "উপযোগী": 6701,
      "কিছুদিন": 6702,
      "িয়াল": 6703,
      "মার্চে": 6704,
      "ভূগর্ভ": 6705,
      "ant": 6706,
      "উৎসাহ": 6707,
      "হেক্টর": 6708,
      "পুনরা": 6709,
      "তোমার": 6710,
      "বিশ্বাসের": 6711,
      "যানবাহন": 6712,
      "১৯৬৭": 6713,
      "১৯৫৩": 6714,
      "১৯৩৩": 6715,
      "197": 6716,
      "সফলভাবে": 6717,
      "গ্রন্থে": 6718,
      "মৌসুমের": 6719,
      "তারিখের": 6720,
      "একাডেমিক": 6721,
      "অপরাধের": 6722,
      "চোখ": 6723,
      "জানুয়ারিতে": 6724,
      "গান্ধী": 6725,
      "দ্বন্দ্ব": 6726,
      "কিংবদন্ত": 6727,
      "17": 6728,
      "Am": 6729,
      "De": 6730,
      "Pro": 6731,
      "pt": 6732,
      "এএস": 6733,
      "তরে": 6734,
      "ফায়ার": 6735,
      "ম্যাল": 6736,
      "৫১": 6737,
      "প্রজে": 6738,
      "র্কে": 6739,
      "স্লো": 6740,
      "কাট": 6741,
      "কার্ব": 6742,
      "সংকল": 6743,
      "যাবার": 6744,
      "ক্রস": 6745,
      "চেক": 6746,
      "ভারে": 6747,
      "রুপ": 6748,
      "উপজাতি": 6749,
      "ফিয়া": 6750,
      "ফেস": 6751,
      "ব্রিগে": 6752,
      "ore": 6753,
      "গ্রেপ্ত": 6754,
      "১৯৪২": 6755,
      "গিয়েছিলেন": 6756,
      "আত্মসমর্": 6757,
      "ফ্ল": 6758,
      "কেননা": 6759,
      "নিরাপত্তার": 6760,
      "আটটি": 6761,
      "দাঁড়ায়": 6762,
      "রাজনীতিবিদ": 6763,
      "ইয়েমেন": 6764,
      "শীতকালীন": 6765,
      "রান্না": 6766,
      "কর্মচারী": 6767,
      "অবরোধ": 6768,
      "ক্যাপ্টেন": 6769,
      "50": 6770,
      "with": 6771,
      "অক্স": 6772,
      "অত্যা": 6773,
      "গন্তব্য": 6774,
      "চুরি": 6775,
      "টেন্ট": 6776,
      "ফটো": 6777,
      "লিতে": 6778,
      "৬৭": 6779,
      "বায়ো": 6780,
      "একসঙ্গে": 6781,
      "সাইন": 6782,
      "ন্দের": 6783,
      "মাঠ": 6784,
      "রিজার্": 6785,
      "ডিভাইস": 6786,
      "নির্বাস": 6787,
      "স্টক": 6788,
      "স্ট্যান্ড": 6789,
      "মেরিন": 6790,
      "পিয়ান": 6791,
      "ডেমো": 6792,
      "অনেকেই": 6793,
      "ann": 6794,
      "পুণ": 6795,
      "ভেদ": 6796,
      "কমিক": 6797,
      "পরেও": 6798,
      "মাল্টি": 6799,
      "স্ট্রিং": 6800,
      "উচ্চতা": 6801,
      "১৯৫৮": 6802,
      "বাড়িয়ে": 6803,
      "তরঙ্গ": 6804,
      "ধারণাটি": 6805,
      "উৎপাদিত": 6806,
      "ভাইরাস": 6807,
      "মারাত্মক": 6808,
      "টার্ন": 6809,
      "কলেজের": 6810,
      "চরিত্রের": 6811,
      "সম্মানিত": 6812,
      "বিজ্ঞানে": 6813,
      "জরুরী": 6814,
      "আবিষ্কারের": 6815,
      "উদযাপন": 6816,
      "ইরাকের": 6817,
      "আর্মেনিয়ার": 6818,
      "মাদক": 6819,
      "ব্যাংকের": 6820,
      "উপকূলে": 6821,
      "সিকিউ": 6822,
      "প্রোগ্রামিং": 6823,
      "আধিপত্য": 6824,
      "রাসায়নিক": 6825,
      "ভূগর্ভস্থ": 6826,
      "PDF": 6827,
      "oy": 6828,
      "pro": 6829,
      "ward": 6830,
      "উঁচু": 6831,
      "কষ্ট": 6832,
      "পদা": 6833,
      "৭০০": 6834,
      "৯৩": 6835,
      "টিসি": 6836,
      "প্রদেশে": 6837,
      "সেবার": 6838,
      "ক্ষু": 6839,
      "গ্র্যান্ড": 6840,
      "লোকেরা": 6841,
      "আইভি": 6842,
      "সারণের": 6843,
      "পুরানো": 6844,
      "চিন": 6845,
      "বিকশিত": 6846,
      "ence": 6847,
      "মহাবিশ্বের": 6848,
      "২৫০": 6849,
      "amp": 6850,
      "রক্ষার": 6851,
      "ক্রিপ্": 6852,
      "ক্রিয়ায়": 6853,
      "ঐতিহ্যগতভাবে": 6854,
      "অধ্যায়": 6855,
      "সমন্বিত": 6856,
      "সৃষ্টির": 6857,
      "মেয়াদী": 6858,
      "স্টোন": 6859,
      "টিউব": 6860,
      "প্রবাহিত": 6861,
      "বাগদা": 6862,
      "হেনরি": 6863,
      "শৃঙ্খ": 6864,
      "সুড়ঙ্গ": 6865,
      "নৃত্য": 6866,
      "দ্বৈত": 6867,
      "%।": 6868,
      "gh": 6869,
      "son": 6870,
      "ঋতু": 6871,
      "এখান": 6872,
      "কস": 6873,
      "কতা": 6874,
      "কমা": 6875,
      "খিক": 6876,
      "চিক": 6877,
      "াদিত": 6878,
      "৯৫": 6879,
      "করন": 6880,
      "মাইন": 6881,
      "মাদ্রা": 6882,
      "কাঠ": 6883,
      "সিভিল": 6884,
      "মধ্যযুগ": 6885,
      "খনন": 6886,
      "সুতরা": 6887,
      "পেট্রো": 6888,
      "বন্দু": 6889,
      "অভিজাত": 6890,
      "মূল্যের": 6891,
      "এসআর": 6892,
      "গ্রাফি": 6893,
      "ফলস্বরূপ": 6894,
      "শিল্পীদের": 6895,
      "ঘোষ": 6896,
      "ঘোষিত": 6897,
      "লাভজনক": 6898,
      "দেখিয়ে": 6899,
      "কমিশনের": 6900,
      "নিউজ": 6901,
      "১৯৫৫": 6902,
      "১৯৪৯": 6903,
      "সর্বমোট": 6904,
      "কল্পনা": 6905,
      "মৌল": 6906,
      "কনসার্": 6907,
      "সম্প্রসারণ": 6908,
      "কৃষ্ণ": 6909,
      "উৎপাদ": 6910,
      "মনোনয়ন": 6911,
      "আন্দোলনে": 6912,
      "লিখেন": 6913,
      "প্রজাতন্ত্রী": 6914,
      "প্রত্যেকটি": 6915,
      "বক্তৃ": 6916,
      "কন্টেইনার": 6917,
      "সম্মেলনে": 6918,
      "সহিংসতা": 6919,
      "ইনিংসে": 6920,
      "উজ্জ্বল": 6921,
      "প্রতিবেদনে": 6922,
      "কাজাখ": 6923,
      "পাইলট": 6924,
      "স্থগিত": 6925,
      "12": 6926,
      "gr": 6927,
      "ost": 6928,
      "per": 6929,
      "আয়ের": 6930,
      "এও": 6931,
      "মদ": 6932,
      "হবেন": 6933,
      "৭১": 6934,
      "৯৪": 6935,
      "র্শ": 6936,
      "বিদেশে": 6937,
      "বেতার": 6938,
      "পরস্": 6939,
      "সাধ": 6940,
      "ন্ডা": 6941,
      "মাও": 6942,
      "কার্যাল": 6943,
      "১৯১৮": 6944,
      "১৯১০": 6945,
      "টাস": 6946,
      "জিয়ান": 6947,
      "ব্লা": 6948,
      "এসপি": 6949,
      "উৎসর্গ": 6950,
      "ধর্মে": 6951,
      "উত্তে": 6952,
      "ঞ্জের": 6953,
      "ich": 6954,
      "আনন্দ": 6955,
      "শীলতা": 6956,
      "১৯৫৭": 6957,
      "১৬০": 6958,
      "বরাদ্দ": 6959,
      "পর্বের": 6960,
      "ছবির": 6961,
      "ভালোবাসা": 6962,
      "অন্তর": 6963,
      "সুইজার": 6964,
      "অস্ট্রেলিয়ান": 6965,
      "প্রেরণা": 6966,
      "play": 6967,
      "প্রথাগত": 6968,
      "ইঞ্জিনিয়ারিং": 6969,
      "নেদারল্যান্ড": 6970,
      "চট্ট": 6971,
      "সুতরাং": 6972,
      "Ad": 6973,
      "{\\": 6974,
      "উদার": 6975,
      "জড়িয়ে": 6976,
      "নর্থ": 6977,
      "নক্ষত্র": 6978,
      "হী": 6979,
      "২0": 6980,
      "৬৮": 6981,
      "প্রবে": 6982,
      "বিড়": 6983,
      "রাও": 6984,
      "লিগ": 6985,
      "লিয়ান": 6986,
      "হারায়": 6987,
      "দুল্লাহ": 6988,
      "কুকুর": 6989,
      "চলছে": 6990,
      "গাণিত": 6991,
      "কাশ্ম": 6992,
      "লারের": 6993,
      "ইংরেজী": 6994,
      "মালয়": 6995,
      "দলীয়": 6996,
      "তালি": 6997,
      "দেখেন": 6998,
      "সাইড": 6999,
      "পানিতে": 7000,
      "বিজ্ঞানীরা": 7001,
      "যাত্রীদের": 7002,
      "১৯৩৭": 7003,
      "স্টাইন": 7004,
      "অস্ট্রেলীয়": 7005,
      "অংশগ্রহণকারী": 7006,
      "প্রত্যাশিত": 7007,
      "সংস্করণে": 7008,
      "গতিতে": 7009,
      "ইতালির": 7010,
      "পাসপোর্ট": 7011,
      "জরিপ": 7012,
      "সন্ত্রাস": 7013,
      "গির্জা": 7014,
      "অভিনয়ের": 7015,
      "ঔষধ": 7016,
      "ওষুধ": 7017,
      "স্মারক": 7018,
      "Br": 7019,
      "এটার": 7020,
      "দন্ড": 7021,
      "প্প": 7022,
      "পত্রে": 7023,
      "রবি": 7024,
      "রবিন": 7025,
      "াঙ্গ": 7026,
      "ুপ": 7027,
      "র্ষে": 7028,
      "বিদ্ধ": 7029,
      "বিলের": 7030,
      "বিহীন": 7031,
      "তামিল": 7032,
      "১৯১৭": 7033,
      "পারবেন": 7034,
      "জিনের": 7035,
      "গ্রহের": 7036,
      "চেয়েও": 7037,
      "ান্টা": 7038,
      "ডাউন": 7039,
      "লেখেন": 7040,
      "উদ্বেগ": 7041,
      "হাসান": 7042,
      "থাকলে": 7043,
      "রাজবংশের": 7044,
      "গবেষক": 7045,
      "ics": 7046,
      "ite": 7047,
      "সমর্থক": 7048,
      "স্থিতির": 7049,
      "পড়ার": 7050,
      "সংস্কৃতিতে": 7051,
      "প্রাণীদের": 7052,
      "কখনোই": 7053,
      "সংরক্ষণের": 7054,
      "ফ্রেড": 7055,
      "সাফল্যের": 7056,
      "প্রযোজ্য": 7057,
      "দুর্যোগ": 7058,
      "মিথ্যা": 7059,
      "আজারবাইজান": 7060,
      "মিশরের": 7061,
      "হৃদ": 7062,
      "ঘিরে": 7063,
      "বাচ্চা": 7064,
      "sc": 7065,
      "we": 7066,
      "উর": 7067,
      "এভি": 7068,
      "দানে": 7069,
      "ভল": 7070,
      "রিল": 7071,
      "৬৪": 7072,
      "বিলা": 7073,
      "জনগোষ্ঠী": 7074,
      "হয়তো": 7075,
      "কাতাল": 7076,
      "নেস": 7077,
      "সংগঠনের": 7078,
      "জন্যই": 7079,
      "পারস্": 7080,
      "জিজ্ঞা": 7081,
      "খামার": 7082,
      "ইউএন": 7083,
      "ম্বার": 7084,
      "পোপ": 7085,
      "ওয়ালে": 7086,
      "দ্বিগুণ": 7087,
      "পালিত": 7088,
      "উন্নতির": 7089,
      "বেরিয়ে": 7090,
      "তুল্য": 7091,
      "ত্বে": 7092,
      "১৯৪৪": 7093,
      "ions": 7094,
      "পণ্যের": 7095,
      "প্রকল্পে": 7096,
      "অফিসে": 7097,
      "গ্রীক": 7098,
      "নিয়ন্ত্রণে": 7099,
      "সফলতা": 7100,
      "সৌন্দর": 7101,
      "পুরোনো": 7102,
      "ace": 7103,
      "সমালোচক": 7104,
      "বিরতি": 7105,
      "কাঠামোর": 7106,
      "উঠেছিল": 7107,
      "সম্মিল": 7108,
      "কাউন্সিলের": 7109,
      "লঙ্ঘন": 7110,
      "ইলেকট্রনিক": 7111,
      "পাথরের": 7112,
      "আলোকচিত্র": 7113,
      "সমীকরণ": 7114,
      "সাক্ষাৎকারে": 7115,
      "প্রবণতা": 7116,
      "উদ্বোধনী": 7117,
      "Sp": 7118,
      "io": 7119,
      "ইস্": 7120,
      "ইসি": 7121,
      "ওপেন": 7122,
      "সই": 7123,
      "েরও": 7124,
      "স্মার্ট": 7125,
      "নাচ": 7126,
      "ক্ষমা": 7127,
      "ভাস": 7128,
      "নেমে": 7129,
      "ব্যবধানে": 7130,
      "বিশ্বযুদ্ধ": 7131,
      "কুই": 7132,
      "হলুদ": 7133,
      "গ্রাফিক": 7134,
      "ইংরেজিতে": 7135,
      "প্রকাশক": 7136,
      "ান্স": 7137,
      "তখনও": 7138,
      "ice": 7139,
      "স্পেনের": 7140,
      "প্রেক্ষা": 7141,
      "পাঠায়": 7142,
      "পাঠিয়ে": 7143,
      "তথ্যের": 7144,
      "সিরিয়ার": 7145,
      "ষেত্রে": 7146,
      "জ্ঞাত": 7147,
      "যোজন": 7148,
      "ভোক্তা": 7149,
      "প্রচারিত": 7150,
      "এক্ষেত্রে": 7151,
      "বিভ্রান্ত": 7152,
      "প্রস্তুতি": 7153,
      "সেন্ট্র": 7154,
      "ওয়েবসাই": 7155,
      "তুরস্কের": 7156,
      "গেমসে": 7157,
      "ধর্ষণের": 7158,
      "উত্পাদন": 7159,
      "উদ্ভাবন": 7160,
      "প্রতিফলিত": 7161,
      "আবহাওয়া": 7162,
      "কর্মকর্তারা": 7163,
      "ঘোষণার": 7164,
      "প্রারম্ভিক": 7165,
      "Bang": 7166,
      "IS": 7167,
      "ket": 7168,
      "la": 7169,
      "অসম্ভব": 7170,
      "খলি": 7171,
      "ডকু": 7172,
      "তলা": 7173,
      "থানের": 7174,
      "দস্যু": 7175,
      "ফট": 7176,
      "হলিউ": 7177,
      "ীতির": 7178,
      "্টা": 7179,
      "প্রবন্ধ": 7180,
      "কাব্য": 7181,
      "পরিধান": 7182,
      "সিডি": 7183,
      "গেছেন": 7184,
      "বিশুদ্ধ": 7185,
      "তুর্ক": 7186,
      "ডেটা": 7187,
      "আইও": 7188,
      "পুরের": 7189,
      "ডাক্তার": 7190,
      "অ্যাডা": 7191,
      "মানুষদের": 7192,
      "ম্যাকাও": 7193,
      "বিতর্কের": 7194,
      "রাজস্ব": 7195,
      "বিদ্যালয়ে": 7196,
      "প্রেক্ষ": 7197,
      "প্রশান্ত": 7198,
      "নির্বাচনী": 7199,
      "প্রাপ্তবয়স্ক": 7200,
      "বানানো": 7201,
      "বিবাহিত": 7202,
      "বিচারক": 7203,
      "যন্ত্রের": 7204,
      "দূরবর্তী": 7205,
      "ide": 7206,
      "আহমেদ": 7207,
      "পৃষ্ঠা": 7208,
      "ক্যাম্পাস": 7209,
      "যতক্ষণ": 7210,
      "প্যারিসে": 7211,
      "ভূমিকম্পের": 7212,
      "জাতীয়তাবাদী": 7213,
      "পরিত্যা": 7214,
      "গ্রেপ্তার": 7215,
      "--": 7216,
      "14": 7217,
      "Women": 7218,
      "aj": 7219,
      "ach": 7220,
      "sp": 7221,
      "আবেগ": 7222,
      "এ্যা": 7223,
      "কমন": 7224,
      "চন": 7225,
      "জলা": 7226,
      "ধ্যা": 7227,
      "নর্": 7228,
      "মল": 7229,
      "৫৩": 7230,
      "করল": 7231,
      "বাঘ": 7232,
      "বাদি": 7233,
      "তেমন": 7234,
      "সিম": 7235,
      "ঙ্কের": 7236,
      "ঙ্কন": 7237,
      "শাখার": 7238,
      "সামগ্রিক": 7239,
      "বেশীর": 7240,
      "মাধ্যমিক": 7241,
      "বন্যা": 7242,
      "ধরার": 7243,
      "সমাধি": 7244,
      "কার্যক্রমের": 7245,
      "ফোনের": 7246,
      "আনতে": 7247,
      "তুলতে": 7248,
      "শব্দটির": 7249,
      "ক্লাস": 7250,
      "পত্রিকার": 7251,
      "১৯৩২": 7252,
      "যৌনতা": 7253,
      "olog": 7254,
      "কলেজে": 7255,
      "ফিলিপাই": 7256,
      "স্কোয়া": 7257,
      "পরিবেশের": 7258,
      "ইরানি": 7259,
      "জোরপূর্বক": 7260,
      "আদালতের": 7261,
      "প্রাচীর": 7262,
      "ট্রেড": 7263,
      "যৌথভাবে": 7264,
      "পরিবেশে": 7265,
      "আংশিক": 7266,
      "লাইব্রেরি": 7267,
      "অ্যাসোসিয়েশন": 7268,
      "জিজ্ঞাসা": 7269,
      "Pl": 7270,
      "vi": 7271,
      "অশ্ব": 7272,
      "আকৃষ্ট": 7273,
      "ইব্রা": 7274,
      "ছায়া": 7275,
      "নিক্ষে": 7276,
      "িস্ট": 7277,
      "ৃশ": 7278,
      "৬৩": 7279,
      "৮৮": 7280,
      "প্রবর্তন": 7281,
      "বিহার": 7282,
      "বিএম": 7283,
      "স্কর": 7284,
      "স্মিথ": 7285,
      "রাউ": 7286,
      "লেক": 7287,
      "নেতৃ": 7288,
      "১৯১৯": 7289,
      "১৯১৪": 7290,
      "গ্রো": 7291,
      "রিসার্চ": 7292,
      "সুনির্দিষ্ট": 7293,
      "খাওয়া": 7294,
      "বাসার": 7295,
      "অনেকটা": 7296,
      "উপরের": 7297,
      "উত্তোল": 7298,
      "att": 7299,
      "দায়ের": 7300,
      "ম্যাগ": 7301,
      "জীবনী": 7302,
      "সম্প্রসারিত": 7303,
      "চুক্তিবদ্ধ": 7304,
      "ক্রিকেটার": 7305,
      "পর্নো": 7306,
      "অঞ্চলটি": 7307,
      "১৯৩৯": 7308,
      "ইন্টারনে": 7309,
      "adesh": 7310,
      "বাল্য": 7311,
      "প্রিন্স": 7312,
      "পেয়েছেন": 7313,
      "বিক্রে": 7314,
      "বিদ্রোহের": 7315,
      "আজকের": 7316,
      "থিয়েটারে": 7317,
      "ব্রুনাই": 7318,
      "উড়ান": 7319,
      "রয়েছেন": 7320,
      "সকলের": 7321,
      "রাস্তায়": 7322,
      "হ্রদ": 7323,
      "প্ল্যাটফর্ম": 7324,
      "তোমাদের": 7325,
      "সন্ত্রাসী": 7326,
      "সেন্ট্রাল": 7327,
      "প্রেক্ষিতে": 7328,
      "CO": 7329,
      "Ph": 7330,
      "ail": 7331,
      "অস্বাভাবিক": 7332,
      "আনার": 7333,
      "এসি": 7334,
      "দখ": 7335,
      "র‍্যা": 7336,
      "শপথ": 7337,
      "ূপে": 7338,
      "১ম": 7339,
      "বাদা": 7340,
      "করেছি": 7341,
      "জাকার": 7342,
      "ভিয়া": 7343,
      "অবন": 7344,
      "প্রথমদিকে": 7345,
      "ব্রড": 7346,
      "আরসি": 7347,
      "আরম্ভ": 7348,
      "উপার্": 7349,
      "উপভোগ": 7350,
      "রাষ্ট্রপতির": 7351,
      "আইরিশ": 7352,
      "চাকর": 7353,
      "ong": 7354,
      "ভুত": 7355,
      "উদ্দিন": 7356,
      "ঞ্জি": 7357,
      "নোট": 7358,
      "বার্ন": 7359,
      "বিদ্যালয়ের": 7360,
      "সূত্রে": 7361,
      "লুক": 7362,
      "সহায়তায়": 7363,
      "ট্রাম্প": 7364,
      "এয়ারলা": 7365,
      "উল্লেখযোগ্যভাবে": 7366,
      "নিয়মিতভাবে": 7367,
      "জাপানী": 7368,
      "age": 7369,
      "দাঁড়িয়ে": 7370,
      "ত্রুটি": 7371,
      "এন্টি": 7372,
      "প্রাইভেট": 7373,
      "অপেক্ষাকৃত": 7374,
      "এজেন্ট": 7375,
      "কার্যকলাপ": 7376,
      "খ্যায়িত": 7377,
      "বৈষম্য": 7378,
      "স্পোর্টস": 7379,
      "Intern": 7380,
      "প্রতিদ্বন্দ্বিতা": 7381,
      "বন্দুক": 7382,
      "AN": 7383,
      "Cup": 7384,
      "আধা": 7385,
      "ইম": 7386,
      "ইঞ্চ": 7387,
      "পটে": 7388,
      "মোগ": 7389,
      "বিপর্য": 7390,
      "নিরী": 7391,
      "বাক্য": 7392,
      "ক্ষ্": 7393,
      "মাটি": 7394,
      "কাঠের": 7395,
      "মানদণ্ড": 7396,
      "মেয়র": 7397,
      "রিন": 7398,
      "নির্মান": 7399,
      "দেশটি": 7400,
      "দেশগুলোর": 7401,
      "দায়ে": 7402,
      "গেমস": 7403,
      "ানিয়া": 7404,
      "ছাড়": 7405,
      "জ্ঞানের": 7406,
      "নিয়ন": 7407,
      "নিয়ায়": 7408,
      "আইএ": 7409,
      "বর্ণের": 7410,
      "অ্যাক্": 7411,
      "অ্যাপল": 7412,
      "দশটি": 7413,
      "মিতা": 7414,
      "ther": 7415,
      "ন্ডার": 7416,
      "আগস্টে": 7417,
      "যৌক্ত": 7418,
      "চিত্রিত": 7419,
      "কৌতু": 7420,
      "প্রতিযোগী": 7421,
      "কেনা": 7422,
      "দিতেন": 7423,
      "সাহিত্যের": 7424,
      "ছাত্রদের": 7425,
      "প্রিম": 7426,
      "চিকিৎসার": 7427,
      "নিম্নলিখিত": 7428,
      "অর্থনীতিতে": 7429,
      "অভিযোগে": 7430,
      "প্রশাসনের": 7431,
      "সীমান্তে": 7432,
      "তুরস্ক": 7433,
      "পঞ্চা": 7434,
      "নেপালের": 7435,
      "প্রযোজক": 7436,
      "অভ্যু": 7437,
      "আর্মেনিয়া": 7438,
      "বিকাশের": 7439,
      "নথিভুক্ত": 7440,
      "উপকূলীয়": 7441,
      "কর্মসংস্থানের": 7442,
      "মোকাবেলা": 7443,
      "মডেলের": 7444,
      "প্রণালী": 7445,
      "গাণিতিক": 7446,
      "Is": 7447,
      "অষ্ট": 7448,
      "ডাল": 7449,
      "মরো": 7450,
      "রন": 7451,
      "রয়েল": 7452,
      "শ্বে": 7453,
      "ানী": 7454,
      "প্রক্রিয়ায়": 7455,
      "বিচ্ছেদ": 7456,
      "য়েট": 7457,
      "বেলের": 7458,
      "ায়নের": 7459,
      "জনগোষ্ঠীর": 7460,
      "সাক্ষর": 7461,
      "সমতুল্য": 7462,
      "মাটির": 7463,
      "কারিতা": 7464,
      "য়াং": 7465,
      "পাক্ষ": 7466,
      "জন্যও": 7467,
      "যাদু": 7468,
      "গ্রস্থ": 7469,
      "হাব": 7470,
      "ভিউ": 7471,
      "শেল": 7472,
      "ক্র্যা": 7473,
      "পিছু": 7474,
      "প্টার": 7475,
      "পুর্": 7476,
      "সোর্স": 7477,
      "গণহত্যা": 7478,
      "ফাংশন": 7479,
      "অ্যাং": 7480,
      "অ্যাকাউন্": 7481,
      "অ্যাঞ্জে": 7482,
      "তোলেন": 7483,
      "স্ট্রো": 7484,
      "বাহিনীতে": 7485,
      "এনএস": 7486,
      "স্বাধীনভাবে": 7487,
      "আরোহ": 7488,
      "প্রভাবের": 7489,
      "জোসেফ": 7490,
      "যাত্রার": 7491,
      "আত্মার": 7492,
      "out": 7493,
      "এপ্রিলে": 7494,
      "খানার": 7495,
      "অতিবাহিত": 7496,
      "মুদ্রার": 7497,
      "প্যাকে": 7498,
      "মূল্যবান": 7499,
      "মিনিটের": 7500,
      "লিঙ্গের": 7501,
      "রাজনীতিতে": 7502,
      "ফাইনাল": 7503,
      "উপলব্ধ": 7504,
      "সংক্রমণ": 7505,
      "অতীতে": 7506,
      "পার্শ্ববর্তী": 7507,
      "উভয়েই": 7508,
      "আর্কাইভ": 7509,
      "লেফটেন": 7510,
      "বক্তৃতা": 7511,
      "ual": 7512,
      "আখ্যায়িত": 7513,
      "ইতো": 7514,
      "ছুর": 7515,
      "ভয়া": 7516,
      "সকালে": 7517,
      "হ্যান্ড": 7518,
      "িস": 7519,
      "৭৬": 7520,
      "করিয়ে": 7521,
      "য়েস": 7522,
      "জনে": 7523,
      "রাজার": 7524,
      "হাতি": 7525,
      "প্রতিস্থাপন": 7526,
      "পারতেন": 7527,
      "েন্সি": 7528,
      "শেষদিকে": 7529,
      "খাতে": 7530,
      "ষ্টায়": 7531,
      "বিশ্বকাপ": 7532,
      "পুস্ত": 7533,
      "এসডি": 7534,
      "ভাবের": 7535,
      "লাইনে": 7536,
      "হেলিক": 7537,
      "দুইবার": 7538,
      "উদ্দী": 7539,
      "বইয়ে": 7540,
      "আরোপ": 7541,
      "বন্দরটি": 7542,
      "নিজেদেরকে": 7543,
      "সম্পূর্ণভাবে": 7544,
      "মাসিক": 7545,
      "এসেছিলেন": 7546,
      "দর্শক": 7547,
      "পুনর্নির্মাণ": 7548,
      "প্রিন্": 7549,
      "ইরাকি": 7550,
      "বাঁধ": 7551,
      "সূর্যের": 7552,
      "চ্যাম্পিয়নশিপ": 7553,
      "প্রকারের": 7554,
      "অ্যান্টি": 7555,
      "পার্টমেন্ট": 7556,
      "পাহাড়": 7557,
      "চেনা": 7558,
      "শ্রীলঙ্কা": 7559,
      "ক্যালিফোর্নিয়া": 7560,
      "বিশ্বকাপের": 7561,
      "কয়লা": 7562,
      "খ্রিষ্টান": 7563,
      "পরবর্তিতে": 7564,
      "চ্যুত": 7565,
      "জগতের": 7566,
      "অ্যাপ্লিকেশন": 7567,
      "অভ্যুত্": 7568,
      "ire": 7569,
      "me": 7570,
      "অসাধারণ": 7571,
      "খিল": 7572,
      "জানে": 7573,
      "নৈ": 7574,
      "সৎ": 7575,
      "াত্য": 7576,
      "ীকরণের": 7577,
      "করো": 7578,
      "নিন্দা": 7579,
      "সমান্তর": 7580,
      "ছিলাম": 7581,
      "দ্ম": 7582,
      "লাতিন": 7583,
      "পাশ্চ": 7584,
      "১৯০০": 7585,
      "মিড": 7586,
      "সিনা": 7587,
      "মেলা": 7588,
      "যাঁ": 7589,
      "ভারসাম্য": 7590,
      "পিএল": 7591,
      "চ্ছেন": 7592,
      "মতই": 7593,
      "সারি": 7594,
      "ভাষ্য": 7595,
      "মালদ্বীপ": 7596,
      "are": 7597,
      "দায়ক": 7598,
      "ধরণ": 7599,
      "ম্যাক্স": 7600,
      "স্বার্থ": 7601,
      "এটাই": 7602,
      "iss": 7603,
      "ন্যাসের": 7604,
      "ম্যানের": 7605,
      "তীরে": 7606,
      "জলদস্যু": 7607,
      "১৯৩৫": 7608,
      "খেলাটি": 7609,
      "রক্ষণশীল": 7610,
      "সিংহ": 7611,
      "প্রয়োজনীয়তা": 7612,
      "মেয়াদ": 7613,
      "over": 7614,
      "মাইক্রোসফট": 7615,
      "প্রান্তে": 7616,
      "ফ্রাঙ্ক": 7617,
      "পর্যটক": 7618,
      "মালয়েশিয়া": 7619,
      "গ্রাহক": 7620,
      "যোদ্ধাদের": 7621,
      "জগতে": 7622,
      "মাউন্ট": 7623,
      "প্রজনন": 7624,
      "এসোসিয়েশন": 7625,
      "অবতরণ": 7626,
      "পেছনে": 7627,
      "মধ্যযুগীয়": 7628,
      "পারস্পরিক": 7629,
      "40": 7630,
      "Ex": 7631,
      "ral": 7632,
      "এব": 7633,
      "টম": 7634,
      "টানে": 7635,
      "তত": 7636,
      "তন্": 7637,
      "৫৬": 7638,
      "প্রসে": 7639,
      "বিরাট": 7640,
      "একীভূত": 7641,
      "রাগ": 7642,
      "লেবেল": 7643,
      "মানি": 7644,
      "পাট": 7645,
      "পাণ্ড": 7646,
      "পাউন্ড": 7647,
      "শির": 7648,
      "ডিপি": 7649,
      "দেশগুলির": 7650,
      "সরল": 7651,
      "নীচে": 7652,
      "কুল": 7653,
      "প্তা": 7654,
      "অংশগ্রহণের": 7655,
      "শ্রদ্ধ": 7656,
      "বলেছে": 7657,
      "চাপের": 7658,
      "পুরষ্কার": 7659,
      "ধাপ": 7660,
      "ইতিমধ্যে": 7661,
      "হেরে": 7662,
      "১৯৪৩": 7663,
      "শাসনাম": 7664,
      "পূর্বেই": 7665,
      "্যান্স": 7666,
      "ous": 7667,
      "রানওয়ে": 7668,
      "অ্যালবা": 7669,
      "নরওয়ে": 7670,
      "কম্পিউটারের": 7671,
      "ইয়াং": 7672,
      "কুরআন": 7673,
      "আদালতে": 7674,
      "বিদ্রোহী": 7675,
      "সাধারন": 7676,
      "দুঃখ": 7677,
      "খ্রিষ্টাব্দে": 7678,
      "মস্তিষ্": 7679,
      "অক্সফোর্ড": 7680,
      "রিজার্ভ": 7681,
      "পরিত্যাগ": 7682,
      "তন্মধ্যে": 7683,
      "16": 7684,
      "Award": 7685,
      "RE": 7686,
      "der": 7687,
      "অডি": 7688,
      "অগা": 7689,
      "ইনের": 7690,
      "উস": 7691,
      "খস": 7692,
      "তঃ": 7693,
      "ধ্রু": 7694,
      "প্যার": 7695,
      "রানের": 7696,
      "রেনে": 7697,
      "৭৪": 7698,
      "বাজেট": 7699,
      "মাতার": 7700,
      "লাগে": 7701,
      "কারো": 7702,
      "সংগ্রাম": 7703,
      "১৯২৬": 7704,
      "মুহাম্": 7705,
      "সরের": 7706,
      "শাধিকার": 7707,
      "ান্তরের": 7708,
      "সবগুলো": 7709,
      "ঙ্গাল": 7710,
      "চ্ছু": 7711,
      "স্বামীর": 7712,
      "গাঁ": 7713,
      "পোষণ": 7714,
      "ভাগের": 7715,
      "জুনে": 7716,
      "জুনিয়র": 7717,
      "চিৎ": 7718,
      "দলগুলো": 7719,
      "ens": 7720,
      "সংস্করণের": 7721,
      "আইনজীবী": 7722,
      "ম্যান্": 7723,
      "মহাদেশ": 7724,
      "সফরের": 7725,
      "উপাদানের": 7726,
      "কৃত্রি": 7727,
      "পড়েছিল": 7728,
      "দর্শকদের": 7729,
      "ame": 7730,
      "ilm": 7731,
      "অধিকতর": 7732,
      "ations": 7733,
      "অপসারণ": 7734,
      "আজও": 7735,
      "সাক্ষাৎ": 7736,
      "কংগ্রেসের": 7737,
      "সীমাবদ্ধতা": 7738,
      "সার্বজনীন": 7739,
      "হচ্ছিল": 7740,
      "রেজিমেন্ট": 7741,
      "সাঁতার": 7742,
      "সচেতনতা": 7743,
      "বেকারত্বের": 7744,
      "উত্তরাধিকারী": 7745,
      "সার্বভৌমত": 7746,
      "ডেভেলপ": 7747,
      "সন্তুষ্ট": 7748,
      "প্রবেশাধিকার": 7749,
      "কাশ্মীর": 7750,
      "মরোক্": 7751,
      "ভয়াবহ": 7752,
      "পাশ্চাত্য": 7753,
      "For": 7754,
      "আগু": 7755,
      "ফৌ": 7756,
      "রানে": 7757,
      "ুলিপি": 7758,
      "বিবিসি": 7759,
      "বিদেশি": 7760,
      "কেজি": 7761,
      "তাছাড়া": 7762,
      "সাপ্তা": 7763,
      "মানা": 7764,
      "মান্": 7765,
      "ব্যতিক্রম": 7766,
      "ট্রান": 7767,
      "প্রতিভা": 7768,
      "ত্তা": 7769,
      "সুন্": 7770,
      "সুপ্রিম": 7771,
      "চেত": 7772,
      "জেশন": 7773,
      "পিসি": 7774,
      "উপহার": 7775,
      "চারপাশে": 7776,
      "বিদরা": 7777,
      "ান্টি": 7778,
      "কমই": 7779,
      "লাইফ": 7780,
      "তোলার": 7781,
      "ভিতরে": 7782,
      "সাইকেল": 7783,
      "দূষণ": 7784,
      "দৃশ": 7785,
      "ভোটের": 7786,
      "সুবিধার": 7787,
      "এলাকাটি": 7788,
      "সংখ্যায়": 7789,
      "এইচআইভি": 7790,
      "ট্রাফিক": 7791,
      "অলিম্পিকে": 7792,
      "সত্যি": 7793,
      "সত্যিকার": 7794,
      "চলাকালীন": 7795,
      "সম্মতি": 7796,
      "শান্তিপূর্ণ": 7797,
      "অস্ট্রেলিয়ায়": 7798,
      "বার্ষিকী": 7799,
      "অভ্যাস": 7800,
      "নির্যাতনের": 7801,
      "পর্যটকদের": 7802,
      "খালিদ": 7803,
      "Engl": 7804,
      "আকৃতির": 7805,
      "সভ্যতার": 7806,
      "আয়োজিত": 7807,
      "ছোটো": 7808,
      "কাগজ": 7809,
      "চমৎকার": 7810,
      "Bangl": 7811,
      "পাক্ষিক": 7812,
      "কৃত্রিম": 7813,
      "Kh": 7814,
      "Tim": 7815,
      "UN": 7816,
      "অডিও": 7817,
      "আক": 7818,
      "আওয়া": 7819,
      "চেন্": 7820,
      "নষ্ট": 7821,
      "ভন": 7822,
      "শরী": 7823,
      "হঠা": 7824,
      "১লা": 7825,
      "৩টি": 7826,
      "৯৮": 7827,
      "একসময়": 7828,
      "কাস্ট": 7829,
      "লিস": 7830,
      "১৯২৯": 7831,
      "পরিশোধ": 7832,
      "দিব": 7833,
      "মেশন": 7834,
      "হাদি": 7835,
      "টেজ": 7836,
      "টেক্": 7837,
      "দুধ": 7838,
      "দুবাই": 7839,
      "মনস্তা": 7840,
      "পিরা": 7841,
      "মার্টিন": 7842,
      "গোলিক": 7843,
      "শুনা": 7844,
      "ঘটতে": 7845,
      "যেমনঃ": 7846,
      "ধর্মনিরপেক্ষ": 7847,
      "সাংহাই": 7848,
      "চলেছে": 7849,
      "জাহাজে": 7850,
      "সঙ্গত": 7851,
      "আত্মীয়": 7852,
      "প্রোটো": 7853,
      "ভাইয়ের": 7854,
      "নির্দেশিকা": 7855,
      "নাল্ড": 7856,
      "লিখতে": 7857,
      "কোরিয়ান": 7858,
      "প্রশিক্ষণের": 7859,
      "খুঁত": 7860,
      "শ্রেণীবদ্ধ": 7861,
      "ঘন্টার": 7862,
      "মূর্ত": 7863,
      "অ্যানি": 7864,
      "পরিস্থিতিতে": 7865,
      "মিশরে": 7866,
      "শয়তান": 7867,
      "সঙ্গীতের": 7868,
      "জঙ্গি": 7869,
      "সংসদে": 7870,
      "তৈরিতে": 7871,
      "্বাধীন": 7872,
      "ওডিআই": 7873,
      "চ্ছুক": 7874,
      "Bangladesh": 7875,
      "AS": 7876,
      "Res": 7877,
      "ib": 7878,
      "ook": 7879,
      "অসম": 7880,
      "অ্যার": 7881,
      "কুন": 7882,
      "কফি": 7883,
      "ঢে": 7884,
      "দফ": 7885,
      "ভ্যান": 7886,
      "হান্": 7887,
      "াক্ত": 7888,
      "াতের": 7889,
      "্টার": 7890,
      "৮টি": 7891,
      "করের": 7892,
      "প্রদর্শনের": 7893,
      "বিদের": 7894,
      "নাও": 7895,
      "নামি": 7896,
      "সেসময়": 7897,
      "কাপড়": 7898,
      "সিটিতে": 7899,
      "ডির": 7900,
      "ডিসি": 7901,
      "ধারী": 7902,
      "সরানো": 7903,
      "পেশ": 7904,
      "ব্র্যান্ড": 7905,
      "উপদেশ": 7906,
      "ক্ষেপের": 7907,
      "অভিবাসীদের": 7908,
      "বিদ্যার": 7909,
      "ভূষিত": 7910,
      "আইটি": 7911,
      "শুষ্ক": 7912,
      "মালার": 7913,
      "সীম": 7914,
      "দেখার": 7915,
      "ন্যস্ত": 7916,
      "নির্মাণে": 7917,
      "নীতিমালা": 7918,
      "সাহায্যের": 7919,
      "কোম্পানিটি": 7920,
      "টুকু": 7921,
      "হ্‌": 7922,
      "সমূহকে": 7923,
      "গারের": 7924,
      "প্রতিষ্ঠানটি": 7925,
      "ব্রাউন": 7926,
      "ঙ্কিত": 7927,
      "সমুদ্রের": 7928,
      "গায়ক": 7929,
      "কমিশনার": 7930,
      "ভৌগোলিক": 7931,
      "ফার্সি": 7932,
      "শিরোপা": 7933,
      "গেমসের": 7934,
      "মিশ্রণ": 7935,
      "এডওয়ার্ড": 7936,
      "ট্র্যাক": 7937,
      "মেরামত": 7938,
      "বিস্ফোরণ": 7939,
      "অভিযানে": 7940,
      "জেনেটিক": 7941,
      "সার্বভৌম": 7942,
      "ইলেক্ট্র": 7943,
      "স্যামসাং": 7944,
      "অবলম্বন": 7945,
      "পদাতিক": 7946,
      "শৃঙ্খলা": 7947,
      "সার্বভৌমত্ব": 7948,
      "Ab": 7949,
      "আপেক্ষ": 7950,
      "গমন": 7951,
      "জং": 7952,
      "ঠিকভাবে": 7953,
      "ডীয়": 7954,
      "তানের": 7955,
      "রেন": 7956,
      "৫৪": 7957,
      "৮১": 7958,
      "টিম": 7959,
      "একদিনের": 7960,
      "ন্ধে": 7961,
      "হয়ত": 7962,
      "ভাবা": 7963,
      "লিপ": 7964,
      "ড়ানো": 7965,
      "যেগুলি": 7966,
      "সংবেদন": 7967,
      "হিব্রু": 7968,
      "১৯১২": 7969,
      "বারবার": 7970,
      "ডিম": 7971,
      "হার্য": 7972,
      "দাঙ্গা": 7973,
      "রুম": 7974,
      "পিংক": 7975,
      "জ্জনক": 7976,
      "বোলার": 7977,
      "কলার": 7978,
      "কাজটি": 7979,
      "পূর্ণাঙ্গ": 7980,
      "তোমরা": 7981,
      "ক্যামের": 7982,
      "এটাকে": 7983,
      "নিয়ন্ত্রন": 7984,
      "স্টিং": 7985,
      "কৃষক": 7986,
      "ডোমেইন": 7987,
      "ash": 7988,
      "অধিবাসী": 7989,
      "মুদ্রণ": 7990,
      "গতিশীল": 7991,
      "আদম": 7992,
      "সেনাবাহিনীতে": 7993,
      "ঘুরে": 7994,
      "মুদ্রাস্ফ": 7995,
      "ক্রুসে": 7996,
      "জৈব": 7997,
      "সহিংসতার": 7998,
      "তুলনামূলকভাবে": 7999,
      "দ্বীপপুঞ্জ": 8000,
      "ত্রাণ": 8001,
      "International": 8002,
      "যৌক্তিক": 8003,
      "Be": 8004,
      "Cric": 8005,
      "IN": 8006,
      "ks": 8007,
      "mon": 8008,
      "َّ": 8009,
      "আঘা": 8010,
      "থিত": 8011,
      "যানের": 8012,
      "সকলে": 8013,
      "সঠিকভাবে": 8014,
      "হ্যার": 8015,
      "োন": 8016,
      "প্রজন্ম": 8017,
      "নিবে": 8018,
      "নিখুঁত": 8019,
      "একদল": 8020,
      "সেঞ্চ": 8021,
      "কাই": 8022,
      "দেবার": 8023,
      "ভাঙ": 8024,
      "নেতারা": 8025,
      "১৯২১": 8026,
      "সিআর": 8027,
      "মেমো": 8028,
      "মেজর": 8029,
      "মেট্রিক": 8030,
      "অবসান": 8031,
      "প্রথমটি": 8032,
      "ইনো": 8033,
      "গুলোয়": 8034,
      "বলশে": 8035,
      "ব্ধ": 8036,
      "চারজন": 8037,
      "আইফোন": 8038,
      "আইসিসি": 8039,
      "বর্জ্য": 8040,
      "োরের": 8041,
      "কর্মীরা": 8042,
      "পোষক": 8043,
      "মাধ্যমের": 8044,
      "গ্রহণযোগ্য": 8045,
      "ভুটান": 8046,
      "হেড": 8047,
      "পালা": 8048,
      "ধাপে": 8049,
      "ধাতু": 8050,
      "ভবনে": 8051,
      "গানটি": 8052,
      "আগমনের": 8053,
      "পাঠান": 8054,
      "উপাধি": 8055,
      "ঐতিহ্যের": 8056,
      "নেতৃত্বাধীন": 8057,
      "ফিলিপাইন": 8058,
      "কানাডায়": 8059,
      "বিজ্ঞপ্তি": 8060,
      "টেস্টের": 8061,
      "ফলাফলের": 8062,
      "উৎসবে": 8063,
      "2013": 8064,
      "ইরানে": 8065,
      "মসজিদের": 8066,
      "চাইতে": 8067,
      "বিনিয়োগের": 8068,
      "সমন্বয়ে": 8069,
      "গ্রীষ্মে": 8070,
      "গর্ভপাত": 8071,
      "ইন্সটি": 8072,
      "এন্টার": 8073,
      "আব্বাস": 8074,
      "শৈশব": 8075,
      "পুনরাবৃত্তি": 8076,
      "ঘোষনা": 8077,
      "কার্যালয়": 8078,
      "সাপ্তাহিক": 8079,
      "চেন্নাই": 8080,
      "Or": 8081,
      "Te": 8082,
      "WW": 8083,
      "au": 8084,
      "eal": 8085,
      "আজি": 8086,
      "ঐক্য": 8087,
      "গীর": 8088,
      "টানা": 8089,
      "থ্র": 8090,
      "প্যানে": 8091,
      "বক্": 8092,
      "স্রা": 8093,
      "িয়েছে": 8094,
      "ুকে": 8095,
      "৯১": 8096,
      "বিগ": 8097,
      "নিদর্শন": 8098,
      "জন্": 8099,
      "দেহে": 8100,
      "ভাস্কর": 8101,
      "ড়ানোর": 8102,
      "রেফার": 8103,
      "১৯২৭": 8104,
      "ব্যবসার": 8105,
      "রিয়ান": 8106,
      "সুইস": 8107,
      "ংশের": 8108,
      "জীবা": 8109,
      "গঠনে": 8110,
      "বাংলায়": 8111,
      "বাংলাদেশি": 8112,
      "পূর্বপুরুষ": 8113,
      "ater": 8114,
      "আন্তর্জাতিকভাবে": 8115,
      "এমপি": 8116,
      "আইনী": 8117,
      "লুইস": 8118,
      "মন্ত্রীর": 8119,
      "সর্ববৃহৎ": 8120,
      "ক্লাবে": 8121,
      "উপাস": 8122,
      "টুই": 8123,
      "ঘাতী": 8124,
      "স্টাইল": 8125,
      "ase": 8126,
      "ভোটার": 8127,
      "ট্রাম": 8128,
      "বিলম্বে": 8129,
      "চিকিৎসক": 8130,
      "সাবমেরিন": 8131,
      "দৃষ্টিকোণ": 8132,
      "সত্তা": 8133,
      "ভবিষ্যদ্": 8134,
      "অভ্যন্তরে": 8135,
      "আচরণের": 8136,
      "হার্ট": 8137,
      "ফেব্রুয়ারিতে": 8138,
      "পূজা": 8139,
      "ইয়েরে": 8140,
      "পশ্চিমবঙ্গ": 8141,
      "ইনিংস": 8142,
      "নিশ্চয়তা": 8143,
      "পাঞ্জাব": 8144,
      "উচ্চারণ": 8145,
      "আলেকজান্ডার": 8146,
      "হাইড্রোজেন": 8147,
      "তালিবান": 8148,
      "সম্মিলিত": 8149,
      "লেফটেন্যান্ট": 8150,
      "AT": 8151,
      "Col": 8152,
      "Hist": 8153,
      "ru": 8154,
      "অা": 8155,
      "অচেনা": 8156,
      "ওন": 8157,
      "খনিজ": 8158,
      "ঘটা": 8159,
      "ডম": 8160,
      "ধো": 8161,
      "নার্": 8162,
      "পপ": 8163,
      "ফয়": 8164,
      "ভ্রা": 8165,
      "লক": 8166,
      "সঙ্": 8167,
      "হট": 8168,
      "৭২": 8169,
      "​​": 8170,
      "প্রসার": 8171,
      "বিপদ": 8172,
      "স্টাই": 8173,
      "য়েজ": 8174,
      "সাহারা": 8175,
      "সমষ্টি": 8176,
      "সেসব": 8177,
      "লাভি": 8178,
      "কিম": 8179,
      "মান্ত": 8180,
      "সংকট": 8181,
      "পাচার": 8182,
      "মেঘ": 8183,
      "প্রতিবছর": 8184,
      "রোজ": 8185,
      "inal": 8186,
      "মোতা": 8187,
      "তুষ": 8188,
      "ঞ্চলের": 8189,
      "আইনে": 8190,
      "জীবের": 8191,
      "শুল্": 8192,
      "ভেতরে": 8193,
      "হুল": 8194,
      "লাইভ": 8195,
      "উদ্বাস্তু": 8196,
      "নিকটে": 8197,
      "eng": 8198,
      "তুলেন": 8199,
      "হত্যাকাণ্ড": 8200,
      "দৃষ্ট": 8201,
      "গারি": 8202,
      "ধ্বংসাব": 8203,
      "লোকজন": 8204,
      "নিয়াম": 8205,
      "ড্রে": 8206,
      "শতাংশের": 8207,
      "দিলেন": 8208,
      "যন্ত্রপাতি": 8209,
      "ভবিষ্যতের": 8210,
      "পৃষ্ঠপোষক": 8211,
      "ড্রাই": 8212,
      "মন্দিরটি": 8213,
      "পোর্টের": 8214,
      "পৌঁছায়": 8215,
      "সম্পত্তির": 8216,
      "থাইল্যান্ড": 8217,
      "ক্লিনিক": 8218,
      "দিল্লির": 8219,
      "আব্দুল": 8220,
      "সিঙ্গাপুরের": 8221,
      "অন্ধকার": 8222,
      "বন্ধুত্বপূর্ণ": 8223,
      "রেস্টুর": 8224,
      "ব্রিগেড": 8225,
      "বেশীরভাগ": 8226,
      "আপেক্ষিক": 8227,
      "Mus": 8228,
      "af": 8229,
      "win": 8230,
      "অদৃশ্য": 8231,
      "আত": 8232,
      "কিক": 8233,
      "খুন": 8234,
      "ঘূর্ণ": 8235,
      "চৈ": 8236,
      "থমাস": 8237,
      "ফারা": 8238,
      "বদল": 8239,
      "যত্ন": 8240,
      "হতি": 8241,
      "৫ম": 8242,
      "বাঁচ": 8243,
      "পরো": 8244,
      "সমঝো": 8245,
      "নাহ": 8246,
      "ক্ষরিক": 8247,
      "১৯২৪": 8248,
      "মিমি": 8249,
      "হাট": 8250,
      "হাস্য": 8251,
      "কোথা": 8252,
      "ডিট": 8253,
      "সবার্": 8254,
      "কুর্": 8255,
      "শ্রো": 8256,
      "মতবাদ": 8257,
      "পুট": 8258,
      "বৃক্ষ": 8259,
      "স্পর্শ": 8260,
      "তীর্থ": 8261,
      "কনফার": 8262,
      "কখনই": 8263,
      "জার্মানিতে": 8264,
      "সংস্থাটি": 8265,
      "সিদ্ধান্তে": 8266,
      "দৈত্য": 8267,
      "নাগরিকত্ব": 8268,
      "প্রদর্শনীর": 8269,
      "কার্ল": 8270,
      "জরুরি": 8271,
      "irst": 8272,
      "ult": 8273,
      "জিতেছে": 8274,
      "ড্রাইভ": 8275,
      "প্রশ্নের": 8276,
      "অতএব": 8277,
      "জিয়াম": 8278,
      "মেন্টে": 8279,
      "কর্মসূচী": 8280,
      "সমিতি": 8281,
      "সম্বন্ধে": 8282,
      "কোয়ান্টা": 8283,
      "জর্ডান": 8284,
      "প্রচেষ্টার": 8285,
      "মুহূর্ত": 8286,
      "মানুসারে": 8287,
      "অপরিহার্য": 8288,
      "খলিফা": 8289,
      "13": 8290,
      "IR": 8291,
      "ST": 8292,
      "les": 8293,
      "uk": 8294,
      "এগুলোর": 8295,
      "চরা": 8296,
      "জানের": 8297,
      "মঙ্গল": 8298,
      "র্য": 8299,
      "লর": 8300,
      "৯২": 8301,
      "৯৭": 8302,
      "‍্য": 8303,
      "য়ু": 8304,
      "য়ানের": 8305,
      "টিকা": 8306,
      "তামা": 8307,
      "সাড়া": 8308,
      "১৯১৫": 8309,
      "১৯১১": 8310,
      "১৯২৫": 8311,
      "পরিনত": 8312,
      "দিয়া": 8313,
      "বরফ": 8314,
      "েন্সে": 8315,
      "অনুচ্ছেদ": 8316,
      "রোয়া": 8317,
      "ক্তির": 8318,
      "গুলিও": 8319,
      "ারাভি": 8320,
      "আইডি": 8321,
      "কর্মজীবনের": 8322,
      "পোলি": 8323,
      "ফেসব": 8324,
      "নিয়েছেন": 8325,
      "মারিয়া": 8326,
      "চিঠ": 8327,
      "চিপ": 8328,
      "দলগুলোর": 8329,
      "মিলিয়নের": 8330,
      "উদ্ভব": 8331,
      "ates": 8332,
      "বন্ধন": 8333,
      "দশম": 8334,
      "কৃতিত্ব": 8335,
      "স্ত্রীর": 8336,
      "ism": 8337,
      "পার্কের": 8338,
      "আগমন": 8339,
      "পতিত": 8340,
      "ভিয়েতনামের": 8341,
      "কয়েকবার": 8342,
      "প্রোগ্রামের": 8343,
      "লিয়াস": 8344,
      "রেকর্ডিং": 8345,
      "সিদ্ধান্তের": 8346,
      "দীর্ঘমেয়াদী": 8347,
      "ভোটে": 8348,
      "oll": 8349,
      "জাহাজটি": 8350,
      "প্রত্যাবর্তন": 8351,
      "সহযোগিতায়": 8352,
      "গল্পের": 8353,
      "হ্যাম": 8354,
      "অলিম্পিকের": 8355,
      "বোর্ডের": 8356,
      "কন্ট্রো": 8357,
      "প্রযোজনা": 8358,
      "ব্রিটেনে": 8359,
      "হুমকির": 8360,
      "শীতকালে": 8361,
      "জ্যোতিষ": 8362,
      "ধূম": 8363,
      "শ্রীলঙ্কার": 8364,
      "মধ্যপ্রাচ্য": 8365,
      "খোঁজ": 8366,
      "হার্ডওয়্যার": 8367,
      "মহিলার": 8368,
      "ঘাটতি": 8369,
      "দিল্লিতে": 8370,
      "নিউইয়র্ক": 8371,
      "নন্দিন": 8372,
      "বিপজ্জনক": 8373,
      "ইউক্রেন": 8374,
      "আত্মসমর্পণ": 8375,
      "সমান্তরাল": 8376,
      "হঠাৎ": 8377,
      "মোতাবেক": 8378,
      "Joh": 8379,
      "Sy": 8380,
      "from": 8381,
      "hy": 8382,
      "ver": 8383,
      "অবিলম্বে": 8384,
      "আস্ত": 8385,
      "আক্ষরিক": 8386,
      "ঘৃ": 8387,
      "পলস": 8388,
      "য্য": 8389,
      "িও": 8390,
      "্ক": 8391,
      "্টিক": 8392,
      "প্রভ": 8393,
      "লেশন": 8394,
      "গুড": 8395,
      "মেশি": 8396,
      "কোথায়": 8397,
      "ডিশ": 8398,
      "সুস্পষ্ট": 8399,
      "স্টল": 8400,
      "সম্পাদন": 8401,
      "বন্দি": 8402,
      "কুয়েত": 8403,
      "আইপ্যা": 8404,
      "বর্ষণ": 8405,
      "one": 8406,
      "ভেবে": 8407,
      "স্টেশনে": 8408,
      "করণে": 8409,
      "নিয়ন্ত্রক": 8410,
      "সর্বদা": 8411,
      "অক্সি": 8412,
      "ক্লাসিক": 8413,
      "জোন": 8414,
      "মুসলিমরা": 8415,
      "lect": 8416,
      "ফ্লা": 8417,
      "আক্রমণে": 8418,
      "টার্স": 8419,
      "কর্নেল": 8420,
      "ট্রাই": 8421,
      "ফরাসী": 8422,
      "স্থায়ীভাবে": 8423,
      "স্বাস্থ্যসেবা": 8424,
      "সিংহাস": 8425,
      "হাউজ": 8426,
      "উত্থান": 8427,
      "সাক্ষাত": 8428,
      "প্রচারাভি": 8429,
      "ক্যাম্পা": 8430,
      "গাছের": 8431,
      "ফেডারেশনের": 8432,
      "ফ্রাঙ্": 8433,
      "phy": 8434,
      "ধূসর": 8435,
      "অটোমান": 8436,
      "গবেষকরা": 8437,
      "গির্জার": 8438,
      "ভিক্ষু": 8439,
      "পুনরুজ্": 8440,
      "গ্লোবাল": 8441,
      "বিস্ময়": 8442,
      "কেপলার": 8443,
      "তাজিকি": 8444,
      "কমনওয়েল": 8445,
      "ইঞ্চি": 8446,
      "হেলিকপ্টার": 8447,
      "শ্রদ্ধা": 8448,
      "Me": 8449,
      "Mal": 8450,
      "Se": 8451,
      "ওল্ড": 8452,
      "কলো": 8453,
      "ক্যের": 8454,
      "গঞ্জ": 8455,
      "থেরা": 8456,
      "মহারা": 8457,
      "রকেট": 8458,
      "সক্ষমতা": 8459,
      "৫২": 8460,
      "৬২": 8461,
      "করব": 8462,
      "বিউ": 8463,
      "মাটিতে": 8464,
      "মাথার": 8465,
      "কাটিয়ে": 8466,
      "ব্যথা": 8467,
      "পাক": 8468,
      "১৯২৮": 8469,
      "মিশি": 8470,
      "পরিপূর্ণ": 8471,
      "ধ্যায়": 8472,
      "টেবিল": 8473,
      "ত্রিশ": 8474,
      "লোগো": 8475,
      "রিপাবল": 8476,
      "্ডা": 8477,
      "দেশগুলো": 8478,
      "মুন": 8479,
      "ষ্ঠিত": 8480,
      "অনুদান": 8481,
      "অনুপ্রেরণা": 8482,
      "সুফ": 8483,
      "সময়কাল": 8484,
      "উপসাগরীয়": 8485,
      "বছরগুলোতে": 8486,
      "সামগ্রী": 8487,
      "প্তরিক": 8488,
      "মাত্রিক": 8489,
      "পুটি": 8490,
      "প্রতিষ্ঠানে": 8491,
      "পোল": 8492,
      "ওয়েন": 8493,
      "কমপ্লে": 8494,
      "সমাবেশ": 8495,
      "ম্যানু": 8496,
      "মহাবিশ্ব": 8497,
      "সম্প্রসারণের": 8498,
      "তাইওয়": 8499,
      "দুর্ঘটনার": 8500,
      "গরম": 8501,
      "পড়েছে": 8502,
      "সহায়তার": 8503,
      "টেলিফোন": 8504,
      "গৃহযুদ্ধের": 8505,
      "ক্ষতিকর": 8506,
      "পাকিস্তানী": 8507,
      "দৈনন্দিন": 8508,
      "ays": 8509,
      "প্রিমিয়ার": 8510,
      "নাটকে": 8511,
      "নাটকীয়": 8512,
      "বন্ধুদের": 8513,
      "বিক্রির": 8514,
      "ign": 8515,
      "চোখের": 8516,
      "গোপনীয়": 8517,
      "ফেলতে": 8518,
      "মিলিটারি": 8519,
      "জৈন": 8520,
      "জৈবিক": 8521,
      "মালয়েশিয়ার": 8522,
      "বুলগের": 8523,
      "ব্যাটম্যানের": 8524,
      "দোষী": 8525,
      "উপত্যকা": 8526,
      "প্রচেষ্টায়": 8527,
      "দারিদ্র্য": 8528,
      "ভুটানের": 8529,
      "ভিক্টোরিয়া": 8530,
      "ফিলিস্তিনের": 8531,
      "ফিলিপাইনের": 8532,
      "উপার্জন": 8533,
      "মস্তিষ্কের": 8534,
      "ট্রানজি": 8535,
      "সেঞ্চুরি": 8536,
      "Ac": 8537,
      "Aust": 8538,
      "CH": 8539,
      "Gr": 8540,
      "co": 8541,
      "gen": 8542,
      "tr": 8543,
      "}}": 8544,
      "অস্থির": 8545,
      "আবে": 8546,
      "আগ্রা": 8547,
      "ঊন": 8548,
      "কণা": 8549,
      "চত্ব": 8550,
      "পিল": 8551,
      "ফন": 8552,
      "বহর": 8553,
      "মৎ": 8554,
      "সনে": 8555,
      "১২০": 8556,
      "বিচ্ছে": 8557,
      "নিও": 8558,
      "তাও": 8559,
      "ক্টের": 8560,
      "তারপরে": 8561,
      "স্থপতি": 8562,
      "সিও": 8563,
      "স্তির": 8564,
      "হাঙ্গের": 8565,
      "টেম্প": 8566,
      "শিমা": 8567,
      "শিয়াল": 8568,
      "ডিন": 8569,
      "ডিস্ক": 8570,
      "জিবি": 8571,
      "জিয়ার": 8572,
      "অনুপাত": 8573,
      "দাপ্তরিক": 8574,
      "প্রথমবার": 8575,
      "সবকিছু": 8576,
      "ইউনে": 8577,
      "ডেট": 8578,
      "কালা": 8579,
      "বৃষ্টির": 8580,
      "বুদ": 8581,
      "শহরগুলির": 8582,
      "সদস্যপদ": 8583,
      "ক্যাম": 8584,
      "তখনই": 8585,
      "অন্তর্ভূক্ত": 8586,
      "লীগে": 8587,
      "বিজ্ঞানীদের": 8588,
      "তাইওয়ান": 8589,
      "পত্রের": 8590,
      "outh": 8591,
      "অধিকারের": 8592,
      "ইন্টারফেস": 8593,
      "অধিগ্রহণ": 8594,
      "আবারও": 8595,
      "খেলোয়াড়ের": 8596,
      "আটল": 8597,
      "বিচারের": 8598,
      "১৯০৮": 8599,
      "টেলিভিশনের": 8600,
      "ষিক্ত": 8601,
      "জমিদার": 8602,
      "মিনিটে": 8603,
      "সন্তানদের": 8604,
      "শিকাগোর": 8605,
      "ছেলেদের": 8606,
      "বহিঃ": 8607,
      "সৃজন": 8608,
      "ব্যয়বহুল": 8609,
      "মসজিদটি": 8610,
      "ক্রুশ": 8611,
      "আকর্ষণীয়": 8612,
      "মেডিক্যাল": 8613,
      "দৈর্ঘ্যের": 8614,
      "সংসদীয়": 8615,
      "ইচ্ছাকৃত": 8616,
      "গাড়ির": 8617,
      "আঁকা": 8618,
      "ফসল": 8619,
      "রিপোর্টে": 8620,
      "প্রকাশনার": 8621,
      "উত্থাপিত": 8622,
      "দম্পতি": 8623,
      "নির্বাসিত": 8624,
      "সৌন্দর্য": 8625,
      "অশ্বারো": 8626,
      "খসড়া": 8627,
      "ডেভেলপমেন্ট": 8628,
      "Par": 8629,
      "mar": 8630,
      "pp": 8631,
      "আগত": 8632,
      "উমিয়া": 8633,
      "এঞ্জে": 8634,
      "ঘল": 8635,
      "ড্যান": 8636,
      "ডক্স": 8637,
      "ডার্ক": 8638,
      "দকে": 8639,
      "বুর": 8640,
      "ষা": 8641,
      "সান্ত": 8642,
      "হকি": 8643,
      "৫৮": 8644,
      "৭৭": 8645,
      "৯০০": 8646,
      "‌স": 8647,
      "িকের": 8648,
      "নিপী": 8649,
      "স্ক্র": 8650,
      "একমত": 8651,
      "একদিন": 8652,
      "রাণী": 8653,
      "সেতুর": 8654,
      "মিট": 8655,
      "মেট্র": 8656,
      "গ্রিন": 8657,
      "শিবি": 8658,
      "জেলে": 8659,
      "ব্যবহারে": 8660,
      "বলার": 8661,
      "বলের": 8662,
      "উপস্থাপ": 8663,
      "ছুটির": 8664,
      "মোহন": 8665,
      "ানির": 8666,
      "ভূখণ্ড": 8667,
      "অংশটি": 8668,
      "আইস": 8669,
      "চাম": 8670,
      "ভেতর": 8671,
      "দেয়াল": 8672,
      "ঞ্জার": 8673,
      "স্বত্ত": 8674,
      "ষ্টিত": 8675,
      "রাজতন্ত্র": 8676,
      "ক্ষেত্রেও": 8677,
      "কার্যকারিতা": 8678,
      "আর্টি": 8679,
      "ইউরোপিয়ান": 8680,
      "আইনগত": 8681,
      "কনভেন": 8682,
      "শ্যক": 8683,
      "196": 8684,
      "রেকর্ডের": 8685,
      "কর্ষ": 8686,
      "মৃত্যুদণ্ড": 8687,
      "ান্ডা": 8688,
      "ivers": 8689,
      "2015": 8690,
      "নেটওয়ার্কের": 8691,
      "ব্যান্ডের": 8692,
      "উঠতে": 8693,
      "স্ট্রিট": 8694,
      "ওয়েস্টার্ন": 8695,
      "চ্যাম্পিয়নশি": 8696,
      "নবম": 8697,
      "অর্ধেকের": 8698,
      "তিব্বত": 8699,
      "পূর্বাঞ্চলীয়": 8700,
      "স্কাউট": 8701,
      "রকমের": 8702,
      "শরণার্থ": 8703,
      "সাধারনত": 8704,
      "বৈঠক": 8705,
      "টুর্নামেন্ট": 8706,
      "ব্রোঞ্জ": 8707,
      "স্ট্যান্ডার্ড": 8708,
      "view": 8709,
      "অষ্টম": 8710,
      "শাসনামলে": 8711,
      "সুন্নি": 8712,
      ");": 8713,
      "Cl": 8714,
      "Off": 8715,
      "US": 8716,
      "ces": 8717,
      "sy": 8718,
      "yle": 8719,
      "অমর": 8720,
      "অজ্ঞাত": 8721,
      "আদান": 8722,
      "এপি": 8723,
      "ঘূর্": 8724,
      "ঘড়ি": 8725,
      "ঘরোয়া": 8726,
      "ডর": 8727,
      "ণ্য": 8728,
      "থন": 8729,
      "নজ": 8730,
      "পস": 8731,
      "ফোর": 8732,
      "মজু": 8733,
      "শ্যাল": 8734,
      "৬টি": 8735,
      "৭৩": 8736,
      "প্রসঙ্গে": 8737,
      "প্রশিক্ষিত": 8738,
      "বিবি": 8739,
      "বিত্ত": 8740,
      "বিগত": 8741,
      "বেলায়": 8742,
      "তেলের": 8743,
      "ক্লে": 8744,
      "সমতা": 8745,
      "লাখ": 8746,
      "লিভ": 8747,
      "লিভার": 8748,
      "কিছুর": 8749,
      "রেই": 8750,
      "ব্যুর": 8751,
      "১৯১৩": 8752,
      "যাদেরকে": 8753,
      "জাগর": 8754,
      "হাওয়াই": 8755,
      "ডিএম": 8756,
      "দেশগুলিতে": 8757,
      "চেটিয়া": 8758,
      "ছাপা": 8759,
      "বীজ": 8760,
      "সম্মুখে": 8761,
      "সহজল": 8762,
      "সহকর্মী": 8763,
      "ফিনি": 8764,
      "ans": 8765,
      "গাজা": 8766,
      "শুনে": 8767,
      "ফেলার": 8768,
      "চেয়েছিল": 8769,
      "নয়টি": 8770,
      "সোল": 8771,
      "দ্বিপাক্ষিক": 8772,
      "দক্ষতার": 8773,
      "হোস্ট": 8774,
      "ধর্মী": 8775,
      "মাঝারি": 8776,
      "নিউক্লি": 8777,
      "মহাদেশীয়": 8778,
      "বিশ্বাসী": 8779,
      "ক্রিকেটের": 8780,
      "চার্জ": 8781,
      "১৯৩৮": 8782,
      "রানী": 8783,
      "ইয়র্কের": 8784,
      "খেলোয়াড়ী": 8785,
      "ক্ষতিগ্রস্থ": 8786,
      "খুঁজ": 8787,
      "ঢাকার": 8788,
      "আবদুল": 8789,
      "ঘনত্ব": 8790,
      "ডুবে": 8791,
      "নেতৃত্বের": 8792,
      "কথিত": 8793,
      "সম্মেলনের": 8794,
      "প্রণো": 8795,
      "এভাবেই": 8796,
      "অপরকে": 8797,
      "স্টেডিয়ামে": 8798,
      "শ্বাস": 8799,
      "ব্যাকটের": 8800,
      "অনুপস্থিত": 8801,
      "মায়ানমারের": 8802,
      "উইকিপিডিয়া": 8803,
      "কার্বন": 8804,
      "উত্তেজনা": 8805,
      "পাণ্ডুলিপি": 8806,
      "রেনেসাঁ": 8807,
      "কোয়ান্টাম": 8808,
      "John": 8809,
      "ঊনবিংশ": 8810,
      "সহজলভ্য": 8811,
      "Af": 8812,
      "Cent": 8813,
      "আভি": 8814,
      "ইয়ান": 8815,
      "ইয়ো": 8816,
      "উরু": 8817,
      "এথ": 8818,
      "ওরা": 8819,
      "খি": 8820,
      "ছদ্ম": 8821,
      "টকে": 8822,
      "টমাস": 8823,
      "তলায়": 8824,
      "েও": 8825,
      "৫টি": 8826,
      "্রী": 8827,
      "করানো": 8828,
      "টিটি": 8829,
      "প্রত্ন": 8830,
      "স্‌": 8831,
      "বাষ্": 8832,
      "কেনিয়া": 8833,
      "তাবাদী": 8834,
      "রাশিয়ায়": 8835,
      "নাস্ত": 8836,
      "মাং": 8837,
      "ব্যার": 8838,
      "মিজ": 8839,
      "মেসো": 8840,
      "গ্রীন": 8841,
      "লোকদের": 8842,
      "রিও": 8843,
      "থাম": 8844,
      "সময়ই": 8845,
      "খাবারের": 8846,
      "মোটা": 8847,
      "চালক": 8848,
      "ছাপ": 8849,
      "কুয়া": 8850,
      "গ্রামাঞ্চ": 8851,
      "কর্তার": 8852,
      "বুর্": 8853,
      "মিলিয়ে": 8854,
      "সেনারা": 8855,
      "চলচ্চিত্রটির": 8856,
      "থাকতেন": 8857,
      "আলজের": 8858,
      "ফোর্ট": 8859,
      "সেইসাথে": 8860,
      "আমির": 8861,
      "বাড়তে": 8862,
      "শ্রেণি": 8863,
      "কনস্ট": 8864,
      "জেনারে": 8865,
      "১২টি": 8866,
      "ঘটনাটি": 8867,
      "উপাত্ত": 8868,
      "কায়রো": 8869,
      "সেখানেই": 8870,
      "একেবারে": 8871,
      "সিস্টেমে": 8872,
      "হাইওয়ে": 8873,
      "রেখেছিলেন": 8874,
      "নকশার": 8875,
      "কানাডীয়": 8876,
      "কবিতার": 8877,
      "ফরম্যা": 8878,
      "বামপন্থী": 8879,
      "ইভেন্ট": 8880,
      "সাক্ষাত্": 8881,
      "চোরা": 8882,
      "ক্যাম্পে": 8883,
      "বক্তা": 8884,
      "পতাকার": 8885,
      "কোম্পানীর": 8886,
      "ডায়া": 8887,
      "ship": 8888,
      "টেকনো": 8889,
      "And": 8890,
      "পরিবহণ": 8891,
      "বিলুপ্তির": 8892,
      "পেরেছিলেন": 8893,
      "ঘনিষ্ঠভাবে": 8894,
      "ডিভিশন": 8895,
      "কমাতে": 8896,
      "এয়ারলাইন্স": 8897,
      "মনস্তাত্ত্বিক": 8898,
      "আদমশু": 8899,
      "তুষার": 8900,
      "শুল্ক": 8901,
      "কোথাও": 8902,
      "%,": 8903,
      "AR": 8904,
      "Em": 8905,
      "Man": 8906,
      "fl": 8907,
      "hi": 8908,
      "আচ্ছা": 8909,
      "পানা": 8910,
      "ভেনে": 8911,
      "যান্ত্রিক": 8912,
      "রব": 8913,
      "হক": 8914,
      "ীর্ণ": 8915,
      "োস": 8916,
      "২00": 8917,
      "৭টি": 8918,
      "’।": 8919,
      "্যক্ত": 8920,
      "প্রমান": 8921,
      "বিপণ": 8922,
      "বিজয়ের": 8923,
      "বাজ": 8924,
      "বেথ": 8925,
      "বেলার": 8926,
      "নাক": 8927,
      "লিপ্ত": 8928,
      "গুয়া": 8929,
      "মিউনি": 8930,
      "ভিং": 8931,
      "লোর": 8932,
      "ট্রফি": 8933,
      "প্রতিহত": 8934,
      "ডিউ": 8935,
      "ঙ্কর": 8936,
      "ঙ্কা": 8937,
      "হারান": 8938,
      "অনুষ": 8939,
      "ধারন": 8940,
      "খেতে": 8941,
      "ব্যবহারকারীর": 8942,
      "ওয়াটার": 8943,
      "ক্ষেপে": 8944,
      "চালাতে": 8945,
      "ঞ্চলে": 8946,
      "কলম্বিয়া": 8947,
      "কুইন্স": 8948,
      "বেশকিছু": 8949,
      "জুয়ে": 8950,
      "ডাব্লিউ": 8951,
      "বন্যার": 8952,
      "তালিকার": 8953,
      "গণপ্রজাতন্ত্রী": 8954,
      "ফাস্ট": 8955,
      "অ্যাক্ট": 8956,
      "স্ট্রা": 8957,
      "দক্ষিণা": 8958,
      "সাইপ্রা": 8959,
      "এমনভাবে": 8960,
      "আধিকার": 8961,
      "মহাদেশের": 8962,
      "আগ্": 8963,
      "আসবে": 8964,
      "প্রেমের": 8965,
      "off": 8966,
      "সিরিয়ায়": 8967,
      "পত্রিকায়": 8968,
      "মরক্": 8969,
      "ইয়ু": 8970,
      "প্রচারের": 8971,
      "এইচডি": 8972,
      "ইতিহাসবিদ": 8973,
      "গৃহযুদ্ধ": 8974,
      "রোগে": 8975,
      "কাঠামোগ": 8976,
      "বসবাসকারী": 8977,
      "নির্মাতা": 8978,
      "সহযোগিতার": 8979,
      "কানাডিয়ান": 8980,
      "অপহরণ": 8981,
      "2016": 8982,
      "ক্রেডিট": 8983,
      "ড্রাগন": 8984,
      "সম্ভাব্যতা": 8985,
      "নেপালে": 8986,
      "কোর্টের": 8987,
      "শীতল": 8988,
      "হংকংয়ের": 8989,
      "যোদ্ধারা": 8990,
      "এতটাই": 8991,
      "পৌঁছানোর": 8992,
      "বংশধর": 8993,
      "উৎসবের": 8994,
      "অভাবের": 8995,
      "লাওস": 8996,
      "জনগণকে": 8997,
      "উত্পাদিত": 8998,
      "চক্রের": 8999,
      "মধ্যপ্রাচ্যের": 9000,
      "ক্যালিফোর্নিয়ার": 9001,
      "পৌরসভা": 9002,
      "কাউকে": 9003,
      "কোয়ার্": 9004,
      "মজুরি": 9005,
      "পরিত্যক্ত": 9006,
      "ক্যারিয়ার": 9007,
      "পশ্চিমবঙ্গের": 9008,
      "সামঞ্জস্যপূর্ণ": 9009,
      "পৌছায়": 9010,
      "ক্রিপ্ট": 9011,
      "এখানকার": 9012,
      "নিক্ষেপ": 9013,
      "পঞ্চাশ": 9014,
      "সংবেদনশীল": 9015,
      "রেস্টুরেন্ট": 9016,
      "অক্সিজেন": 9017,
      "রিপাবলিকান": 9018,
      "Austral": 9019,
      "কাঠামোগত": 9020,
      "Act": 9021,
      "Tr": 9022,
      "cy": 9023,
      "ty": 9024,
      "অগ্রা": 9025,
      "অপের": 9026,
      "ইয়ার": 9027,
      "উপেক্ষা": 9028,
      "এজন্য": 9029,
      "গনের": 9030,
      "ডজন": 9031,
      "মৃ": 9032,
      "সঙ্ক": 9033,
      "৬১": 9034,
      "৮৩": 9035,
      "য়ার্স": 9036,
      "টিফ": 9037,
      "প্রবল": 9038,
      "প্রসব": 9039,
      "প্রফে": 9040,
      "প্রভু": 9041,
      "র্ন": 9042,
      "তাতার": 9043,
      "ক্সে": 9044,
      "সেগুলি": 9045,
      "ব্যাল": 9046,
      "পাচ্ছে": 9047,
      "১৯১৬": 9048,
      "১৯২৩": 9049,
      "মেনি": 9050,
      "জাহি": 9051,
      "শিব": 9052,
      "মধ্যম": 9053,
      "যোগদানের": 9054,
      "পিঙ্ক": 9055,
      "পিপলস": 9056,
      "ina": 9057,
      "চারী": 9058,
      "কর্মকান্ড": 9059,
      "এসসি": 9060,
      "চাচা": 9061,
      "ফেলেন": 9062,
      "অন্যটি": 9063,
      "বাহক": 9064,
      "তিনবার": 9065,
      "উন্মো": 9066,
      "চুয়াল": 9067,
      "বার্মা": 9068,
      "দক্ষিণের": 9069,
      "আইনটি": 9070,
      "উইক": 9071,
      "মন্ত্রি": 9072,
      "ত্যাগের": 9073,
      "পরিবারকে": 9074,
      "পাঠানোর": 9075,
      "মৌখিক": 9076,
      "গিটার": 9077,
      "দুর্ভিক্ষ": 9078,
      "style": 9079,
      "সিলি": 9080,
      "নাইজের": 9081,
      "ild": 9082,
      "ings": 9083,
      "পুনর্গঠন": 9084,
      "চ্যাপলি": 9085,
      "বৈশিষ্ট্যের": 9086,
      "সম্মানে": 9087,
      "টেলিভিশনে": 9088,
      "বহাল": 9089,
      "ement": 9090,
      "কমানোর": 9091,
      "ভবিষ্যত": 9092,
      "পদার্থের": 9093,
      "সীমান্তের": 9094,
      "কংগ্রেসে": 9095,
      "ইন্ডিজ": 9096,
      "মেট্রোপলি": 9097,
      "গ্নু": 9098,
      "বৈধতা": 9099,
      "ধ্বনি": 9100,
      "আকাঙ্": 9101,
      "সংসদের": 9102,
      "বিশ্বকাপে": 9103,
      "আর্জেন্টিনা": 9104,
      "আয়ারল্যান্ড": 9105,
      "সাক্ষ্য": 9106,
      "উজবে": 9107,
      "প্রজেক্ট": 9108,
      "সংকলন": 9109,
      "বাদামী": 9110,
      "Awards": 9111,
      "ভবিষ্যদ্বাণী": 9112,
      "100": 9113,
      "অস্পষ্ট": 9114,
      "কয়েন": 9115,
      "চলের": 9116,
      "টুন": 9117,
      "ধির": 9118,
      "মঞ্জ": 9119,
      "রন্": 9120,
      "ানার": 9121,
      "টিক্স": 9122,
      "একচেটিয়া": 9123,
      "তাব": 9124,
      "সাপে": 9125,
      "সাজানো": 9126,
      "নাৎ": 9127,
      "নামানুসারে": 9128,
      "লিবারে": 9129,
      "নেভি": 9130,
      "ড়ো": 9131,
      "পরিস্থিতির": 9132,
      "সিই": 9133,
      "অনূর্": 9134,
      "হাজির": 9135,
      "টেনিস": 9136,
      "ভিয়েন": 9137,
      "বারি": 9138,
      "জিম": 9139,
      "মুভি": 9140,
      "মুঘল": 9141,
      "অবধি": 9142,
      "জেড": 9143,
      "পিয়ার": 9144,
      "নীচের": 9145,
      "ইউরে": 9146,
      "উপস্থাপনা": 9147,
      "ঞ্চিত": 9148,
      "বাসস্থান": 9149,
      "কাল্প": 9150,
      "অনেকের": 9151,
      "জানেন": 9152,
      "গাওয়া": 9153,
      "অন্যরা": 9154,
      "মালি": 9155,
      "দলিল": 9156,
      "বাহ্য": 9157,
      "সদৃশ": 9158,
      "উন্ডের": 9159,
      "সংস্কৃত": 9160,
      "কেন্দ্রিক": 9161,
      "করেছিলো": 9162,
      "কারণেই": 9163,
      "উল্লেখ্য": 9164,
      "পরাজয়ের": 9165,
      "মহামার": 9166,
      "যৌগ": 9167,
      "সর্বত্র": 9168,
      "ছোট্ট": 9169,
      "সমর্থনে": 9170,
      "পরিবর্তনশীল": 9171,
      "দুর্নীতি": 9172,
      "স্টারের": 9173,
      "ফ্লাই": 9174,
      "বাস্তবে": 9175,
      "অধিবাসীরা": 9176,
      "ধ্বংসের": 9177,
      "দ্বীপটি": 9178,
      "সমালোচিত": 9179,
      "থাকাকালীন": 9180,
      "ছাত্রী": 9181,
      "আর্থার": 9182,
      "উদযা": 9183,
      "ইতালিতে": 9184,
      "চ্ছায়": 9185,
      "ঝুঁকির": 9186,
      "শ্রীলং": 9187,
      "ন্দাজ": 9188,
      "সমাধানের": 9189,
      "প্রতিরোধের": 9190,
      "ট্রান্সমি": 9191,
      "মেয়াদে": 9192,
      "কারাগারে": 9193,
      "অস্তিত্বের": 9194,
      "পূর্বাভাস": 9195,
      "oci": 9196,
      "পিছিয়ে": 9197,
      "মতাদর্শ": 9198,
      "স্থিতিশীলতা": 9199,
      "অনুসারী": 9200,
      "মহিলারা": 9201,
      "তাৎপর্য": 9202,
      "সুইডেনের": 9203,
      "মাদ্রিদ": 9204,
      "চট্টগ্রাম": 9205,
      "উত্তোলন": 9206,
      "ইন্সটিটিউট": 9207,
      "কুর্দি": 9208,
      "ঘূর্ণি": 9209,
      "Ass": 9210,
      "IP": 9211,
      "South": 9212,
      "ae": 9213,
      "bl": 9214,
      "my": 9215,
      "wor": 9216,
      "অন্": 9217,
      "অস্বীকৃতি": 9218,
      "উদ্বি": 9219,
      "গির": 9220,
      "থো": 9221,
      "থিক": 9222,
      "নথ": 9223,
      "নূ": 9224,
      "নশীল": 9225,
      "নগ্ন": 9226,
      "বতী": 9227,
      "মক্": 9228,
      "রিত": 9229,
      "ষ্য": 9230,
      "েড": 9231,
      "৩৫০": 9232,
      "৮৪": 9233,
      "ালার": 9234,
      "নিহিত": 9235,
      "স্নায়": 9236,
      "স্কেট": 9237,
      "বাহু": 9238,
      "পরপরই": 9239,
      "ায়ণ": 9240,
      "করেই": 9241,
      "দ্ভূত": 9242,
      "মাথায়": 9243,
      "সেটের": 9244,
      "লেই": 9245,
      "দেল": 9246,
      "লিয়ার": 9247,
      "য়াত": 9248,
      "তিনিও": 9249,
      "সিনিয়র": 9250,
      "হাতের": 9251,
      "রিয়ার": 9252,
      "প্রাধান": 9253,
      "মেরে": 9254,
      "ব্যাধি": 9255,
      "চালা": 9256,
      "জ্যে": 9257,
      "ডেপুটি": 9258,
      "ভূগোল": 9259,
      "চলার": 9260,
      "ank": 9261,
      "শুক্র": 9262,
      "ere": 9263,
      "শীর্ষে": 9264,
      "atch": 9265,
      "ওয়েলস": 9266,
      "হোসেন": 9267,
      "ling": 9268,
      "বয়স্": 9269,
      "দেখাতে": 9270,
      "ইল্ড": 9271,
      "ওয়ার্ক": 9272,
      "ition": 9273,
      "ret": 9274,
      "স্টিন": 9275,
      "সিলে": 9276,
      "মতোই": 9277,
      "edia": 9278,
      "হামলায়": 9279,
      "স্বরুপ": 9280,
      "194": 9281,
      "আন্দা": 9282,
      "লাইনটি": 9283,
      "মাইক": 9284,
      "রেকর্ডস": 9285,
      "নিয়োগের": 9286,
      "old": 9287,
      "রক্ষক": 9288,
      "ান্ডার": 9289,
      "মায়া": 9290,
      "শহী": 9291,
      "নির্ভরযোগ্য": 9292,
      "নাটকের": 9293,
      "অপরাধী": 9294,
      "বোঝাতে": 9295,
      "১৯০৪": 9296,
      "গ্যাসের": 9297,
      "খ্রিস্টপূর্বা": 9298,
      "form": 9299,
      "শ্রেণীতে": 9300,
      "ট্যাক্স": 9301,
      "পাইপ": 9302,
      "আনাতো": 9303,
      "পেশাদারী": 9304,
      "যুবক": 9305,
      "উপলক্ষে": 9306,
      "পরিমাপের": 9307,
      "উড়ো": 9308,
      "ave": 9309,
      "ট্র্যাফিক": 9310,
      "ব্যাংকিং": 9311,
      "ফাউন্ডেশনের": 9312,
      "ম্যাগাজিনের": 9313,
      "গ্যালার": 9314,
      "এলিজা": 9315,
      "স্মরণীয়": 9316,
      "Comm": 9317,
      "মেগাওয়াট": 9318,
      "চতুর্থা": 9319,
      "মেয়েরা": 9320,
      "আরোহণ": 9321,
      "মুহাম্মাদ": 9322,
      "England": 9323,
      "দিবসের": 9324,
      "প্যানেল": 9325,
      "ধ্বংসাবশেষ": 9326,
      "চ্যাপলিনের": 9327,
      "রন্ধন": 9328,
      "উদ্বিগ্ন": 9329,
      "'।": 9330,
      "On": 9331,
      "Rob": 9332,
      "SD": 9333,
      "ِي": 9334,
      "আল্": 9335,
      "উচিৎ": 9336,
      "কানের": 9337,
      "কটের": 9338,
      "গস": 9339,
      "টোর": 9340,
      "ট্যুর": 9341,
      "ঠান্ডা": 9342,
      "পশন": 9343,
      "বানা": 9344,
      "বণ্": 9345,
      "মিতে": 9346,
      "লব": 9347,
      "লিত": 9348,
      "সকাল": 9349,
      "১৩০": 9350,
      "৫৯": 9351,
      "৮২": 9352,
      "টিয়ার": 9353,
      "প্রবৃদ্ধি": 9354,
      "বাকু": 9355,
      "বংশো": 9356,
      "নাবিক": 9357,
      "দ্ভুত": 9358,
      "লেগে": 9359,
      "কারাদ": 9360,
      "ক্ষী": 9361,
      "হাসি": 9362,
      "ভিসা": 9363,
      "কোস্ট": 9364,
      "টাইল": 9365,
      "ট্রু": 9366,
      "জিম্বা": 9367,
      "হারানো": 9368,
      "রোমে": 9369,
      "পিয়া": 9370,
      "সবথেকে": 9371,
      "বীমা": 9372,
      "বিশ্বস্ত": 9373,
      "নাম্ব": 9374,
      "ম্বল": 9375,
      "কুইন": 9376,
      "শুভ": 9377,
      "পোলিশ": 9378,
      "বিষাক্ত": 9379,
      "ইন্ডা": 9380,
      "ডাম": 9381,
      "সোনার": 9382,
      "সোশ্যাল": 9383,
      "বুট": 9384,
      "লেখকদের": 9385,
      "org": 9386,
      "নোভা": 9387,
      "চুল": 9388,
      "রাজত্বের": 9389,
      "বার্লিন": 9390,
      "ক্যাফে": 9391,
      "লুকিয়ে": 9392,
      "থিম": 9393,
      "১৫ই": 9394,
      "আমিরাত": 9395,
      "ফিল্ডিং": 9396,
      "সর্বজনীন": 9397,
      "বছরেরও": 9398,
      "সেনাদের": 9399,
      "ome": 9400,
      "গ্ধ": 9401,
      "ভূমিকার": 9402,
      "বানান": 9403,
      "দীর্ঘস্থায়ী": 9404,
      "আক্রমণকারী": 9405,
      "ফেরার": 9406,
      "শৈলীর": 9407,
      "১৯০৩": 9408,
      "১৯০৫": 9409,
      "১৯০৬": 9410,
      "istan": 9411,
      "কূট": 9412,
      "জর্জিয়া": 9413,
      "পরিষদে": 9414,
      "চলাচলের": 9415,
      "উত্স": 9416,
      "বায়ুমণ্ড": 9417,
      "শিকাগোতে": 9418,
      "বহিরা": 9419,
      "পর্তুগ": 9420,
      "উঠেন": 9421,
      "কথায়": 9422,
      "গীর্": 9423,
      "ock": 9424,
      "ফিলিস্তিন": 9425,
      "আজারবাইজানের": 9426,
      "রান্নার": 9427,
      "উপকূলের": 9428,
      "অংশীদারিত্ব": 9429,
      "অ্যাসোসিয়ে": 9430,
      "সেখানকার": 9431,
      "স্বেচ্ছাসেবক": 9432,
      "জেরুজালেম": 9433,
      "ফ্ল্যাশ": 9434,
      "আশেপাশের": 9435,
      "ডেমোক্রে": 9436,
      "চিকিত": 9437,
      "মাওবাদী": 9438,
      "ইস্পাত": 9439,
      "ইব্রাহিম": 9440,
      "অবনতি": 9441,
      "প্যাকেজ": 9442,
      "ফৌজ": 9443,
      "সত্যিকারের": 9444,
      "প্রভৃতি": 9445,
      "নাস্তিক": 9446,
      "অগ্রাধিকার": 9447,
      "সাপেক্ষে": 9448,
      "অনূর্ধ্ব": 9449,
      "প্রাধান্য": 9450,
      "Air": 9451,
      "Bl": 9452,
      "Co": 9453,
      "We": 9454,
      "now": 9455,
      "অসীম": 9456,
      "ইস্যু": 9457,
      "উয়ে": 9458,
      "গিনি": 9459,
      "ডক": 9460,
      "ড্রি": 9461,
      "নৃ": 9462,
      "বদ": 9463,
      "বনের": 9464,
      "ষড়": 9465,
      "৪র্থ": 9466,
      "৮৯": 9467,
      "য়িং": 9468,
      "বিতা": 9469,
      "বিনা": 9470,
      "স্বর্গ": 9471,
      "বেশে": 9472,
      "বেঙ্গল": 9473,
      "ায়ক": 9474,
      "তেজ": 9475,
      "রাসের": 9476,
      "মিনার": 9477,
      "ুরির": 9478,
      "পরিপ্রেক্ষিতে": 9479,
      "প্রতিপক্ষ": 9480,
      "প্রতিশোধ": 9481,
      "ডিরে": 9482,
      "ডিএনএ": 9483,
      "ঙ্কার": 9484,
      "টারে": 9485,
      "গুলোও": 9486,
      "্যালি": 9487,
      "চ্ছিলেন": 9488,
      "তারাই": 9489,
      "স্থানটি": 9490,
      "স্বাগত": 9491,
      "বৃন্দ": 9492,
      "বর্ন": 9493,
      "এসকো": 9494,
      "চাক": 9495,
      "অন্যের": 9496,
      "তালে": 9497,
      "গণমাধ্যম": 9498,
      "বিকির": 9499,
      "ঘটান": 9500,
      "১০টি": 9501,
      "এমআই": 9502,
      "ict": 9503,
      "আনেন": 9504,
      "মহাসাগরীয়": 9505,
      "সর্বকালের": 9506,
      "ইসলামে": 9507,
      "পতিতা": 9508,
      "red": 9509,
      "কৃষ্": 9510,
      "পদ্ধতিটি": 9511,
      "আত্মপ্রকাশ": 9512,
      "সন্ধানে": 9513,
      "প্রাপ্তির": 9514,
      "মন্দ": 9515,
      "দীর্ঘতম": 9516,
      "টেলিযোগাযোগ": 9517,
      "দ্রুততম": 9518,
      "মুদ্রিত": 9519,
      "প্রত্যাশা": 9520,
      "খেলাধু": 9521,
      "দৃষ্টিতে": 9522,
      "গর্ভব": 9523,
      "ime": 9524,
      "সর্বাপেক্ষা": 9525,
      "চ্ছন্ন": 9526,
      "জোরদার": 9527,
      "সূত্রপাত": 9528,
      "বাঁধা": 9529,
      "জটিলতা": 9530,
      "সম্পাদনা": 9531,
      "গ্রন্থের": 9532,
      "গারেট": 9533,
      "ইনস্টিটিউ": 9534,
      "সোসাইটির": 9535,
      "ound": 9536,
      "ব্রাজিলের": 9537,
      "বেকারত্ব": 9538,
      "কপিরাইট": 9539,
      "হিউম্যান": 9540,
      "অতীতের": 9541,
      "সংঘর্ষের": 9542,
      "দৌড়": 9543,
      "জ্বালানি": 9544,
      "সুখী": 9545,
      "রোহিঙ্গাদের": 9546,
      "বহির্ভূত": 9547,
      "এজেন্সি": 9548,
      "মাদ্রাজ": 9549,
      "পরস্পর": 9550,
      "কন্ট্রোল": 9551,
      "কমনওয়েলথ": 9552,
      "কাল্পনিক": 9553,
      "জিম্বাবু": 9554,
      "Car": 9555,
      "No": 9556,
      "National": 9557,
      "SO": 9558,
      "air": 9559,
      "ron": 9560,
      "ta": 9561,
      "لَ": 9562,
      "অক্ষম": 9563,
      "আন্ডার": 9564,
      "ওনা": 9565,
      "কসো": 9566,
      "খ্রী": 9567,
      "গড়া": 9568,
      "গম্ব": 9569,
      "ডগ": 9570,
      "ভলিউ": 9571,
      "শিক": 9572,
      "্তো": 9573,
      "টি২০": 9574,
      "ালী": 9575,
      "নিসের": 9576,
      "স্কটি": 9577,
      "বাথ": 9578,
      "বাকী": 9579,
      "রাউন্ড": 9580,
      "নায়ে": 9581,
      "ছিলনা": 9582,
      "মাকে": 9583,
      "মাঠের": 9584,
      "লিনের": 9585,
      "যেভাবে": 9586,
      "মেজ": 9587,
      "হাদ": 9588,
      "রিস": 9589,
      "রিয়": 9590,
      "মধ্যস্থ": 9591,
      "ডিফ": 9592,
      "ডিপার্টমেন্ট": 9593,
      "ধারায়": 9594,
      "সরত": 9595,
      "হিসেব": 9596,
      "প্রাসঙ্গ": 9597,
      "বছরই": 9598,
      "কালি": 9599,
      "অংশগ্রহন": 9600,
      "গোলে": 9601,
      "ond": 9602,
      "নতম": 9603,
      "প্রকাশ্যে": 9604,
      "বাদশাহ": 9605,
      "ভুক্তি": 9606,
      "অ্যাথ": 9607,
      "অ্যাকশন": 9608,
      "সূরি": 9609,
      "আর্কি": 9610,
      "উচ্চতায়": 9611,
      "পরাজয়": 9612,
      "মহাসাগরের": 9613,
      "ফিলা": 9614,
      "জিক্যাল": 9615,
      "its": 9616,
      "১৪০": 9617,
      "reen": 9618,
      "শালা": 9619,
      "নদীতে": 9620,
      "সিরিয়ান": 9621,
      "গর্ত": 9622,
      "ধারণাকে": 9623,
      "শ্বর": 9624,
      "ডোনাল্ড": 9625,
      "অর্থনৈতিকভাবে": 9626,
      "মন্দা": 9627,
      "টেনে": 9628,
      "খোলার": 9629,
      "ছবিটির": 9630,
      "ডারউইন": 9631,
      "অধিবাসীদের": 9632,
      "অধিষ্ঠিত": 9633,
      "সফলতার": 9634,
      "বালি": 9635,
      "ব্রাহ্ম": 9636,
      "ট্রাক": 9637,
      "প্যাসি": 9638,
      "সাহিত্যে": 9639,
      "পৌঁছা": 9640,
      "মন্দিরে": 9641,
      "সুরক্ষার": 9642,
      "অপারেটর": 9643,
      "সিস্টেমটি": 9644,
      "সেন্সর": 9645,
      "ব্যবসায়ীদের": 9646,
      "ইরাকে": 9647,
      "2012": 9648,
      "সুইডিশ": 9649,
      "চিন্তার": 9650,
      "চোখে": 9651,
      "গভীরভাবে": 9652,
      "ফ্রেঞ্চ": 9653,
      "ত্রিভু": 9654,
      "স্পেশাল": 9655,
      "কার্ডের": 9656,
      "কোরীয়": 9657,
      "সাহিত্যিক": 9658,
      "ডিজাইনার": 9659,
      "প্রবাহের": 9660,
      "ক্রীড়াবিদ": 9661,
      "প্রাইজ": 9662,
      "ম্যারা": 9663,
      "বিজ্ঞাপনে": 9664,
      "আবির্ভাব": 9665,
      "মঞ্চে": 9666,
      "পাহাড়ের": 9667,
      "বিবৃতিতে": 9668,
      "সালাহ": 9669,
      "বাক্যের": 9670,
      "্‌স": 9671,
      "সাক্ষী": 9672,
      "display": 9673,
      "মাহমু": 9674,
      "কিংবদন্তি": 9675,
      "ইয়েমেনের": 9676,
      "অ্যালবামের": 9677,
      "শরীরে": 9678,
      "Cricket": 9679,
      "উপাসনা": 9680,
      "চিঠিতে": 9681,
      "স্বত্ত্বেও": 9682,
      "প্রণোদিত": 9683,
      "শহীদ": 9684,
      "22": 9685,
      "As": 9686,
      "BC": 9687,
      "ES": 9688,
      "Film": 9689,
      "Pe": 9690,
      "Sch": 9691,
      "ple": 9692,
      "ُو": 9693,
      "অপ্রত্যাশিত": 9694,
      "ঝে": 9695,
      "পদের": 9696,
      "বঙ্গ": 9697,
      "মদ্য": 9698,
      "সানা": 9699,
      "৩য়": 9700,
      "৫৭": 9701,
      "‌্যা": 9702,
      "‎‎": 9703,
      "টিকিট": 9704,
      "বিন্দ": 9705,
      "বিষ্ণ": 9706,
      "বাইন": 9707,
      "সাফ": 9708,
      "ন্ডে": 9709,
      "সেক্ট": 9710,
      "লিংক": 9711,
      "নেশন": 9712,
      "ড়ন": 9713,
      "গুয়ে": 9714,
      "রেটিং": 9715,
      "মানো": 9716,
      "সংস্থান": 9717,
      "সংগৃহীত": 9718,
      "মিষ্টি": 9719,
[...]
