{
  "version": "1.0",
  "truncation": null,
  "padding": null,
  "added_tokens": [
    {
      "id": 0,
      "content": "[PAD]",
      "single_word": false,
      "lstrip": false,
      "rstrip": false,
      "normalized": false,
      "special": true
    },
    {
      "id": 1,
      "content": "[UNK]",
      "single_word": false,
      "lstrip": false,
      "rstrip": false,
      "normalized": false,
      "special": true
    },
    {
      "id": 2,
      "content": "[SOS]",
      "single_word": false,
      "lstrip": false,
      "rstrip": false,
      "normalized": false,
      "special": true
    },
    {
      "id": 3,
      "content": "[EOS]",
      "single_word": false,
      "lstrip": false,
      "rstrip": false,
      "normalized": false,
      "special": true
    }
  ],
  "normalizer": null,
  "pre_tokenizer": {
    "type": "Whitespace"
  },
  "post_processor": null,
  "decoder": null,
  "model": {
    "type": "BPE",
    "dropout": null,
    "unk_token": null,
    "continuing_subword_prefix": null,
    "end_of_word_suffix": null,
    "fuse_unk": false,
    "byte_fallback": false,
    "ignore_merges": false,
    "vocab": {
      "[PAD]": 0,
      "[UNK]": 1,
      "[SOS]": 2,
      "[EOS]": 3,
      "!": 4,
      "\"": 5,
      "#": 6,
      "$": 7,
      "%": 8,
      "&": 9,
      "'": 10,
      "(": 11,
      ")": 12,
      "*": 13,
      "+": 14,
      ",": 15,
      "-": 16,
      ".": 17,
      "/": 18,
      "0": 19,
      "1": 20,
      "2": 21,
      "3": 22,
      "4": 23,
      "5": 24,
      "6": 25,
      "7": 26,
      "8": 27,
      "9": 28,
      ":": 29,
      ";": 30,
      "<": 31,
      "=": 32,
      ">": 33,
      "?": 34,
      "@": 35,
      "A": 36,
      "B": 37,
      "C": 38,
      "D": 39,
      "E": 40,
      "F": 41,
      "G": 42,
      "H": 43,
      "I": 44,
      "J": 45,
      "K": 46,
      "L": 47,
      "M": 48,
      "N": 49,
      "O": 50,
      "P": 51,
      "Q": 52,
      "R": 53,
      "S": 54,
      "T": 55,
      "U": 56,
      "V": 57,
      "W": 58,
      "X": 59,
      "Y": 60,
      "Z": 61,
      "\\": 62,
      "]": 63,
      "^": 64,
      "_": 65,
      "`": 66,
      "a": 67,
      "b": 68,
      "c": 69,
      "d": 70,
      "e": 71,
      "f": 72,
      "g": 73,
      "h": 74,
      "i": 75,
      "j": 76,
      "k": 77,
      "l": 78,
      "m": 79,
      "n": 80,
      "o": 81,
      "p": 82,
      "q": 83,
      "r": 84,
      "s": 85,
      "t": 86,
      "u": 87,
      "v": 88,
      "w": 89,
      "x": 90,
      "y": 91,
      "z": 92,
      "{": 93,
      "|": 94,
      "}": 95,
      "~": 96,
      "": 97,
      "£": 98,
      "¥": 99,
      "§": 100,
      "«": 101,
      "®": 102,
      "°": 103,
      "±": 104,
      "²": 105,
      "³": 106,
      "´": 107,
      "µ": 108,
      "·": 109,
      "¹": 110,
      "»": 111,
      "¼": 112,
      "½": 113,
      "Á": 114,
      "Ã": 115,
      "Å": 116,
      "Æ": 117,
      "Ç": 118,
      "È": 119,
      "É": 120,
      "Ê": 121,
      "Ë": 122,
      "Í": 123,
      "Ó": 124,
      "Ö": 125,
      "×": 126,
      "Ø": 127,
      "Ü": 128,
      "Þ": 129,
      "ß": 130,
      "à": 131,
      "á": 132,
      "â": 133,
      "ã": 134,
      "ä": 135,
      "å": 136,
      "æ": 137,
      "ç": 138,
      "è": 139,
      "é": 140,
      "ê": 141,
      "ë": 142,
      "ì": 143,
      "í": 144,
      "î": 145,
      "ï": 146,
      "ð": 147,
      "ñ": 148,
      "ò": 149,
      "ó": 150,
      "ô": 151,
      "õ": 152,
      "ö": 153,
      "ø": 154,
      "ù": 155,
      "ú": 156,
      "û": 157,
      "ü": 158,
      "ý": 159,
      "þ": 160,
      "ÿ": 161,
      "Ā": 162,
      "ā": 163,
      "ă": 164,
      "ą": 165,
      "ć": 166,
      "Č": 167,
      "č": 168,
      "Đ": 169,
      "đ": 170,
      "ē": 171,
      "Ĕ": 172,
      "ė": 173,
      "ě": 174,
      "ğ": 175,
      "ġ": 176,
      "ħ": 177,
      "Ī": 178,
      "ī": 179,
      "İ": 180,
      "ı": 181,
      "ĵ": 182,
      "ļ": 183,
      "Ł": 184,
      "ł": 185,
      "ń": 186,
      "ņ": 187,
      "ň": 188,
      "ŋ": 189,
      "Ō": 190,
      "ō": 191,
      "ŏ": 192,
      "œ": 193,
      "Ś": 194,
      "ś": 195,
      "Ş": 196,
      "ş": 197,
      "Š": 198,
      "š": 199,
      "ũ": 200,
      "Ū": 201,
      "ū": 202,
      "Ŭ": 203,
      "ŭ": 204,
      "ů": 205,
      "ų": 206,
      "Ż": 207,
      "ż": 208,
      "Ž": 209,
      "ž": 210,
      "ơ": 211,
      "ǎ": 212,
      "ǐ": 213,
      "ǒ": 214,
      "ǧ": 215,
      "ș": 216,
      "ȭ": 217,
      "ȯ": 218,
      "ɑ": 219,
      "ɒ": 220,
      "ɔ": 221,
      "ɕ": 222,
      "ɗ": 223,
      "ə": 224,
      "ɛ": 225,
      "ɜ": 226,
      "ɡ": 227,
      "ɨ": 228,
      "ɪ": 229,
      "ɬ": 230,
      "ɲ": 231,
      "ɹ": 232,
      "ɻ": 233,
      "ɾ": 234,
      "ʁ": 235,
      "ʂ": 236,
      "ʃ": 237,
      "ʈ": 238,
      "ʊ": 239,
      "ʌ": 240,
      "ʎ": 241,
      "ʒ": 242,
      "ʔ": 243,
      "ʕ": 244,
      "ʝ": 245,
      "ʰ": 246,
      "ʲ": 247,
      "ʷ": 248,
      "ʻ": 249,
      "ʼ": 250,
      "ʽ": 251,
      "ʾ": 252,
      "ʿ": 253,
      "ˈ": 254,
      "ˌ": 255,
      "ː": 256,
      "́": 257,
      "̄": 258,
      "̆": 259,
      "̥": 260,
      "͡": 261,
      "Ό": 262,
      "ΐ": 263,
      "Α": 264,
      "Γ": 265,
      "Δ": 266,
      "Ε": 267,
      "Ζ": 268,
      "Θ": 269,
      "Κ": 270,
      "Λ": 271,
      "Μ": 272,
      "Ν": 273,
      "Ο": 274,
      "Π": 275,
      "Σ": 276,
      "Υ": 277,
      "Φ": 278,
      "Χ": 279,
      "ά": 280,
      "έ": 281,
      "ή": 282,
      "ί": 283,
      "α": 284,
      "β": 285,
      "γ": 286,
      "δ": 287,
      "ε": 288,
      "ζ": 289,
      "η": 290,
      "θ": 291,
      "ι": 292,
      "κ": 293,
      "λ": 294,
      "μ": 295,
      "ν": 296,
      "ο": 297,
      "π": 298,
      "ρ": 299,
      "ς": 300,
      "σ": 301,
      "τ": 302,
      "υ": 303,
      "φ": 304,
      "χ": 305,
      "ψ": 306,
      "ω": 307,
      "ό": 308,
      "ύ": 309,
      "ώ": 310,
      "ϕ": 311,
      "А": 312,
      "Б": 313,
      "В": 314,
      "Г": 315,
      "Д": 316,
      "Е": 317,
      "Ж": 318,
      "З": 319,
      "И": 320,
      "К": 321,
      "Л": 322,
      "М": 323,
      "Н": 324,
      "О": 325,
      "П": 326,
      "Р": 327,
      "С": 328,
      "Т": 329,
      "У": 330,
      "Ф": 331,
      "Х": 332,
      "Ц": 333,
      "Ч": 334,
      "Ш": 335,
      "Я": 336,
      "а": 337,
      "б": 338,
      "в": 339,
      "г": 340,
      "д": 341,
      "е": 342,
      "ж": 343,
      "з": 344,
      "и": 345,
      "й": 346,
      "к": 347,
      "л": 348,
      "м": 349,
      "н": 350,
      "о": 351,
      "п": 352,
      "р": 353,
      "с": 354,
      "т": 355,
      "у": 356,
      "ф": 357,
      "х": 358,
      "ц": 359,
      "ч": 360,
      "ш": 361,
      "щ": 362,
      "ъ": 363,
      "ы": 364,
      "ь": 365,
      "ю": 366,
      "я": 367,
      "ё": 368,
      "є": 369,
      "і": 370,
      "ї": 371,
      "ј": 372,
      "ў": 373,
      "ѥ": 374,
      "Қ": 375,
      "қ": 376,
      "ҳ": 377,
      "ҷ": 378,
      "Ա": 379,
      "Բ": 380,
      "Գ": 381,
      "Ե": 382,
      "Թ": 383,
      "Լ": 384,
      "Կ": 385,
      "Հ": 386,
      "Ձ": 387,
      "Մ": 388,
      "Ն": 389,
      "Ս": 390,
      "Վ": 391,
      "Ք": 392,
      "՛": 393,
      "՝": 394,
      "ա": 395,
      "բ": 396,
      "գ": 397,
      "դ": 398,
      "ե": 399,
      "է": 400,
      "ը": 401,
      "ի": 402,
      "լ": 403,
      "ծ": 404,
      "կ": 405,
      "հ": 406,
      "ձ": 407,
      "ղ": 408,
      "մ": 409,
      "յ": 410,
      "ն": 411,
      "շ": 412,
      "ո": 413,
      "չ": 414,
      "պ": 415,
      "ռ": 416,
      "ս": 417,
      "վ": 418,
      "տ": 419,
      "ր": 420,
      "ց": 421,
      "ւ": 422,
      "փ": 423,
      "ք": 424,
      "օ": 425,
      "և": 426,
      "֫": 427,
      "ְ": 428,
      "ֲ": 429,
      "ֳ": 430,
      "ִ": 431,
      "ֵ": 432,
      "ַ": 433,
      "ָ": 434,
      "ֹ": 435,
      "ּ": 436,
      "ׁ": 437,
      "א": 438,
      "ב": 439,
      "ג": 440,
      "ד": 441,
      "ה": 442,
      "ו": 443,
      "ז": 444,
      "ח": 445,
      "ט": 446,
      "י": 447,
      "כ": 448,
      "ל": 449,
      "ם": 450,
      "מ": 451,
      "ן": 452,
      "נ": 453,
      "ס": 454,
      "ע": 455,
      "ף": 456,
      "פ": 457,
      "צ": 458,
      "ק": 459,
      "ר": 460,
      "ש": 461,
      "ת": 462,
      "،": 463,
      "ء": 464,
      "آ": 465,
      "أ": 466,
      "ؤ": 467,
      "إ": 468,
      "ئ": 469,
      "ا": 470,
      "ب": 471,
      "ة": 472,
      "ت": 473,
      "ث": 474,
      "ج": 475,
      "ح": 476,
      "خ": 477,
      "د": 478,
      "ذ": 479,
      "ر": 480,
      "ز": 481,
      "س": 482,
      "ش": 483,
      "ص": 484,
      "ض": 485,
      "ط": 486,
      "ظ": 487,
      "ع": 488,
      "غ": 489,
      "ـ": 490,
      "ف": 491,
      "ق": 492,
      "ك": 493,
      "ل": 494,
      "م": 495,
      "ن": 496,
      "ه": 497,
      "و": 498,
      "ى": 499,
      "ي": 500,
      "ً": 501,
      "َ": 502,
      "ُ": 503,
      "ِ": 504,
      "ّ": 505,
      "ْ": 506,
      "ٹ": 507,
      "ټ": 508,
      "پ": 509,
      "څ": 510,
      "چ": 511,
      "ڈ": 512,
      "ښ": 513,
      "ڠ": 514,
      "ک": 515,
      "گ": 516,
      "ھ": 517,
      "ہ": 518,
      "ی": 519,
      "ے": 520,
      "ހ": 521,
      "ރ": 522,
      "ވ": 523,
      "ފ": 524,
      "ދ": 525,
      "ޔ": 526,
      "ާ": 527,
      "ި": 528,
      "ު": 529,
      "ެ": 530,
      "ं": 531,
      "अ": 532,
      "आ": 533,
      "इ": 534,
      "ई": 535,
      "क": 536,
      "च": 537,
      "ज": 538,
      "झ": 539,
      "ञ": 540,
      "ट": 541,
      "ड": 542,
      "ढ": 543,
      "ण": 544,
      "त": 545,
      "द": 546,
      "ध": 547,
      "न": 548,
      "प": 549,
      "ब": 550,
      "भ": 551,
      "म": 552,
      "य": 553,
      "र": 554,
      "ल": 555,
      "व": 556,
      "श": 557,
      "ष": 558,
      "स": 559,
      "ह": 560,
      "ा": 561,
      "ि": 562,
      "ी": 563,
      "ु": 564,
      "ू": 565,
      "े": 566,
      "ो": 567,
      "्": 568,
      "ং": 569,
      "অ": 570,
      "আ": 571,
      "ই": 572,
      "উ": 573,
      "এ": 574,
      "ও": 575,
      "ক": 576,
      "খ": 577,
      "গ": 578,
      "চ": 579,
      "জ": 580,
      "ঞ": 581,
      "ট": 582,
      "ঠ": 583,
      "ড": 584,
      "ঢ": 585,
      "ত": 586,
      "থ": 587,
      "দ": 588,
      "ধ": 589,
      "ন": 590,
      "প": 591,
      "ফ": 592,
      "ব": 593,
      "ভ": 594,
      "ম": 595,
      "য": 596,
      "র": 597,
      "ল": 598,
      "শ": 599,
      "ষ": 600,
      "স": 601,
      "হ": 602,
      "়": 603,
      "া": 604,
      "ি": 605,
      "ী": 606,
      "ু": 607,
      "ে": 608,
      "ো": 609,
      "্": 610,
      "ৎ": 611,
      "ৰ": 612,
      "৳": 613,
      "க": 614,
      "ன": 615,
      "ம": 616,
      "ர": 617,
      "ி": 618,
      "ீ": 619,
      "்": 620,
      "ം": 621,
      "ക": 622,
      "ട": 623,
      "ഡ": 624,
      "ത": 625,
      "ന": 626,
      "പ": 627,
      "മ": 628,
      "യ": 629,
      "ര": 630,
      "റ": 631,
      "ല": 632,
      "ു": 633,
      "ൊ": 634,
      "ോ": 635,
      "്": 636,
      "ං": 637,
      "ඃ": 638,
      "෴": 639,
      "ก": 640,
      "ง": 641,
      "จ": 642,
      "ฉ": 643,
      "ช": 644,
      "ณ": 645,
      "ด": 646,
      "ต": 647,
      "ถ": 648,
      "ท": 649,
      "น": 650,
      "บ": 651,
      "ผ": 652,
      "พ": 653,
      "ฟ": 654,
      "ม": 655,
      "ย": 656,
      "ร": 657,
      "ล": 658,
      "ว": 659,
      "ษ": 660,
      "ส": 661,
      "ห": 662,
      "อ": 663,
      "ะ": 664,
      "ั": 665,
      "า": 666,
      "ิ": 667,
      "ี": 668,
      "ุ": 669,
      "฿": 670,
      "เ": 671,
      "แ": 672,
      "โ": 673,
      "ไ": 674,
      "็": 675,
      "่": 676,
      "้": 677,
      "์": 678,
      "་": 679,
      "༌": 680,
      "ཡ": 681,
      "ལ": 682,
      "ུ": 683,
      "ོ": 684,
      "ྷ": 685,
      "က": 686,
      "ခ": 687,
      "င": 688,
      "ဆ": 689,
      "ည": 690,
      "တ": 691,
      "န": 692,
      "ပ": 693,
      "ဘ": 694,
      "မ": 695,
      "ရ": 696,
      "လ": 697,
      "သ": 698,
      "အ": 699,
      "ာ": 700,
      "ိ": 701,
      "ု": 702,
      "ေ": 703,
      "း": 704,
      "်": 705,
      "ြ": 706,
      "၏": 707,
      "ა": 708,
      "ე": 709,
      "ვ": 710,
      "ზ": 711,
      "თ": 712,
      "ი": 713,
      "ლ": 714,
      "ნ": 715,
      "ო": 716,
      "რ": 717,
      "ს": 718,
      "ქ": 719,
      "ᑦ": 720,
      "ᓄ": 721,
      "ᓇ": 722,
      "ᕗ": 723,
      "ᚫ": 724,
      "ᚬ": 725,
      "ḍ": 726,
      "ḏ": 727,
      "ḗ": 728,
      "ḥ": 729,
      "Ḩ": 730,
      "ḫ": 731,
      "ḷ": 732,
      "ṁ": 733,
      "ṇ": 734,
      "ṛ": 735,
      "ṟ": 736,
      "ṣ": 737,
      "Ṭ": 738,
      "ṭ": 739,
      "ṯ": 740,
      "Ẓ": 741,
      "ẓ": 742,
      "ạ": 743,
      "ả": 744,
      "ấ": 745,
      "ầ": 746,
      "ẩ": 747,
      "ế": 748,
      "ễ": 749,
      "ệ": 750,
      "ị": 751,
      "ồ": 752,
      "ổ": 753,
      "ộ": 754,
      "ớ": 755,
      "ụ": 756,
      "ủ": 757,
      "ỹ": 758,
      "ἀ": 759,
      "Ἀ": 760,
      "ἑ": 761,
      "ἔ": 762,
      "ἕ": 763,
      "ἵ": 764,
      "ἷ": 765,
      "Ἰ": 766,
      "Ἱ": 767,
      "ὀ": 768,
      "ὁ": 769,
      "ὐ": 770,
      "ὕ": 771,
      "ὖ": 772,
      "ὸ": 773,
      "ῆ": 774,
      "ῥ": 775,
      "ῶ": 776,
      "ῷ": 777,
      "​": 778,
      "‌": 779,
      "‍": 780,
      "‎": 781,
      "‑": 782,
      "–": 783,
      "—": 784,
      "‘": 785,
      "’": 786,
      "“": 787,
      "”": 788,
      "„": 789,
      "†": 790,
      "•": 791,
      "…": 792,
      "′": 793,
      "″": 794,
      "⁂": 795,
      "⁄": 796,
      "⁠": 797,
      "⁡": 798,
      "₂": 799,
      "₤": 800,
      "₨": 801,
      "₩": 802,
      "€": 803,
      "₹": 804,
      "№": 805,
      "ℝ": 806,
      "™": 807,
      "⅓": 808,
      "⅛": 809,
      "→": 810,
      "↔": 811,
      "↦": 812,
      "∂": 813,
      "∅": 814,
      "∈": 815,
      "∑": 816,
      "−": 817,
      "√": 818,
      "∞": 819,
      "≈": 820,
      "≠": 821,
      "≡": 822,
      "≤": 823,
      "≥": 824,
      "⊂": 825,
      "⋅": 826,
      "⋯": 827,
      "⌊": 828,
      "⌋": 829,
      "■": 830,
      "►": 831,
      "☉": 832,
      "⚤": 833,
      "⛽": 834,
      "✈": 835,
      "⟨": 836,
      "⟩": 837,
      "、": 838,
      "い": 839,
      "か": 840,
      "が": 841,
      "け": 842,
      "じ": 843,
      "た": 844,
      "ち": 845,
      "っ": 846,
      "と": 847,
      "に": 848,
      "の": 849,
      "ほ": 850,
      "ぽ": 851,
      "め": 852,
      "ゃ": 853,
      "ら": 854,
      "る": 855,
      "ん": 856,
      "ア": 857,
      "ィ": 858,
      "イ": 859,
      "ウ": 860,
      "オ": 861,
      "カ": 862,
      "ク": 863,
      "グ": 864,
      "ゲ": 865,
      "ゴ": 866,
      "ザ": 867,
      "シ": 868,
      "ジ": 869,
      "ス": 870,
      "ズ": 871,
      "タ": 872,
      "チ": 873,
      "ッ": 874,
      "ト": 875,
      "ド": 876,
      "ナ": 877,
      "ノ": 878,
      "バ": 879,
      "パ": 880,
      "ピ": 881,
      "フ": 882,
      "プ": 883,
      "ヘ": 884,
      "ポ": 885,
      "モ": 886,
      "ュ": 887,
      "ラ": 888,
      "リ": 889,
      "ル": 890,
      "ロ": 891,
      "ン": 892,
      "・": 893,
      "ー": 894,
      "丁": 895,
      "万": 896,
      "三": 897,
      "上": 898,
      "不": 899,
      "世": 900,
      "东": 901,
      "中": 902,
      "义": 903,
      "之": 904,
      "乞": 905,
      "书": 906,
      "事": 907,
      "二": 908,
      "五": 909,
      "井": 910,
      "产": 911,
      "京": 912,
      "亮": 913,
      "人": 914,
      "仁": 915,
      "介": 916,
      "代": 917,
      "会": 918,
      "佛": 919,
      "係": 920,
      "債": 921,
      "元": 922,
      "八": 923,
      "公": 924,
      "共": 925,
      "兵": 926,
      "况": 927,
      "划": 928,
      "別": 929,
      "劉": 930,
      "力": 931,
      "办": 932,
      "助": 933,
      "勁": 934,
      "動": 935,
      "務": 936,
      "勝": 937,
      "勞": 938,
      "包": 939,
      "化": 940,
      "北": 941,
      "區": 942,
      "十": 943,
      "华": 944,
      "南": 945,
      "博": 946,
      "印": 947,
      "卿": 948,
      "历": 949,
      "原": 950,
      "县": 951,
      "叉": 952,
      "发": 953,
      "可": 954,
      "台": 955,
      "史": 956,
      "司": 957,
      "吴": 958,
      "呦": 959,
      "味": 960,
      "和": 961,
      "員": 962,
      "唐": 963,
      "商": 964,
      "喪": 965,
      "四": 966,
      "团": 967,
      "国": 968,
      "園": 969,
      "地": 970,
      "场": 971,
      "型": 972,
      "垣": 973,
      "城": 974,
      "堯": 975,
      "塗": 976,
      "士": 977,
      "声": 978,
      "夜": 979,
      "大": 980,
      "太": 981,
      "失": 982,
      "契": 983,
      "女": 984,
      "妹": 985,
      "姊": 986,
      "委": 987,
      "姻": 988,
      "婚": 989,
      "子": 990,
      "字": 991,
      "孙": 992,
      "学": 993,
      "學": 994,
      "完": 995,
      "宗": 996,
      "宫": 997,
      "宿": 998,
      "封": 999,
      "將": 1000,
      "小": 1001,
      "少": 1002,
      "尼": 1003,
      "屠": 1004,
      "山": 1005,
      "州": 1006,
      "工": 1007,
      "巴": 1008,
      "巻": 1009,
      "币": 1010,
      "市": 1011,
      "帝": 1012,
      "幂": 1013,
      "幣": 1014,
      "年": 1015,
      "并": 1016,
      "庁": 1017,
      "府": 1018,
      "座": 1019,
      "建": 1020,
      "弁": 1021,
      "弘": 1022,
      "張": 1023,
      "彌": 1024,
      "录": 1025,
      "形": 1026,
      "心": 1027,
      "忌": 1028,
      "忽": 1029,
      "总": 1030,
      "恪": 1031,
      "悌": 1032,
      "惜": 1033,
      "慧": 1034,
      "我": 1035,
      "手": 1036,
      "投": 1037,
      "报": 1038,
      "授": 1039,
      "撃": 1040,
      "攻": 1041,
      "政": 1042,
      "故": 1043,
      "教": 1044,
      "數": 1045,
      "文": 1046,
      "新": 1047,
      "方": 1048,
      "族": 1049,
      "旗": 1050,
      "日": 1051,
      "明": 1052,
      "星": 1053,
      "映": 1054,
      "春": 1055,
      "昭": 1056,
      "是": 1057,
      "晋": 1058,
      "晴": 1059,
      "最": 1060,
      "會": 1061,
      "月": 1062,
      "有": 1063,
      "本": 1064,
      "机": 1065,
      "村": 1066,
      "杜": 1067,
      "東": 1068,
      "柱": 1069,
      "标": 1070,
      "格": 1071,
      "桑": 1072,
      "梁": 1073,
      "植": 1074,
      "楼": 1075,
      "概": 1076,
      "榮": 1077,
      "欠": 1078,
      "次": 1079,
      "歌": 1080,
      "正": 1081,
      "死": 1082,
      "殊": 1083,
      "殿": 1084,
      "氏": 1085,
      "民": 1086,
      "気": 1087,
      "水": 1088,
      "江": 1089,
      "沈": 1090,
      "沙": 1091,
      "油": 1092,
      "法": 1093,
      "洋": 1094,
      "洛": 1095,
      "洞": 1096,
      "洲": 1097,
      "流": 1098,
      "海": 1099,
      "淡": 1100,
      "港": 1101,
      "源": 1102,
      "漆": 1103,
      "漢": 1104,
      "潤": 1105,
      "濟": 1106,
      "瀚": 1107,
      "灣": 1108,
      "災": 1109,
      "炒": 1110,
      "然": 1111,
      "熙": 1112,
      "熱": 1113,
      "爱": 1114,
      "片": 1115,
      "版": 1116,
      "牙": 1117,
      "物": 1118,
      "特": 1119,
      "犬": 1120,
      "獄": 1121,
      "王": 1122,
      "瓶": 1123,
      "生": 1124,
      "画": 1125,
      "痴": 1126,
      "發": 1127,
      "白": 1128,
      "的": 1129,
      "皇": 1130,
      "目": 1131,
      "盲": 1132,
      "直": 1133,
      "省": 1134,
      "石": 1135,
      "砕": 1136,
      "碼": 1137,
      "礼": 1138,
      "祈": 1139,
      "祝": 1140,
      "神": 1141,
      "福": 1142,
      "禮": 1143,
      "禱": 1144,
      "秦": 1145,
      "空": 1146,
      "站": 1147,
      "等": 1148,
      "简": 1149,
      "箇": 1150,
      "簡": 1151,
      "約": 1152,
      "紇": 1153,
      "級": 1154,
      "紡": 1155,
      "終": 1156,
      "結": 1157,
      "經": 1158,
      "編": 1159,
      "緩": 1160,
      "織": 1161,
      "红": 1162,
      "纺": 1163,
      "织": 1164,
      "缶": 1165,
      "義": 1166,
      "考": 1167,
      "者": 1168,
      "聞": 1169,
      "聲": 1170,
      "育": 1171,
      "自": 1172,
      "臺": 1173,
      "興": 1174,
      "舞": 1175,
      "英": 1176,
      "茶": 1177,
      "获": 1178,
      "菊": 1179,
      "華": 1180,
      "菱": 1181,
      "萍": 1182,
      "葉": 1183,
      "蒙": 1184,
      "蒲": 1185,
      "蔵": 1186,
      "薛": 1187,
      "藏": 1188,
      "蘇": 1189,
      "虎": 1190,
      "處": 1191,
      "表": 1192,
      "袁": 1193,
      "西": 1194,
      "記": 1195,
      "語": 1196,
      "說": 1197,
      "護": 1198,
      "记": 1199,
      "象": 1200,
      "貝": 1201,
      "资": 1202,
      "赤": 1203,
      "路": 1204,
      "辦": 1205,
      "農": 1206,
      "迨": 1207,
      "通": 1208,
      "過": 1209,
      "道": 1210,
      "邑": 1211,
      "邦": 1212,
      "邪": 1213,
      "郎": 1214,
      "郡": 1215,
      "部": 1216,
      "都": 1217,
      "鄒": 1218,
      "里": 1219,
      "野": 1220,
      "金": 1221,
      "釦": 1222,
      "鉄": 1223,
      "鍾": 1224,
      "鐘": 1225,
      "镇": 1226,
      "镜": 1227,
      "門": 1228,
      "関": 1229,
      "閭": 1230,
      "门": 1231,
      "阁": 1232,
      "阪": 1233,
      "阳": 1234,
      "际": 1235,
      "陈": 1236,
      "院": 1237,
      "陵": 1238,
      "隊": 1239,
      "集": 1240,
      "震": 1241,
      "青": 1242,
      "韋": 1243,
      "项": 1244,
      "飞": 1245,
      "飯": 1246,
      "香": 1247,
      "馬": 1248,
      "駐": 1249,
      "高": 1250,
      "魂": 1251,
      "鳶": 1252,
      "黑": 1253,
      "黒": 1254,
      "龙": 1255,
      "경": 1256,
      "계": 1257,
      "골": 1258,
      "공": 1259,
      "과": 1260,
      "관": 1261,
      "구": 1262,
      "국": 1263,
      "군": 1264,
      "굴": 1265,
      "급": 1266,
      "난": 1267,
      "남": 1268,
      "내": 1269,
      "년": 1270,
      "농": 1271,
      "는": 1272,
      "대": 1273,
      "도": 1274,
      "동": 1275,
      "땅": 1276,
      "로": 1277,
      "리": 1278,
      "맑": 1279,
      "몽": 1280,
      "문": 1281,
      "미": 1282,
      "민": 1283,
      "밤": 1284,
      "베": 1285,
      "별": 1286,
      "보": 1287,
      "본": 1288,
      "부": 1289,
      "북": 1290,
      "사": 1291,
      "선": 1292,
      "설": 1293,
      "성": 1294,
      "세": 1295,
      "소": 1296,
      "시": 1297,
      "신": 1298,
      "쑥": 1299,
      "아": 1300,
      "에": 1301,
      "오": 1302,
      "요": 1303,
      "은": 1304,
      "읍": 1305,
      "의": 1306,
      "이": 1307,
      "인": 1308,
      "일": 1309,
      "자": 1310,
      "전": 1311,
      "정": 1312,
      "제": 1313,
      "조": 1314,
      "주": 1315,
      "지": 1316,
      "직": 1317,
      "추": 1318,
      "탈": 1319,
      "특": 1320,
      "팔": 1321,
      "편": 1322,
      "학": 1323,
      "홀": 1324,
      "화": 1325,
      "ﷲ": 1326,
      "ﷺ": 1327,
      "﻿": 1328,
      "（": 1329,
      "）": 1330,
      "，": 1331,
      "￥": 1332,
      "🏻": 1333,
      "🏼": 1334,
      "🏽": 1335,
      "🏾": 1336,
      "🏿": 1337,
      "👧": 1338,
      "👨": 1339,
      "👩": 1340,
      "th": 1341,
      "in": 1342,
      "an": 1343,
      "er": 1344,
      "the": 1345,
      "on": 1346,
      "ed": 1347,
      "at": 1348,
      "en": 1349,
      "es": 1350,
      "or": 1351,
      "ar": 1352,
      "al": 1353,
      "is": 1354,
      "of": 1355,
      "as": 1356,
      "and": 1357,
      "it": 1358,
      "to": 1359,
      "re": 1360,
      "ion": 1361,
      "ic": 1362,
      "ing": 1363,
      "ou": 1364,
      "st": 1365,
      "om": 1366,
      "he": 1367,
      "ent": 1368,
      "le": 1369,
      "il": 1370,
      "ad": 1371,
      "ro": 1372,
      "ac": 1373,
      "be": 1374,
      "se": 1375,
      "ly": 1376,
      "for": 1377,
      "am": 1378,
      "ur": 1379,
      "ation": 1380,
      "ve": 1381,
      "ol": 1382,
      "was": 1383,
      "ch": 1384,
      "im": 1385,
      "ir": 1386,
      "The": 1387,
      "ter": 1388,
      "de": 1389,
      "ver": 1390,
      "ig": 1391,
      "ce": 1392,
      "ct": 1393,
      "In": 1394,
      "un": 1395,
      "ow": 1396,
      "con": 1397,
      "tr": 1398,
      "us": 1399,
      "ag": 1400,
      "wh": 1401,
      "ay": 1402,
      "id": 1403,
      "19": 1404,
      "ul": 1405,
      "ere": 1406,
      "est": 1407,
      "ab": 1408,
      "ith": 1409,
      "op": 1410,
      "20": 1411,
      "em": 1412,
      "that": 1413,
      "di": 1414,
      "ut": 1415,
      "ot": 1416,
      "are": 1417,
      "ist": 1418,
      "ers": 1419,
      "et": 1420,
      "ap": 1421,
      "com": 1422,
      "by": 1423,
      "with": 1424,
      "pro": 1425,
      "ain": 1426,
      "oun": 1427,
      "fr": 1428,
      "pr": 1429,
      "su": 1430,
      "el": 1431,
      "pl": 1432,
      "ment": 1433,
      "pe": 1434,
      "his": 1435,
      "ies": 1436,
      "ex": 1437,
      "all": 1438,
      "ity": 1439,
      "ess": 1440,
      "so": 1441,
      "ate": 1442,
      "art": 1443,
      "ther": 1444,
      "mo": 1445,
      "ear": 1446,
      "ci": 1447,
      "from": 1448,
      "ill": 1449,
      "man": 1450,
      "ak": 1451,
      "ld": 1452,
      "ort": 1453,
      "ha": 1454,
      "cl": 1455,
      "igh": 1456,
      "li": 1457,
      "os": 1458,
      "were": 1459,
      "ish": 1460,
      "ri": 1461,
      "te": 1462,
      "sh": 1463,
      "over": 1464,
      "ated": 1465,
      "ne": 1466,
      "ang": 1467,
      "qu": 1468,
      "ber": 1469,
      "si": 1470,
      "ant": 1471,
      "od": 1472,
      "um": 1473,
      "00": 1474,
      "ally": 1475,
      "gh": 1476,
      "wor": 1477,
      "per": 1478,
      "our": 1479,
      "port": 1480,
      "end": 1481,
      "ich": 1482,
      "one": 1483,
      "gr": 1484,
      "tw": 1485,
      "ary": 1486,
      "lo": 1487,
      "act": 1488,
      "has": 1489,
      "ive": 1490,
      "not": 1491,
      "res": 1492,
      "201": 1493,
      "der": 1494,
      "out": 1495,
      "fe": 1496,
      "iv": 1497,
      "which": 1498,
      "ans": 1499,
      "fic": 1500,
      "du": 1501,
      "ong": 1502,
      "He": 1503,
      "ame": 1504,
      "ast": 1505,
      "ard": 1506,
      "Ch": 1507,
      "af": 1508,
      "fir": 1509,
      "str": 1510,
      "ud": 1511,
      "200": 1512,
      "ore": 1513,
      "have": 1514,
      "also": 1515,
      "ip": 1516,
      "ous": 1517,
      "age": 1518,
      "ough": 1519,
      "ia": 1520,
      "ions": 1521,
      "its": 1522,
      "but": 1523,
      "part": 1524,
      "ight": 1525,
      "It": 1526,
      "ev": 1527,
      "first": 1528,
      "ound": 1529,
      "comp": 1530,
      "ge": 1531,
      "ub": 1532,
      "ical": 1533,
      "pt": 1534,
      "had": 1535,
      "form": 1536,
      "ations": 1537,
      "au": 1538,
      "ine": 1539,
      "own": 1540,
      "ian": 1541,
      "ome": 1542,
      "ass": 1543,
      "this": 1544,
      "vi": 1545,
      "their": 1546,
      "ign": 1547,
      "ult": 1548,
      "ence": 1549,
      "ational": 1550,
      "year": 1551,
      "rit": 1552,
      "iz": 1553,
      "other": 1554,
      "Indi": 1555,
      "dis": 1556,
      "her": 1557,
      "tern": 1558,
      "ater": 1559,
      "bo": 1560,
      ").": 1561,
      "ime": 1562,
      "Th": 1563,
      "Un": 1564,
      "cent": 1565,
      "ould": 1566,
      "me": 1567,
      "vel": 1568,
      "ra": 1569,
      "ser": 1570,
      "ure": 1571,
      "ach": 1572,
      "co": 1573,
      "cor": 1574,
      "been": 1575,
      "cont": 1576,
      "comm": 1577,
      "ok": 1578,
      "up": 1579,
      "fer": 1580,
      "ack": 1581,
      "cre": 1582,
      "av": 1583,
      "ition": 1584,
      "St": 1585,
      "ates": 1586,
      "Ar": 1587,
      "coun": 1588,
      "ction": 1589,
      "ree": 1590,
      "work": 1591,
      "ial": 1592,
      "aw": 1593,
      "ever": 1594,
      "land": 1595,
      "who": 1596,
      "po": 1597,
      "int": 1598,
      "low": 1599,
      "ew": 1600,
      "oc": 1601,
      "br": 1602,
      "att": 1603,
      "two": 1604,
      "most": 1605,
      "ory": 1606,
      "ited": 1607,
      "ance": 1608,
      "sp": 1609,
      "ace": 1610,
      "Al": 1611,
      "able": 1612,
      "overn": 1613,
      "they": 1614,
      "lish": 1615,
      "used": 1616,
      "if": 1617,
      "any": 1618,
      "ke": 1619,
      "ved": 1620,
      "can": 1621,
      "ding": 1622,
      "pos": 1623,
      "uring": 1624,
      "reg": 1625,
      "cr": 1626,
      "ade": 1627,
      "min": 1628,
      "ell": 1629,
      "sy": 1630,
      "gan": 1631,
      "mar": 1632,
      "we": 1633,
      "ces": 1634,
      "ice": 1635,
      "time": 1636,
      "ced": 1637,
      "more": 1638,
      "rel": 1639,
      "ef": 1640,
      "ict": 1641,
      "kn": 1642,
      "og": 1643,
      "199": 1644,
      "ph": 1645,
      "new": 1646,
      "pub": 1647,
      "cess": 1648,
      "eng": 1649,
      "18": 1650,
      "ust": 1651,
      "only": 1652,
      "vers": 1653,
      "ile": 1654,
      "fin": 1655,
      "An": 1656,
      "This": 1657,
      "pol": 1658,
      "pres": 1659,
      "after": 1660,
      "ents": 1661,
      "cial": 1662,
      "bec": 1663,
      "day": 1664,
      "ese": 1665,
      "overnment": 1666,
      "ens": 1667,
      "air": 1668,
      "ite": 1669,
      "spe": 1670,
      "des": 1671,
      "ann": 1672,
      "dr": 1673,
      "mer": 1674,
      "many": 1675,
      "een": 1676,
      "main": 1677,
      "she": 1678,
      "some": 1679,
      "into": 1680,
      "bu": 1681,
      "old": 1682,
      "med": 1683,
      "cted": 1684,
      "mon": 1685,
      "years": 1686,
      "ors": 1687,
      "pre": 1688,
      "countr": 1689,
      "led": 1690,
      "ual": 1691,
      "cur": 1692,
      "India": 1693,
      "ma": 1694,
      "than": 1695,
      "no": 1696,
      "way": 1697,
      "ah": 1698,
      "vis": 1699,
      "Is": 1700,
      "play": 1701,
      "ty": 1702,
      "gen": 1703,
      "ele": 1704,
      "As": 1705,
      "incl": 1706,
      "under": 1707,
      "lic": 1708,
      "Af": 1709,
      "lar": 1710,
      "them": 1711,
      "ities": 1712,
      "fl": 1713,
      "would": 1714,
      "ide": 1715,
      "Fr": 1716,
      "ten": 1717,
      "betw": 1718,
      "between": 1719,
      "ased": 1720,
      "ades": 1721,
      "ire": 1722,
      "ob": 1723,
      "col": 1724,
      "amp": 1725,
      "loc": 1726,
      "ople": 1727,
      "ue": 1728,
      "there": 1729,
      "do": 1730,
      "him": 1731,
      "par": 1732,
      "ail": 1733,
      "ince": 1734,
      "ath": 1735,
      "velop": 1736,
      "De": 1737,
      "urn": 1738,
      "ble": 1739,
      "ident": 1740,
      "government": 1741,
      "inter": 1742,
      "cons": 1743,
      "Re": 1744,
      "000": 1745,
      "fore": 1746,
      "cond": 1747,
      "),": 1748,
      "buil": 1749,
      "such": 1750,
      "ick": 1751,
      "go": 1752,
      "ular": 1753,
      "Se": 1754,
      "Bang": 1755,
      "sel": 1756,
      "will": 1757,
      "people": 1758,
      "stru": 1759,
      "je": 1760,
      "reat": 1761,
      "On": 1762,
      "ake": 1763,
      "about": 1764,
      "tain": 1765,
      "stem": 1766,
      "En": 1767,
      "Com": 1768,
      "ose": 1769,
      "fil": 1770,
      "ted": 1771,
      "ful": 1772,
      "when": 1773,
      "use": 1774,
      "num": 1775,
      "cap": 1776,
      "again": 1777,
      "iss": 1778,
      "ts": 1779,
      "Mar": 1780,
      "offic": 1781,
      "ship": 1782,
      "Bangl": 1783,
      "high": 1784,
      "rough": 1785,
      "ys": 1786,
      "ase": 1787,
      "les": 1788,
      "owever": 1789,
      "ters": 1790,
      "She": 1791,
      "world": 1792,
      "ied": 1793,
      "lim": 1794,
      "known": 1795,
      "ms": 1796,
      "during": 1797,
      "though": 1798,
      "istan": 1799,
      "develop": 1800,
      "produ": 1801,
      "United": 1802,
      "Banglades": 1803,
      "sub": 1804,
      "pop": 1805,
      "mem": 1806,
      "Au": 1807,
      "197": 1808,
      "ank": 1809,
      "ons": 1810,
      "Bangladesh": 1811,
      "found": 1812,
      "oup": 1813,
      "red": 1814,
      "three": 1815,
      "olog": 1816,
      "ious": 1817,
      "includ": 1818,
      "198": 1819,
      "then": 1820,
      "mber": 1821,
      "system": 1822,
      "ext": 1823,
      "dif": 1824,
      "ics": 1825,
      "ily": 1826,
      "ternational": 1827,
      "inv": 1828,
      "where": 1829,
      "Wh": 1830,
      "cho": 1831,
      "10": 1832,
      "aid": 1833,
      "hist": 1834,
      "public": 1835,
      "ind": 1836,
      "Brit": 1837,
      "ative": 1838,
      "serv": 1839,
      "my": 1840,
      "ings": 1841,
      "trans": 1842,
      "ution": 1843,
      "ists": 1844,
      "outh": 1845,
      "uary": 1846,
      "als": 1847,
      "oy": 1848,
      "sup": 1849,
      "later": 1850,
      "wom": 1851,
      "may": 1852,
      "these": 1853,
      "For": 1854,
      "ep": 1855,
      "ollow": 1856,
      "through": 1857,
      "ject": 1858,
      "ivers": 1859,
      "vid": 1860,
      "ury": 1861,
      "15": 1862,
      "Wor": 1863,
      "oper": 1864,
      "made": 1865,
      "became": 1866,
      "lished": 1867,
      "ating": 1868,
      "call": 1869,
      "illion": 1870,
      "ret": 1871,
      "hu": 1872,
      "ural": 1873,
      "uro": 1874,
      "New": 1875,
      "uc": 1876,
      "city": 1877,
      "No": 1878,
      "ds": 1879,
      "fam": 1880,
      "ks": 1881,
      "ism": 1882,
      "Chin": 1883,
      "gu": 1884,
      "Con": 1885,
      "ins": 1886,
      "So": 1887,
      "war": 1888,
      "ai": 1889,
      "leg": 1890,
      "They": 1891,
      "196": 1892,
      "ause": 1893,
      "Mus": 1894,
      "dep": 1895,
      "present": 1896,
      "ific": 1897,
      "stit": 1898,
      "Eng": 1899,
      "sign": 1900,
      "ost": 1901,
      "conom": 1902,
      "polit": 1903,
      "chool": 1904,
      "Indian": 1905,
      "tri": 1906,
      "men": 1907,
      "ered": 1908,
      "ually": 1909,
      "Euro": 1910,
      "row": 1911,
      "ments": 1912,
      "against": 1913,
      "17": 1914,
      "soci": 1915,
      "Amer": 1916,
      "organ": 1917,
      "imes": 1918,
      "cy": 1919,
      "gest": 1920,
      "being": 1921,
      "Ac": 1922,
      "car": 1923,
      "number": 1924,
      "Americ": 1925,
      "ages": 1926,
      "British": 1927,
      "az": 1928,
      "pers": 1929,
      "follow": 1930,
      "well": 1931,
      "ves": 1932,
      "eral": 1933,
      "set": 1934,
      "cer": 1935,
      "state": 1936,
      "World": 1937,
      "mat": 1938,
      "unt": 1939,
      "ital": 1940,
      "sever": 1941,
      "ale": 1942,
      "ilit": 1943,
      "There": 1944,
      "Europe": 1945,
      "ures": 1946,
      "After": 1947,
      "jor": 1948,
      "group": 1949,
      "0s": 1950,
      "lam": 1951,
      "early": 1952,
      "second": 1953,
      "rol": 1954,
      "Sh": 1955,
      "nam": 1956,
      "ven": 1957,
      "estab": 1958,
      "both": 1959,
      "cording": 1960,
      "four": 1961,
      "lin": 1962,
      "ized": 1963,
      "ward": 1964,
      "However": 1965,
      "lead": 1966,
      "century": 1967,
      "ood": 1968,
      "differ": 1969,
      "long": 1970,
      "peri": 1971,
      "pow": 1972,
      "chang": 1973,
      "chil": 1974,
      "now": 1975,
      "sur": 1976,
      "istr": 1977,
      "195": 1978,
      "econom": 1979,
      "Pak": 1980,
      "rest": 1981,
      "come": 1982,
      "ants": 1983,
      "angu": 1984,
      "cri": 1985,
      "same": 1986,
      "States": 1987,
      "Nor": 1988,
      "194": 1989,
      "contin": 1990,
      "ib": 1991,
      "pon": 1992,
      "var": 1993,
      "called": 1994,
      "ik": 1995,
      "cept": 1996,
      "la": 1997,
      "por": 1998,
      "Muslim": 1999,
      "stud": 2000,
      "comple": 2001,
      "film": 2002,
      "name": 2003,
      "major": 2004,
      "order": 2005,
      "16": 2006,
      "ving": 2007,
      "countries": 2008,
      "team": 2009,
      "start": 2010,
      "dom": 2011,
      "while": 2012,
      "bers": 2013,
      "human": 2014,
      "Pr": 2015,
      "writ": 2016,
      "ently": 2017,
      "don": 2018,
      "million": 2019,
      "book": 2020,
      "suc": 2021,
      "His": 2022,
      "right": 2023,
      "sm": 2024,
      "depend": 2025,
      "partic": 2026,
      "Pakistan": 2027,
      "ry": 2028,
      "Le": 2029,
      "ning": 2030,
      "ister": 2031,
      "hel": 2032,
      "ise": 2033,
      "began": 2034,
      "War": 2035,
      "iversity": 2036,
      "char": 2037,
      "ple": 2038,
      "several": 2039,
      "cover": 2040,
      "oh": 2041,
      "very": 2042,
      "sia": 2043,
      "consid": 2044,
      "fect": 2045,
      "open": 2046,
      "side": 2047,
      "water": 2048,
      "ash": 2049,
      "At": 2050,
      "dec": 2051,
      "ended": 2052,
      "ility": 2053,
      "Islam": 2054,
      "langu": 2055,
      "self": 2056,
      "30": 2057,
      "report": 2058,
      "appe": 2059,
      "school": 2060,
      "life": 2061,
      "dire": 2062,
      "women": 2063,
      "since": 2064,
      "ets": 2065,
      "14": 2066,
      "Rus": 2067,
      "could": 2068,
      "requ": 2069,
      "bro": 2070,
      "ling": 2071,
      "miss": 2072,
      "nor": 2073,
      "including": 2074,
      "ather": 2075,
      "point": 2076,
      "fi": 2077,
      "sol": 2078,
      "gy": 2079,
      "indu": 2080,
      "igin": 2081,
      "12": 2082,
      "ement": 2083,
      "pass": 2084,
      "ros": 2085,
      "until": 2086,
      "curr": 2087,
      "ically": 2088,
      "like": 2089,
      "national": 2090,
      "said": 2091,
      "Jap": 2092,
      "ared": 2093,
      "before": 2094,
      "aim": 2095,
      "each": 2096,
      "add": 2097,
      "ulation": 2098,
      "king": 2099,
      "read": 2100,
      "fun": 2101,
      "ru": 2102,
      "une": 2103,
      "country": 2104,
      "result": 2105,
      "ilitary": 2106,
      "incre": 2107,
      "remain": 2108,
      "val": 2109,
      "ped": 2110,
      "Arab": 2111,
      "Min": 2112,
      "Par": 2113,
      "beli": 2114,
      "May": 2115,
      "Jan": 2116,
      "ord": 2117,
      "cult": 2118,
      "did": 2119,
      "commun": 2120,
      "ised": 2121,
      "South": 2122,
      "ie": 2123,
      "large": 2124,
      "Ju": 2125,
      "success": 2126,
      "sian": 2127,
      "area": 2128,
      "mark": 2129,
      "power": 2130,
      "ali": 2131,
      "ave": 2132,
      "Japan": 2133,
      "origin": 2134,
      "rele": 2135,
      "design": 2136,
      "view": 2137,
      "person": 2138,
      "Be": 2139,
      "support": 2140,
      "uch": 2141,
      "US": 2142,
      "ft": 2143,
      "fact": 2144,
      "less": 2145,
      "constru": 2146,
      "political": 2147,
      "law": 2148,
      "because": 2149,
      "aph": 2150,
      "mp": 2151,
      "kill": 2152,
      "pur": 2153,
      "import": 2154,
      "different": 2155,
      "Pro": 2156,
      "small": 2157,
      "io": 2158,
      "press": 2159,
      "cient": 2160,
      "tribut": 2161,
      "line": 2162,
      "National": 2163,
      "sing": 2164,
      "ived": 2165,
      "11": 2166,
      "tra": 2167,
      "ls": 2168,
      "gram": 2169,
      "tak": 2170,
      "control": 2171,
      "stand": 2172,
      "return": 2173,
      "ians": 2174,
      "cour": 2175,
      "193": 2176,
      "rece": 2177,
      "ices": 2178,
      "family": 2179,
      "chn": 2180,
      "around": 2181,
      "mit": 2182,
      "elect": 2183,
      "ouse": 2184,
      "January": 2185,
      "top": 2186,
      "oth": 2187,
      "run": 2188,
      "relig": 2189,
      "vision": 2190,
      "Mal": 2191,
      "jo": 2192,
      "ature": 2193,
      "Oc": 2194,
      "place": 2195,
      "building": 2196,
      "alth": 2197,
      "trad": 2198,
      "2012": 2199,
      "sc": 2200,
      "25": 2201,
      "based": 2202,
      "took": 2203,
      "ety": 2204,
      "respon": 2205,
      "back": 2206,
      "According": 2207,
      "ars": 2208,
      "Ger": 2209,
      "Kh": 2210,
      "military": 2211,
      "July": 2212,
      "thor": 2213,
      "2013": 2214,
      "13": 2215,
      "Tr": 2216,
      "sim": 2217,
      "death": 2218,
      "East": 2219,
      "last": 2220,
      "appro": 2221,
      "ref": 2222,
      "March": 2223,
      "American": 2224,
      "train": 2225,
      "lear": 2226,
      "empl": 2227,
      "international": 2228,
      "arch": 2229,
      "cut": 2230,
      "ral": 2231,
      "Dece": 2232,
      "tober": 2233,
      "October": 2234,
      "December": 2235,
      "tal": 2236,
      "attack": 2237,
      "vent": 2238,
      "2011": 2239,
      "allow": 2240,
      "built": 2241,
      "University": 2242,
      "bus": 2243,
      "son": 2244,
      "even": 2245,
      "Nove": 2246,
      "International": 2247,
      "2010": 2248,
      "ization": 2249,
      "November": 2250,
      "recor": 2251,
      "region": 2252,
      "giv": 2253,
      "ology": 2254,
      "established": 2255,
      "ird": 2256,
      "played": 2257,
      "divid": 2258,
      "prom": 2259,
      "graph": 2260,
      "gener": 2261,
      "ason": 2262,
      "ctor": 2263,
      "moder": 2264,
      "hand": 2265,
      "show": 2266,
      "Beng": 2267,
      "Sp": 2268,
      "Air": 2269,
      "icket": 2270,
      "mb": 2271,
      "period": 2272,
      "official": 2273,
      "still": 2274,
      "ck": 2275,
      "ially": 2276,
      "social": 2277,
      "among": 2278,
      "often": 2279,
      "During": 2280,
      "sex": 2281,
      "ired": 2282,
      "earch": 2283,
      "ately": 2284,
      "cas": 2285,
      "ran": 2286,
      "head": 2287,
      "China": 2288,
      "gn": 2289,
      "ste": 2290,
      "Apr": 2291,
      "test": 2292,
      "April": 2293,
      "Cent": 2294,
      "Col": 2295,
      "vol": 2296,
      "marri": 2297,
      "These": 2298,
      "tow": 2299,
      "held": 2300,
      "aj": 2301,
      "members": 2302,
      "ton": 2303,
      "every": 2304,
      "put": 2305,
      "project": 2306,
      "By": 2307,
      "light": 2308,
      "lack": 2309,
      "month": 2310,
      "Fe": 2311,
      "equ": 2312,
      "history": 2313,
      "due": 2314,
      "continu": 2315,
      "off": 2316,
      "ember": 2317,
      "Afr": 2318,
      "issu": 2319,
      "itions": 2320,
      "level": 2321,
      "population": 2322,
      "ting": 2323,
      "lit": 2324,
      "50": 2325,
      "modern": 2326,
      "ca": 2327,
      "five": 2328,
      "oot": 2329,
      "local": 2330,
      "plac": 2331,
      "class": 2332,
      "claim": 2333,
      "largest": 2334,
      "ger": 2335,
      "educ": 2336,
      "what": 2337,
      "exp": 2338,
      "formed": 2339,
      "Ad": 2340,
      "Austr": 2341,
      "match": 2342,
      "bed": 2343,
      "ined": 2344,
      "lect": 2345,
      "series": 2346,
      "descri": 2347,
      "get": 2348,
      "ric": 2349,
      "Afric": 2350,
      "June": 2351,
      "iness": 2352,
      "Sy": 2353,
      "bor": 2354,
      "estern": 2355,
      "those": 2356,
      "Afgh": 2357,
      "Gr": 2358,
      "within": 2359,
      "All": 2360,
      "King": 2361,
      "2015": 2362,
      "ross": 2363,
      "2008": 2364,
      "company": 2365,
      "North": 2366,
      "ured": 2367,
      "activ": 2368,
      "Sept": 2369,
      "Ab": 2370,
      "vir": 2371,
      "infl": 2372,
      "move": 2373,
      "considered": 2374,
      "care": 2375,
      "ata": 2376,
      "ample": 2377,
      "September": 2378,
      "ball": 2379,
      "cogn": 2380,
      "ament": 2381,
      "popular": 2382,
      "ded": 2383,
      "gust": 2384,
      "language": 2385,
      "II": 2386,
      "six": 2387,
      "hi": 2388,
      "techn": 2389,
      "started": 2390,
      "plan": 2391,
      "Pe": 2392,
      "ta": 2393,
      "prof": 2394,
      "fiel": 2395,
      "Afghan": 2396,
      "2014": 2397,
      "stitut": 2398,
      "term": 2399,
      "program": 2400,
      "formation": 2401,
      "Her": 2402,
      "pect": 2403,
      "August": 2404,
      "Ph": 2405,
      "ench": 2406,
      "ories": 2407,
      "English": 2408,
      "died": 2409,
      "cies": 2410,
      "few": 2411,
      "fac": 2412,
      "father": 2413,
      "mak": 2414,
      "ought": 2415,
      "days": 2416,
      "Chr": 2417,
      "development": 2418,
      "stat": 2419,
      "effect": 2420,
      "trict": 2421,
      "Coun": 2422,
      "won": 2423,
      "Or": 2424,
      "independ": 2425,
      "thern": 2426,
      "Li": 2427,
      "Some": 2428,
      "following": 2429,
      "Febr": 2430,
      "February": 2431,
      "ames": 2432,
      "gre": 2433,
      "road": 2434,
      "When": 2435,
      "employ": 2436,
      "mission": 2437,
      "Sovi": 2438,
      "provid": 2439,
      "refer": 2440,
      "become": 2441,
      "example": 2442,
      "published": 2443,
      "childr": 2444,
      "list": 2445,
      "ude": 2446,
      "met": 2447,
      "let": 2448,
      "left": 2449,
      "ways": 2450,
      "process": 2451,
      "que": 2452,
      "announ": 2453,
      "moved": 2454,
      "ner": 2455,
      "recogn": 2456,
      "resident": 2457,
      "cus": 2458,
      "atic": 2459,
      "Austral": 2460,
      "posed": 2461,
      "economic": 2462,
      "God": 2463,
      "tle": 2464,
      "har": 2465,
      "ium": 2466,
      "tract": 2467,
      "event": 2468,
      "ences": 2469,
      "member": 2470,
      "wide": 2471,
      "good": 2472,
      "app": 2473,
      "camp": 2474,
      "mus": 2475,
      "ives": 2476,
      "author": 2477,
      "del": 2478,
      "aged": 2479,
      "hal": 2480,
      "sible": 2481,
      "just": 2482,
      "non": 2483,
      "beg": 2484,
      "another": 2485,
      "near": 2486,
      "urther": 2487,
      "dist": 2488,
      "ched": 2489,
      "2006": 2490,
      "great": 2491,
      "French": 2492,
      "histor": 2493,
      "Ro": 2494,
      "represent": 2495,
      "empt": 2496,
      "sent": 2497,
      "states": 2498,
      "thing": 2499,
      "gress": 2500,
      "European": 2501,
      "cil": 2502,
      "ll": 2503,
      "ality": 2504,
      "children": 2505,
      "important": 2506,
      "bas": 2507,
      "vil": 2508,
      "third": 2509,
      "ze": 2510,
      "ards": 2511,
      "influ": 2512,
      "Soviet": 2513,
      "down": 2514,
      "know": 2515,
      "24": 2516,
      "West": 2517,
      "make": 2518,
      "ris": 2519,
      "role": 2520,
      "idd": 2521,
      "Man": 2522,
      "vide": 2523,
      "ban": 2524,
      "much": 2525,
      "you": 2526,
      "see": 2527,
      "ats": 2528,
      "sum": 2529,
      "bre": 2530,
      "take": 2531,
      "ness": 2532,
      "ines": 2533,
      "ional": 2534,
      "exist": 2535,
      "eved": 2536,
      "help": 2537,
      "One": 2538,
      "decl": 2539,
      "various": 2540,
      "sour": 2541,
      "adv": 2542,
      "sequ": 2543,
      "times": 2544,
      "lands": 2545,
      "stitution": 2546,
      "Can": 2547,
      "mi": 2548,
      "named": 2549,
      "bal": 2550,
      "using": 2551,
      "compet": 2552,
      "direct": 2553,
      "We": 2554,
      "site": 2555,
      "need": 2556,
      "grow": 2557,
      "common": 2558,
      "ked": 2559,
      "home": 2560,
      "crit": 2561,
      "nat": 2562,
      "Ex": 2563,
      "bet": 2564,
      "2009": 2565,
      "wards": 2566,
      "given": 2567,
      "Pal": 2568,
      "vill": 2569,
      "ency": 2570,
      "Gu": 2571,
      "should": 2572,
      "Gen": 2573,
      "came": 2574,
      "areas": 2575,
      "developed": 2576,
      "mand": 2577,
      "capital": 2578,
      "sit": 2579,
      "init": 2580,
      "2005": 2581,
      "Chinese": 2582,
      "along": 2583,
      "town": 2584,
      "ports": 2585,
      "Christ": 2586,
      "100": 2587,
      "reach": 2588,
      "former": 2589,
      "expl": 2590,
      "business": 2591,
      "however": 2592,
      "released": 2593,
      "forces": 2594,
      "ody": 2595,
      "pract": 2596,
      "typ": 2597,
      "ink": 2598,
      "cture": 2599,
      "21": 2600,
      "fem": 2601,
      "late": 2602,
      "received": 2603,
      "ged": 2604,
      "prim": 2605,
      "ense": 2606,
      "research": 2607,
      "win": 2608,
      "2007": 2609,
      "position": 2610,
      "particular": 2611,
      "evol": 2612,
      "rael": 2613,
      "tem": 2614,
      "rodu": 2615,
      "served": 2616,
      "created": 2617,
      "And": 2618,
      "house": 2619,
      "stu": 2620,
      "England": 2621,
      "Of": 2622,
      "che": 2623,
      "ron": 2624,
      "invol": 2625,
      "Me": 2626,
      "trade": 2627,
      "addition": 2628,
      "ug": 2629,
      "Kore": 2630,
      "Pol": 2631,
      "far": 2632,
      "ov": 2633,
      "agre": 2634,
      "short": 2635,
      "Islamic": 2636,
      "pat": 2637,
      "ya": 2638,
      "ago": 2639,
      "ides": 2640,
      "change": 2641,
      "ior": 2642,
      "Israel": 2643,
      "sive": 2644,
      "wee": 2645,
      "signific": 2646,
      "Test": 2647,
      "band": 2648,
      "ilar": 2649,
      "urch": 2650,
      "tradition": 2651,
      "announced": 2652,
      "ering": 2653,
      "charac": 2654,
      "killed": 2655,
      "study": 2656,
      "23": 2657,
      "26": 2658,
      "Asia": 2659,
      "real": 2660,
      "tele": 2661,
      "reported": 2662,
      "Part": 2663,
      "Port": 2664,
      "civil": 2665,
      "say": 2666,
      "Although": 2667,
      "eas": 2668,
      "Bo": 2669,
      "hip": 2670,
      "post": 2671,
      "Tur": 2672,
      "ination": 2673,
      "augh": 2674,
      "introdu": 2675,
      "Joh": 2676,
      "must": 2677,
      "adem": 2678,
      "ability": 2679,
      "dies": 2680,
      "ends": 2681,
      "contain": 2682,
      "music": 2683,
      "free": 2684,
      "youn": 2685,
      "usually": 2686,
      "cially": 2687,
      "market": 2688,
      "rul": 2689,
      "child": 2690,
      "fri": 2691,
      "ork": 2692,
      "2016": 2693,
      "Mu": 2694,
      "try": 2695,
      "bir": 2696,
      "rad": 2697,
      "education": 2698,
      "Co": 2699,
      "ministr": 2700,
      "construction": 2701,
      "40": 2702,
      "cience": 2703,
      "rights": 2704,
      "State": 2705,
      "Mo": 2706,
      "With": 2707,
      "xim": 2708,
      "pris": 2709,
      "priv": 2710,
      "best": 2711,
      "iver": 2712,
      "termin": 2713,
      "service": 2714,
      "Russian": 2715,
      "hy": 2716,
      "net": 2717,
      "defin": 2718,
      "Many": 2719,
      "thod": 2720,
      "ham": 2721,
      "vious": 2722,
      "does": 2723,
      "Ma": 2724,
      "Res": 2725,
      "tit": 2726,
      "feat": 2727,
      "special": 2728,
      "phys": 2729,
      "28": 2730,
      "ned": 2731,
      "dest": 2732,
      "mag": 2733,
      "rang": 2734,
      "health": 2735,
      "ither": 2736,
      "proble": 2737,
      "ground": 2738,
      "..": 2739,
      "President": 2740,
      "religious": 2741,
      "half": 2742,
      "Bar": 2743,
      "ified": 2744,
      "turn": 2745,
      "aft": 2746,
      "travel": 2747,
      "roy": 2748,
      "ones": 2749,
      "works": 2750,
      "invest": 2751,
      "particip": 2752,
      "tour": 2753,
      "ided": 2754,
      "Republic": 2755,
      "legal": 2756,
      "Pl": 2757,
      "product": 2758,
      "individ": 2759,
      "district": 2760,
      "City": 2761,
      "arri": 2762,
      "separ": 2763,
      "cost": 2764,
      "key": 2765,
      "To": 2766,
      "ams": 2767,
      "colle": 2768,
      "York": 2769,
      "Union": 2770,
      "Med": 2771,
      "further": 2772,
      "force": 2773,
      "uses": 2774,
      "idge": 2775,
      "without": 2776,
      "successful": 2777,
      "Cr": 2778,
      "next": 2779,
      "rap": 2780,
      "Army": 2781,
      "months": 2782,
      "ene": 2783,
      "attempt": 2784,
      "field": 2785,
      "significant": 2786,
      "total": 2787,
      "ague": 2788,
      "how": 2789,
      "stri": 2790,
      "omet": 2791,
      "lab": 2792,
      "prote": 2793,
      "els": 2794,
      "plic": 2795,
      "went": 2796,
      "prov": 2797,
      "individual": 2798,
      "Government": 2799,
      "Ser": 2800,
      "Since": 2801,
      "least": 2802,
      "interest": 2803,
      "Sw": 2804,
      "mun": 2805,
      "ships": 2806,
      "speci": 2807,
      "27": 2808,
      "body": 2809,
      "final": 2810,
      "forms": 2811,
      "German": 2812,
      "hold": 2813,
      "single": 2814,
      "iddle": 2815,
      "profess": 2816,
      "John": 2817,
      "ey": 2818,
      "190": 2819,
      "never": 2820,
      "general": 2821,
      "cast": 2822,
      "onment": 2823,
      "systems": 2824,
      "taken": 2825,
      "foot": 2826,
      "treat": 2827,
      "tee": 2828,
      "conne": 2829,
      "Egy": 2830,
      "mad": 2831,
      "percent": 2832,
      "ological": 2833,
      "Minister": 2834,
      "relation": 2835,
      "opened": 2836,
      "Te": 2837,
      "UN": 2838,
      "espe": 2839,
      "grad": 2840,
      "Bengal": 2841,
      "natural": 2842,
      "night": 2843,
      "igr": 2844,
      "polic": 2845,
      "although": 2846,
      "commer": 2847,
      "host": 2848,
      "Africa": 2849,
      "sou": 2850,
      "associ": 2851,
      "Cl": 2852,
      "nal": 2853,
      "information": 2854,
      "anim": 2855,
      "seven": 2856,
      "ours": 2857,
      "rail": 2858,
      "Har": 2859,
      "Egypt": 2860,
      "2004": 2861,
      "attle": 2862,
      "full": 2863,
      "similar": 2864,
      "continued": 2865,
      "Most": 2866,
      "aster": 2867,
      "ctions": 2868,
      "tru": 2869,
      "discover": 2870,
      "Act": 2871,
      "Ge": 2872,
      "hab": 2873,
      "ont": 2874,
      "include": 2875,
      "avail": 2876,
      "laun": 2877,
      "born": 2878,
      "cit": 2879,
      "engine": 2880,
      "osp": 2881,
      "ible": 2882,
      "ively": 2883,
      "occur": 2884,
      "Japanese": 2885,
      "Canad": 2886,
      "sug": 2887,
      "ize": 2888,
      "production": 2889,
      "industr": 2890,
      "vot": 2891,
      "club": 2892,
      "theory": 2893,
      "ama": 2894,
      "tar": 2895,
      "located": 2896,
      "founded": 2897,
      "60": 2898,
      "scient": 2899,
      "curity": 2900,
      "groups": 2901,
      "2003": 2902,
      "def": 2903,
      "lood": 2904,
      "placed": 2905,
      "station": 2906,
      "especially": 2907,
      "mult": 2908,
      "arded": 2909,
      "compan": 2910,
      "cause": 2911,
      "ient": 2912,
      "ung": 2913,
      "ots": 2914,
      "anted": 2915,
      "ival": 2916,
      "Br": 2917,
      "den": 2918,
      "sk": 2919,
      "season": 2920,
      "parts": 2921,
      "Australia": 2922,
      "estim": 2923,
      "oney": 2924,
      "written": 2925,
      "Ear": 2926,
      "gir": 2927,
      "ler": 2928,
      "ances": 2929,
      "ales": 2930,
      "raw": 2931,
      "foreign": 2932,
      "Comp": 2933,
      "certain": 2934,
      "ometimes": 2935,
      "ief": 2936,
      "strong": 2937,
      "students": 2938,
      "29": 2939,
      "Western": 2940,
      "mother": 2941,
      "Council": 2942,
      "birth": 2943,
      "comb": 2944,
      "viol": 2945,
      "France": 2946,
      "establish": 2947,
      "Ne": 2948,
      "omb": 2949,
      "aka": 2950,
      "La": 2951,
      "army": 2952,
      "audi": 2953,
      "From": 2954,
      "included": 2955,
      "While": 2956,
      "previous": 2957,
      "Del": 2958,
      "bel": 2959,
      "ished": 2960,
      "vironment": 2961,
      "proper": 2962,
      "ina": 2963,
      "gether": 2964,
      "evolution": 2965,
      "Iran": 2966,
      "squ": 2967,
      "species": 2968,
      "appear": 2969,
      "others": 2970,
      "Afghanistan": 2971,
      "ision": 2972,
      "current": 2973,
      "described": 2974,
      "face": 2975,
      "Ital": 2976,
      "complete": 2977,
      "commit": 2978,
      "General": 2979,
      "close": 2980,
      "Muslims": 2981,
      "impro": 2982,
      "BC": 2983,
      "inst": 2984,
      "2000": 2985,
      "central": 2986,
      "craft": 2987,
      "available": 2988,
      "Car": 2989,
      "Des": 2990,
      "method": 2991,
      "services": 2992,
      "sib": 2993,
      "airport": 2994,
      "stead": 2995,
      "ably": 2996,
      "udd": 2997,
      "films": 2998,
      "Lon": 2999,
      "lymp": 3000,
      "ained": 3001,
      "web": 3002,
      "returned": 3003,
      "rop": 3004,
      "contribut": 3005,
      "meet": 3006,
      "Olymp": 3007,
      "doc": 3008,
      "making": 3009,
      "ply": 3010,
      "song": 3011,
      "22": 3012,
      "bar": 3013,
      "cities": 3014,
      "ren": 3015,
      "rote": 3016,
      "accoun": 3017,
      "accept": 3018,
      "idence": 3019,
      "possible": 3020,
      "career": 3021,
      "manag": 3022,
      "lost": 3023,
      "avy": 3024,
      "suggest": 3025,
      "Cup": 3026,
      "na": 3027,
      "anc": 3028,
      "But": 3029,
      "wa": 3030,
      "oss": 3031,
      "cricket": 3032,
      "joined": 3033,
      "acy": 3034,
      "specific": 3035,
      "ane": 3036,
      "sure": 3037,
      "ateg": 3038,
      "partment": 3039,
      "record": 3040,
      "Am": 3041,
      "Hu": 3042,
      "If": 3043,
      "got": 3044,
      "oto": 3045,
      "wrote": 3046,
      "Central": 3047,
      "High": 3048,
      "fair": 3049,
      "here": 3050,
      "pain": 3051,
      "concer": 3052,
      "version": 3053,
      "ator": 3054,
      "action": 3055,
      "food": 3056,
      "asing": 3057,
      "recent": 3058,
      "working": 3059,
      "signed": 3060,
      "vari": 3061,
      "vict": 3062,
      "enced": 3063,
      "entire": 3064,
      "bank": 3065,
      "dam": 3066,
      "jour": 3067,
      "ana": 3068,
      "ential": 3069,
      "lines": 3070,
      "London": 3071,
      "ier": 3072,
      "pite": 3073,
      "hon": 3074,
      "round": 3075,
      "stated": 3076,
      "access": 3077,
      "osed": 3078,
      "ption": 3079,
      "original": 3080,
      "character": 3081,
      "Cor": 3082,
      "glo": 3083,
      "offer": 3084,
      "sty": 3085,
      "plann": 3086,
      "police": 3087,
      "private": 3088,
      "bi": 3089,
      "either": 3090,
      "sometimes": 3091,
      "administr": 3092,
      "quest": 3093,
      "umb": 3094,
      "party": 3095,
      "Ira": 3096,
      "ops": 3097,
      "leaders": 3098,
      "commercial": 3099,
      "mot": 3100,
      "Asian": 3101,
      "cal": 3102,
      "fall": 3103,
      "fail": 3104,
      "ges": 3105,
      "atch": 3106,
      "Armen": 3107,
      "president": 3108,
      "My": 3109,
      "command": 3110,
      "media": 3111,
      "liter": 3112,
      "ending": 3113,
      "medi": 3114,
      "begin": 3115,
      "Tw": 3116,
      "books": 3117,
      "word": 3118,
      "worked": 3119,
      "ored": 3120,
      "seen": 3121,
      "olk": 3122,
      "throughout": 3123,
      "Iraq": 3124,
      "ened": 3125,
      "Day": 3126,
      "Su": 3127,
      "cop": 3128,
      "itive": 3129,
      "believed": 3130,
      "ley": 3131,
      "icle": 3132,
      "peace": 3133,
      "gave": 3134,
      "together": 3135,
      "appoint": 3136,
      "experi": 3137,
      "suf": 3138,
      "stitute": 3139,
      "Russia": 3140,
      "acc": 3141,
      "Rom": 3142,
      "happ": 3143,
      "ani": 3144,
      "finan": 3145,
      "community": 3146,
      "aper": 3147,
      "ights": 3148,
      "means": 3149,
      "Gree": 3150,
      "Pri": 3151,
      "hol": 3152,
      "transport": 3153,
      "Indon": 3154,
      "Indones": 3155,
      "Dh": 3156,
      "money": 3157,
      "ues": 3158,
      "across": 3159,
      "comes": 3160,
      "provide": 3161,
      "Wom": 3162,
      "model": 3163,
      "operation": 3164,
      "culture": 3165,
      "marriage": 3166,
      "aut": 3167,
      "bl": 3168,
      "case": 3169,
      "industry": 3170,
      "mor": 3171,
      "rain": 3172,
      "inci": 3173,
      "having": 3174,
      "type": 3175,
      "generally": 3176,
      "cret": 3177,
      "himself": 3178,
      "sexual": 3179,
      "80": 3180,
      "Sc": 3181,
      "Vi": 3182,
      "vo": 3183,
      "argu": 3184,
      "events": 3185,
      "Kar": 3186,
      "cup": 3187,
      "thus": 3188,
      "2001": 3189,
      "Its": 3190,
      "compu": 3191,
      "languages": 3192,
      "Khan": 3193,
      "Jew": 3194,
      "zer": 3195,
      "era": 3196,
      "Malay": 3197,
      "date": 3198,
      "irst": 3199,
      "live": 3200,
      "female": 3201,
      "exper": 3202,
      "cultural": 3203,
      "Sing": 3204,
      "ender": 3205,
      "space": 3206,
      "introduced": 3207,
      "docu": 3208,
      "ery": 3209,
      "assist": 3210,
      "appeared": 3211,
      "claimed": 3212,
      "young": 3213,
      "Em": 3214,
      "anish": 3215,
      "upon": 3216,
      "decided": 3217,
      "schools": 3218,
      "movement": 3219,
      "Sun": 3220,
      "Germany": 3221,
      "TV": 3222,
      "ming": 3223,
      "rate": 3224,
      "television": 3225,
      "70": 3226,
      "Emp": 3227,
      "science": 3228,
      "revol": 3229,
      "ilities": 3230,
      "amb": 3231,
      "imin": 3232,
      "cases": 3233,
      "cir": 3234,
      "speak": 3235,
      "America": 3236,
      "training": 3237,
      "pay": 3238,
      "hom": 3239,
      "migr": 3240,
      "wi": 3241,
      "anal": 3242,
      "almost": 3243,
      "tained": 3244,
      "istry": 3245,
      "Hindu": 3246,
      "cle": 3247,
      "dri": 3248,
      "fort": 3249,
      "related": 3250,
      "hib": 3251,
      "ners": 3252,
      "stre": 3253,
      "territ": 3254,
      "istic": 3255,
      "log": 3256,
      "km": 3257,
      "look": 3258,
      "Kingdom": 3259,
      "companies": 3260,
      "island": 3261,
      "earth": 3262,
      "liament": 3263,
      "produced": 3264,
      "south": 3265,
      "earli": 3266,
      "outside": 3267,
      "Bengali": 3268,
      "First": 3269,
      "Great": 3270,
      "IC": 3271,
      "bes": 3272,
      "tro": 3273,
      "Reg": 3274,
      "organiz": 3275,
      "source": 3276,
      "Party": 3277,
      "labor": 3278,
      "NA": 3279,
      "environment": 3280,
      "oftw": 3281,
      "owned": 3282,
      "increased": 3283,
      "week": 3284,
      "football": 3285,
      "500": 3286,
      "Sal": 3287,
      "arily": 3288,
      "story": 3289,
      "mob": 3290,
      "living": 3291,
      "mean": 3292,
      "189": 3293,
      "soldi": 3294,
      "destroy": 3295,
      "citiz": 3296,
      "cul": 3297,
      "fire": 3298,
      "mal": 3299,
      "mid": 3300,
      "adop": 3301,
      "spir": 3302,
      "redu": 3303,
      "allowed": 3304,
      "demand": 3305,
      "visit": 3306,
      "Associ": 3307,
      "north": 3308,
      "hun": 3309,
      "ties": 3310,
      "ioned": 3311,
      "ples": 3312,
      "bridge": 3313,
      "changed": 3314,
      "broad": 3315,
      "married": 3316,
      "oftware": 3317,
      "Fil": 3318,
      "Go": 3319,
      "aries": 3320,
      "independence": 3321,
      "eight": 3322,
      "ror": 3323,
      "respect": 3324,
      "ators": 3325,
      "semb": 3326,
      "emer": 3327,
      "coming": 3328,
      "higher": 3329,
      "Empire": 3330,
      "Will": 3331,
      "erous": 3332,
      "super": 3333,
      "Chic": 3334,
      "dress": 3335,
      "break": 3336,
      "Dhaka": 3337,
      "Budd": 3338,
      "tre": 3339,
      "relations": 3340,
      "selves": 3341,
      "Christian": 3342,
      "School": 3343,
      "mas": 3344,
      "eds": 3345,
      "proposed": 3346,
      "ength": 3347,
      "remained": 3348,
      "village": 3349,
      "Bank": 3350,
      "Pers": 3351,
      "draw": 3352,
      "foc": 3353,
      "mater": 3354,
      "lived": 3355,
      "colon": 3356,
      "nic": 3357,
      "intern": 3358,
      "League": 3359,
      "ready": 3360,
      "designed": 3361,
      "Palest": 3362,
      "enn": 3363,
      "ount": 3364,
      "once": 3365,
      "ousand": 3366,
      "operations": 3367,
      "Phil": 3368,
      "black": 3369,
      "phas": 3370,
      "sat": 3371,
      "uk": 3372,
      "eth": 3373,
      "fight": 3374,
      "soon": 3375,
      "capt": 3376,
      "followed": 3377,
      "communic": 3378,
      "Im": 3379,
      "iment": 3380,
      "terms": 3381,
      "poor": 3382,
      "elected": 3383,
      "promot": 3384,
      "critic": 3385,
      "Nations": 3386,
      "hous": 3387,
      "ull": 3388,
      "subject": 3389,
      "ademy": 3390,
      "Delhi": 3391,
      "Mad": 3392,
      "ove": 3393,
      "ancient": 3394,
      "ention": 3395,
      "condu": 3396,
      "highest": 3397,
      "data": 3398,
      "past": 3399,
      "Syri": 3400,
      "Cal": 3401,
      "ox": 3402,
      "astern": 3403,
      "enter": 3404,
      "ify": 3405,
      "regular": 3406,
      "majority": 3407,
      "Cour": 3408,
      "aign": 3409,
      "ecut": 3410,
      "saw": 3411,
      "keep": 3412,
      "aircraft": 3413,
      "flict": 3414,
      "Colle": 3415,
      "Geor": 3416,
      "ospital": 3417,
      "Bur": 3418,
      "Qu": 3419,
      "River": 3420,
      "nel": 3421,
      "uge": 3422,
      "concept": 3423,
      "currently": 3424,
      "provided": 3425,
      "referred": 3426,
      "involved": 3427,
      "friend": 3428,
      "clear": 3429,
      "eve": 3430,
      "mis": 3431,
      "western": 3432,
      "onom": 3433,
      "ney": 3434,
      "quar": 3435,
      "brother": 3436,
      "Fin": 3437,
      "billion": 3438,
      "uries": 3439,
      "31": 3440,
      "arrest": 3441,
      "ches": 3442,
      "und": 3443,
      "distribut": 3444,
      "situ": 3445,
      "gl": 3446,
      "2017": 3447,
      "meas": 3448,
      "completed": 3449,
      "Ber": 3450,
      "eder": 3451,
      "thought": 3452,
      "woman": 3453,
      "little": 3454,
      "sele": 3455,
      "express": 3456,
      "Commission": 3457,
      "declared": 3458,
      "Later": 3459,
      "Roy": 3460,
      "mass": 3461,
      "mitted": 3462,
      "Offic": 3463,
      "Korea": 3464,
      "appointed": 3465,
      "financial": 3466,
      "security": 3467,
      "uture": 3468,
      "teach": 3469,
      "active": 3470,
      "estimated": 3471,
      "IS": 3472,
      "hot": 3473,
      "edit": 3474,
      "ark": 3475,
      "too": 3476,
      "anti": 3477,
      "love": 3478,
      "away": 3479,
      "themselves": 3480,
      "Spanish": 3481,
      "eventually": 3482,
      "Earth": 3483,
      "bur": 3484,
      "alb": 3485,
      "chol": 3486,
      "teen": 3487,
      "ledge": 3488,
      "names": 3489,
      "policy": 3490,
      "Mic": 3491,
      "border": 3492,
      "Char": 3493,
      "brought": 3494,
      "Ali": 3495,
      "Nep": 3496,
      "hours": 3497,
      "pred": 3498,
      "increase": 3499,
      "wife": 3500,
      "Jer": 3501,
      "Mon": 3502,
      "Mah": 3503,
      "fig": 3504,
      "pot": 3505,
      "occup": 3506,
      "society": 3507,
      "Mac": 3508,
      "Other": 3509,
      "cu": 3510,
      "gas": 3511,
      "rank": 3512,
      "princi": 3513,
      "Britain": 3514,
      "expand": 3515,
      "problems": 3516,
      "threat": 3517,
      "contract": 3518,
      "conflict": 3519,
      "affic": 3520,
      "workers": 3521,
      "office": 3522,
      "teams": 3523,
      "employment": 3524,
      "sw": 3525,
      "organization": 3526,
      "complex": 3527,
      "matches": 3528,
      "activities": 3529,
      "ountain": 3530,
      "passeng": 3531,
      "graphy": 3532,
      "omin": 3533,
      "forced": 3534,
      "ems": 3535,
      "lower": 3536,
      "subsequ": 3537,
      "style": 3538,
      "thousand": 3539,
      "star": 3540,
      "religion": 3541,
      "independent": 3542,
      "soldiers": 3543,
      "35": 3544,
      "fav": 3545,
      "thers": 3546,
      "ush": 3547,
      "carri": 3548,
      "surv": 3549,
      "constructed": 3550,
      "today": 3551,
      "print": 3552,
      "bert": 3553,
      "ampion": 3554,
      "consider": 3555,
      "approxim": 3556,
      "Middle": 3557,
      "SA": 3558,
      "hard": 3559,
      "nes": 3560,
      "vice": 3561,
      "west": 3562,
      "wood": 3563,
      "itself": 3564,
      "oute": 3565,
      "ute": 3566,
      "pose": 3567,
      "Congress": 3568,
      "tax": 3569,
      "Two": 3570,
      "Chicago": 3571,
      "Ti": 3572,
      "game": 3573,
      "govern": 3574,
      "nation": 3575,
      "sold": 3576,
      "reme": 3577,
      "ference": 3578,
      "rule": 3579,
      "campaign": 3580,
      "ae": 3581,
      "fel": 3582,
      "fif": 3583,
      "software": 3584,
      "limited": 3585,
      "increasing": 3586,
      "influence": 3587,
      "particularly": 3588,
      "asons": 3589,
      "Church": 3590,
      "leading": 3591,
      "Ministry": 3592,
      "associated": 3593,
      "College": 3594,
      "Per": 3595,
      "Sha": 3596,
      "ara": 3597,
      "ild": 3598,
      "evidence": 3599,
      "indic": 3600,
      "Canada": 3601,
      "Company": 3602,
      "Roman": 3603,
      "1991": 3604,
      "economy": 3605,
      "Park": 3606,
      "personal": 3607,
      "bit": 3608,
      "inj": 3609,
      "instru": 3610,
      "stant": 3611,
      "vement": 3612,
      "divided": 3613,
      "instead": 3614,
      "always": 3615,
      "iles": 3616,
      "according": 3617,
      "required": 3618,
      "relationship": 3619,
      "Bh": 3620,
      "pal": 3621,
      "sess": 3622,
      "stop": 3623,
      "van": 3624,
      "arm": 3625,
      "technology": 3626,
      "Road": 3627,
      "Cricket": 3628,
      "El": 3629,
      "scor": 3630,
      "via": 3631,
      "cele": 3632,
      "idents": 3633,
      "photo": 3634,
      "primary": 3635,
      "traditional": 3636,
      "album": 3637,
      "aver": 3638,
      "inc": 3639,
      "oples": 3640,
      "river": 3641,
      "corpor": 3642,
      "Art": 3643,
      "launched": 3644,
      "god": 3645,
      "tion": 3646,
      "icide": 3647,
      "icles": 3648,
      "etro": 3649,
      "ficult": 3650,
      "coast": 3651,
      "publish": 3652,
      "function": 3653,
      "Sri": 3654,
      "future": 3655,
      "tom": 3656,
      "acqu": 3657,
      "traffic": 3658,
      "difficult": 3659,
      "release": 3660,
      "dre": 3661,
      "fish": 3662,
      "lex": 3663,
      "mode": 3664,
      "achi": 3665,
      "famil": 3666,
      "refuge": 3667,
      "reached": 3668,
      "Association": 3669,
      "90": 3670,
      "Mos": 3671,
      "San": 3672,
      "towards": 3673,
      "ster": 3674,
      "urban": 3675,
      "pected": 3676,
      "remains": 3677,
      "believe": 3678,
      "beginning": 3679,
      "sembly": 3680,
      "Mor": 3681,
      "dig": 3682,
      "ari": 3683,
      "imp": 3684,
      "university": 3685,
      "Revolution": 3686,
      "bloc": 3687,
      "ond": 3688,
      "election": 3689,
      "cript": 3690,
      "plement": 3691,
      "FA": 3692,
      "give": 3693,
      "ergy": 3694,
      "stor": 3695,
      "applic": 3696,
      "rather": 3697,
      "1999": 3698,
      "Eastern": 3699,
      "fre": 3700,
      "jud": 3701,
      "reason": 3702,
      "ids": 3703,
      "transl": 3704,
      "Academy": 3705,
      "changes": 3706,
      "issues": 3707,
      "Turk": 3708,
      "Red": 3709,
      "object": 3710,
      "originally": 3711,
      "types": 3712,
      "Both": 3713,
      "ns": 3714,
      "room": 3715,
      "regions": 3716,
      "players": 3717,
      "useum": 3718,
      "organis": 3719,
      "knowledge": 3720,
      "Hist": 3721,
      "sa": 3722,
      "aps": 3723,
      "newsp": 3724,
      "consist": 3725,
      "buildings": 3726,
      "recorded": 3727,
      "risk": 3728,
      "agreement": 3729,
      "troops": 3730,
      "Bra": 3731,
      "ceed": 3732,
      "flag": 3733,
      "officially": 3734,
      "added": 3735,
      "prison": 3736,
      "text": 3737,
      "ony": 3738,
      "stage": 3739,
      "1996": 3740,
      "Despite": 3741,
      "celebr": 3742,
      "aur": 3743,
      "fa": 3744,
      "ock": 3745,
      "location": 3746,
      "Department": 3747,
      "worlds": 3748,
      "Soci": 3749,
      "Prime": 3750,
      "Arabic": 3751,
      "title": 3752,
      "Dr": 3753,
      "Lat": 3754,
      "Raj": 3755,
      "qual": 3756,
      "spread": 3757,
      "minister": 3758,
      "1990": 3759,
      "prevent": 3760,
      "ification": 3761,
      "Gre": 3762,
      "Hong": 3763,
      "Saudi": 3764,
      "cel": 3765,
      "Commit": 3766,
      "fully": 3767,
      "course": 3768,
      "separate": 3769,
      "discovered": 3770,
      "Kong": 3771,
      "hood": 3772,
      "oil": 3773,
      "demon": 3774,
      "mos": 3775,
      "medical": 3776,
      "color": 3777,
      "issue": 3778,
      "job": 3779,
      "tail": 3780,
      "aled": 3781,
      "19th": 3782,
      "1998": 3783,
      "gency": 3784,
      "court": 3785,
      "scientific": 3786,
      "organizations": 3787,
      "Cam": 3788,
      "base": 3789,
      "dy": 3790,
      "nations": 3791,
      "pp": 3792,
      "protest": 3793,
      "mostly": 3794,
      "status": 3795,
      "widely": 3796,
      "historical": 3797,
      "computer": 3798,
      "material": 3799,
      "nuc": 3800,
      "nature": 3801,
      "atter": 3802,
      "20th": 3803,
      "discus": 3804,
      "create": 3805,
      "1997": 3806,
      "radio": 3807,
      "House": 3808,
      "gg": 3809,
      "havi": 3810,
      "fected": 3811,
      "2002": 3812,
      "idea": 3813,
      "capac": 3814,
      "Court": 3815,
      "Follow": 3816,
      "Institute": 3817,
      "minor": 3818,
      "parents": 3819,
      "You": 3820,
      "isl": 3821,
      "uni": 3822,
      "exam": 3823,
      "brary": 3824,
      "Group": 3825,
      "studies": 3826,
      "revolution": 3827,
      "Lank": 3828,
      "hor": 3829,
      "attract": 3830,
      "forman": 3831,
      "except": 3832,
      "Another": 3833,
      "Commun": 3834,
      "famous": 3835,
      "activity": 3836,
      "Nepal": 3837,
      "Kolk": 3838,
      "cing": 3839,
      "univers": 3840,
      "lives": 3841,
      "aily": 3842,
      "transfer": 3843,
      "runs": 3844,
      "document": 3845,
      "Spe": 3846,
      "mic": 3847,
      "church": 3848,
      "Develop": 3849,
      "fourth": 3850,
      "caused": 3851,
      "distin": 3852,
      "Royal": 3853,
      "Ah": 3854,
      "Ste": 3855,
      "Ze": 3856,
      "whe": 3857,
      "inn": 3858,
      "front": 3859,
      "structure": 3860,
      "growth": 3861,
      "better": 3862,
      "network": 3863,
      "journal": 3864,
      "Following": 3865,
      "big": 3866,
      "ising": 3867,
      "deli": 3868,
      "plom": 3869,
      "actions": 3870,
      "board": 3871,
      "Force": 3872,
      "mbol": 3873,
      "practice": 3874,
      "physical": 3875,
      "Olympic": 3876,
      "Not": 3877,
      "Ot": 3878,
      "atory": 3879,
      "atives": 3880,
      "Muham": 3881,
      "global": 3882,
      "approximately": 3883,
      "ps": 3884,
      "sto": 3885,
      "schol": 3886,
      "deal": 3887,
      "news": 3888,
      "conditions": 3889,
      "Airport": 3890,
      "provin": 3891,
      "dou": 3892,
      "fied": 3893,
      "kind": 3894,
      "execut": 3895,
      "necess": 3896,
      "aving": 3897,
      "sych": 3898,
      "relative": 3899,
      "build": 3900,
      "African": 3901,
      "Moh": 3902,
      "track": 3903,
      "agric": 3904,
      "akh": 3905,
      "whose": 3906,
      "agricult": 3907,
      "fast": 3908,
      "ala": 3909,
      "sea": 3910,
      "plied": 3911,
      "commiss": 3912,
      "leader": 3913,
      "supported": 3914,
      "Games": 3915,
      "List": 3916,
      "aud": 3917,
      "behavi": 3918,
      "section": 3919,
      "cts": 3920,
      "ayed": 3921,
      "domin": 3922,
      "hundr": 3923,
      "Tibet": 3924,
      "Committee": 3925,
      "Kolkata": 3926,
      "daugh": 3927,
      "might": 3928,
      "rid": 3929,
      "constitution": 3930,
      "abad": 3931,
      "ains": 3932,
      "Chap": 3933,
      "temple": 3934,
      "Development": 3935,
      "iam": 3936,
      "already": 3937,
      "chief": 3938,
      "includes": 3939,
      "Trans": 3940,
      "sources": 3941,
      "discuss": 3942,
      "Muhammad": 3943,
      "33": 3944,
      "CO": 3945,
      "pen": 3946,
      "osop": 3947,
      "reser": 3948,
      "aff": 3949,
      "1993": 3950,
      "rown": 3951,
      "Abd": 3952,
      "initially": 3953,
      "range": 3954,
      "gold": 3955,
      "tourn": 3956,
      "find": 3957,
      "Paris": 3958,
      "Greek": 3959,
      "75": 3960,
      "uel": 3961,
      "asked": 3962,
      "dead": 3963,
      "1995": 3964,
      "novel": 3965,
      "larger": 3966,
      "Maldi": 3967,
      "response": 3968,
      "mobile": 3969,
      "Tri": 3970,
      "ho": 3971,
      "ix": 3972,
      "route": 3973,
      "usal": 3974,
      "suicide": 3975,
      "symbol": 3976,
      "website": 3977,
      "capacity": 3978,
      "--": 3979,
      "rich": 3980,
      "wanted": 3981,
      "atre": 3982,
      "ford": 3983,
      "ires": 3984,
      "deb": 3985,
      "tres": 3986,
      "directly": 3987,
      "Ed": 3988,
      "bound": 3989,
      "east": 3990,
      "za": 3991,
      "estic": 3992,
      "pri": 3993,
      "centuries": 3994,
      "whole": 3995,
      "numbers": 3996,
      "results": 3997,
      "planned": 3998,
      "Women": 3999,
      "destroyed": 4000,
      "Dav": 4001,
      "Pre": 4002,
      "gent": 4003,
      "chann": 4004,
      "white": 4005,
      "prob": 4006,
      "features": 4007,
      "professional": 4008,
      "management": 4009,
      "blood": 4010,
      "ring": 4011,
      "forts": 4012,
      "ests": 4013,
      "quick": 4014,
      "elections": 4015,
      "Human": 4016,
      "categ": 4017,
      "your": 4018,
      "stations": 4019,
      "imate": 4020,
      "performan": 4021,
      "igned": 4022,
      "186": 4023,
      "Second": 4024,
      "supply": 4025,
      "standing": 4026,
      "archite": 4027,
      "girls": 4028,
      "Ap": 4029,
      "Cap": 4030,
      "ensive": 4031,
      "units": 4032,
      "conf": 4033,
      "whom": 4034,
      "northern": 4035,
      "orders": 4036,
      "recognized": 4037,
      "...": 4038,
      "Film": 4039,
      "demonstr": 4040,
      "fare": 4041,
      "sus": 4042,
      "infr": 4043,
      "closed": 4044,
      "188": 4045,
      "prepar": 4046,
      "going": 4047,
      "Bangladeshi": 4048,
      "attacks": 4049,
      "strial": 4050,
      "individuals": 4051,
      "Tha": 4052,
      "bow": 4053,
      "ij": 4054,
      "assi": 4055,
      "immedi": 4056,
      "Their": 4057,
      "utes": 4058,
      "words": 4059,
      "weap": 4060,
      "passed": 4061,
      "fairs": 4062,
      "Otto": 4063,
      "Pa": 4064,
      "frequ": 4065,
      "hus": 4066,
      "ufact": 4067,
      "inte": 4068,
      "enough": 4069,
      "aring": 4070,
      "implement": 4071,
      "vert": 4072,
      "center": 4073,
      "1994": 4074,
      "mainly": 4075,
      "playing": 4076,
      "animals": 4077,
      "Os": 4078,
      "cand": 4079,
      "nearly": 4080,
      "above": 4081,
      "counter": 4082,
      "awarded": 4083,
      "helped": 4084,
      "typically": 4085,
      "southern": 4086,
      "Bel": 4087,
      "battle": 4088,
      "ping": 4089,
      "sec": 4090,
      "veh": 4091,
      "unit": 4092,
      "aves": 4093,
      "phone": 4094,
      "interview": 4095,
      "officials": 4096,
      "summer": 4097,
      "competition": 4098,
      "suffer": 4099,
      "Lin": 4100,
      "ico": 4101,
      "ower": 4102,
      "diplom": 4103,
      "neigh": 4104,
      "box": 4105,
      "That": 4106,
      "earlier": 4107,
      "Bat": 4108,
      "gar": 4109,
      "sal": 4110,
      "ask": 4111,
      "rover": 4112,
      "estival": 4113,
      "Thus": 4114,
      "cannot": 4115,
      "likely": 4116,
      "magaz": 4117,
      "Italy": 4118,
      "mosque": 4119,
      "ugu": 4120,
      "step": 4121,
      "Intern": 4122,
      "ope": 4123,
      "size": 4124,
      "iple": 4125,
      "spent": 4126,
      "numerous": 4127,
      "writing": 4128,
      "approach": 4129,
      "Swed": 4130,
      "violence": 4131,
      "ena": 4132,
      "adium": 4133,
      "address": 4134,
      "verse": 4135,
      "occas": 4136,
      "carry": 4137,
      "standard": 4138,
      "Australian": 4139,
      "Distr": 4140,
      "UK": 4141,
      "bomb": 4142,
      "sil": 4143,
      "ederal": 4144,
      "amed": 4145,
      "phil": 4146,
      "player": 4147,
      "domestic": 4148,
      "Society": 4149,
      "husband": 4150,
      "Year": 4151,
      "ben": 4152,
      "gree": 4153,
      "mur": 4154,
      "energy": 4155,
      "aland": 4156,
      "ays": 4157,
      "speed": 4158,
      "annual": 4159,
      "join": 4160,
      "Ken": 4161,
      "Sm": 4162,
      "Tal": 4163,
      "lor": 4164,
      "sl": 4165,
      "wan": 4166,
      "institut": 4167,
      "edom": 4168,
      "auto": 4169,
      "Under": 4170,
      "controver": 4171,
      "issued": 4172,
      "primarily": 4173,
      "ethnic": 4174,
      "Jerusal": 4175,
      "District": 4176,
      "Found": 4177,
      "More": 4178,
      "Rail": 4179,
      "Sup": 4180,
      "flow": 4181,
      "ador": 4182,
      "emb": 4183,
      "Ang": 4184,
      "goal": 4185,
      "1980s": 4186,
      "sett": 4187,
      "belief": 4188,
      "taking": 4189,
      "electric": 4190,
      "habit": 4191,
      "Hol": 4192,
      "Ter": 4193,
      "done": 4194,
      "iel": 4195,
      "mir": 4196,
      "anch": 4197,
      "istics": 4198,
      "code": 4199,
      "cru": 4200,
      "defined": 4201,
      "engineering": 4202,
      "territory": 4203,
      "Lord": 4204,
      "kil": 4205,
      "mountain": 4206,
      "inent": 4207,
      "produce": 4208,
      "1971": 4209,
      "sibility": 4210,
      "Buddhist": 4211,
      "average": 4212,
      "Each": 4213,
      "Miss": 4214,
      "tell": 4215,
      "icip": 4216,
      "demo": 4217,
      "manufact": 4218,
      "acts": 4219,
      "actor": 4220,
      "commonly": 4221,
      "observ": 4222,
      "previously": 4223,
      "candid": 4224,
      "Black": 4225,
      "Jord": 4226,
      "Mc": 4227,
      "Sim": 4228,
      "cross": 4229,
      "fle": 4230,
      "hospital": 4231,
      "nia": 4232,
      "wal": 4233,
      "vey": 4234,
      "ows": 4235,
      "division": 4236,
      "formal": 4237,
      "longer": 4238,
      "director": 4239,
      "aught": 4240,
      "tructure": 4241,
      "Singap": 4242,
      "Pub": 4243,
      "Ram": 4244,
      "Tim": 4245,
      "nt": 4246,
      "degree": 4247,
      "concl": 4248,
      "serve": 4249,
      "wealth": 4250,
      "treatment": 4251,
      "Viet": 4252,
      "adopted": 4253,
      "Palestin": 4254,
      "Philip": 4255,
      "houses": 4256,
      "Bhut": 4257,
      "Ottoman": 4258,
      "45": 4259,
      "Sam": 4260,
      "ert": 4261,
      "encies": 4262,
      "users": 4263,
      "ott": 4264,
      "resour": 4265,
      "ously": 4266,
      "represented": 4267,
      "friends": 4268,
      "investig": 4269,
      "railway": 4270,
      "songs": 4271,
      "earthqu": 4272,
      "Award": 4273,
      "Dis": 4274,
      "Tod": 4275,
      "flo": 4276,
      "male": 4277,
      "reli": 4278,
      "cell": 4279,
      "centre": 4280,
      "serious": 4281,
      "creation": 4282,
      "regard": 4283,
      "Assembly": 4284,
      "collect": 4285,
      "womens": 4286,
      "fund": 4287,
      "weeks": 4288,
      "Jewish": 4289,
      "citizens": 4290,
      "arrested": 4291,
      "Jerusalem": 4292,
      "Alex": 4293,
      "Cur": 4294,
      "Div": 4295,
      "FI": 4296,
      "mach": 4297,
      "pet": 4298,
      "confir": 4299,
      "feel": 4300,
      "positive": 4301,
      "efforts": 4302,
      "1992": 4303,
      "humans": 4304,
      "responsible": 4305,
      "meaning": 4306,
      "PA": 4307,
      "ky": 4308,
      "xed": 4309,
      "ites": 4310,
      "rob": 4311,
      "amount": 4312,
      "defe": 4313,
      "detail": 4314,
      "plant": 4315,
      "tea": 4316,
      "neg": 4317,
      "acting": 4318,
      "struct": 4319,
      "decision": 4320,
      "ordin": 4321,
      "basis": 4322,
      "sites": 4323,
      "problem": 4324,
      "Bal": 4325,
      "tor": 4326,
      "astructure": 4327,
      "reve": 4328,
      "below": 4329,
      "search": 4330,
      "chair": 4331,
      "performed": 4332,
      "ickets": 4333,
      "value": 4334,
      "equip": 4335,
      "account": 4336,
      "analys": 4337,
      "families": 4338,
      "Do": 4339,
      "ias": 4340,
      "oid": 4341,
      "heav": 4342,
      "expected": 4343,
      "raised": 4344,
      "park": 4345,
      "vention": 4346,
      "gradu": 4347,
      "ederation": 4348,
      "Vietnam": 4349,
      "Sou": 4350,
      "Wik": 4351,
      "altern": 4352,
      "visited": 4353,
      "organized": 4354,
      "scale": 4355,
      "property": 4356,
      "Indonesia": 4357,
      "nuclear": 4358,
      "Zealand": 4359,
      "Dar": 4360,
      "Metro": 4361,
      "length": 4362,
      "psych": 4363,
      "ram": 4364,
      "ases": 4365,
      "ements": 4366,
      "quality": 4367,
      "portun": 4368,
      "goods": 4369,
      "additional": 4370,
      "Korean": 4371,
      "tournament": 4372,
      "Civ": 4373,
      "Mong": 4374,
      "Po": 4375,
      "cere": 4376,
      "loss": 4377,
      "noted": 4378,
      "maintain": 4379,
      "laws": 4380,
      "Research": 4381,
      "failed": 4382,
      "Sum": 4383,
      "determin": 4384,
      "plans": 4385,
      "shall": 4386,
      "operating": 4387,
      "needed": 4388,
      "province": 4389,
      "Singapore": 4390,
      ".,": 4391,
      "gender": 4392,
      "ino": 4393,
      "esh": 4394,
      "armed": 4395,
      "arrang": 4396,
      "plat": 4397,
      "1990s": 4398,
      "regional": 4399,
      "levels": 4400,
      "philosop": 4401,
      "James": 4402,
      "Law": 4403,
      "Mumb": 4404,
      "Sat": 4405,
      "Sur": 4406,
      "Times": 4407,
      "ux": 4408,
      "progress": 4409,
      "coll": 4410,
      "points": 4411,
      "views": 4412,
      "agreed": 4413,
      "Portugu": 4414,
      "Armenian": 4415,
      "Syria": 4416,
      "400": 4417,
      "Dem": 4418,
      "Dire": 4419,
      "Sir": 4420,
      "scre": 4421,
      "atal": 4422,
      "itch": 4423,
      "told": 4424,
      "Inter": 4425,
      "ula": 4426,
      "opportun": 4427,
      "appears": 4428,
      "products": 4429,
      "rapid": 4430,
      "selected": 4431,
      "Civil": 4432,
      "Ku": 4433,
      "Over": 4434,
      "nine": 4435,
      "va": 4436,
      "arian": 4437,
      "leave": 4438,
      "Champion": 4439,
      "disput": 4440,
      "Then": 4441,
      "iction": 4442,
      "Center": 4443,
      "occurred": 4444,
      "cretary": 4445,
      "Portuguese": 4446,
      "burn": 4447,
      "things": 4448,
      "encour": 4449,
      "decre": 4450,
      "intended": 4451,
      "attended": 4452,
      "require": 4453,
      "Arabia": 4454,
      "Before": 4455,
      "eastern": 4456,
      "broadcast": 4457,
      "Lanka": 4458,
      "Che": 4459,
      "IA": 4460,
      "dro": 4461,
      "iy": 4462,
      "pair": 4463,
      "think": 4464,
      "astr": 4465,
      "olic": 4466,
      "classi": 4467,
      "Also": 4468,
      "aij": 4469,
      "student": 4470,
      "Spain": 4471,
      "holds": 4472,
      "Club": 4473,
      "spirit": 4474,
      "Azer": 4475,
      "Cath": 4476,
      "Ham": 4477,
      "bon": 4478,
      "inem": 4479,
      "oud": 4480,
      "debut": 4481,
      "developing": 4482,
      "1970s": 4483,
      "Parliament": 4484,
      "shows": 4485,
      "protect": 4486,
      "wait": 4487,
      "captured": 4488,
      "Latin": 4489,
      "Econom": 4490,
      "fill": 4491,
      "ti": 4492,
      "perman": 4493,
      "restrict": 4494,
      "affected": 4495,
      "Arch": 4496,
      "award": 4497,
      "visions": 4498,
      "continent": 4499,
      "remaining": 4500,
      "Organ": 4501,
      "arrived": 4502,
      "Italian": 4503,
      "meeting": 4504,
      "integr": 4505,
      "Jordan": 4506,
      "Gold": 4507,
      "ograph": 4508,
      "rom": 4509,
      "rural": 4510,
      "yet": 4511,
      "orial": 4512,
      "minutes": 4513,
      "ension": 4514,
      "Author": 4515,
      "presented": 4516,
      "covered": 4517,
      "purpose": 4518,
      "takes": 4519,
      "effects": 4520,
      "recognition": 4521,
      "Israeli": 4522,
      "Persian": 4523,
      "necessary": 4524,
      "Bet": 4525,
      "Def": 4526,
      "Old": 4527,
      "hind": 4528,
      "middle": 4529,
      "inf": 4530,
      "ona": 4531,
      "lying": 4532,
      "terror": 4533,
      "share": 4534,
      "regul": 4535,
      "tensive": 4536,
      "governments": 4537,
      "porary": 4538,
      "authority": 4539,
      "terminal": 4540,
      "college": 4541,
      "experience": 4542,
      "situation": 4543,
      "Internet": 4544,
      "dance": 4545,
      "gain": 4546,
      "wall": 4547,
      "itation": 4548,
      "replaced": 4549,
      "chall": 4550,
      "compl": 4551,
      "register": 4552,
      "1960s": 4553,
      "Pakistani": 4554,
      "electron": 4555,
      "provides": 4556,
      "says": 4557,
      "vote": 4558,
      "girl": 4559,
      "accepted": 4560,
      "benef": 4561,
      "Today": 4562,
      "Mumbai": 4563,
      "\".": 4564,
      "Sub": 4565,
      "Sever": 4566,
      "Ur": 4567,
      "ease": 4568,
      "tim": 4569,
      "anz": 4570,
      "alleg": 4571,
      "anda": 4572,
      "icated": 4573,
      "prior": 4574,
      "perform": 4575,
      "Thom": 4576,
      "bring": 4577,
      "drug": 4578,
      "identified": 4579,
      "officers": 4580,
      "charge": 4581,
      "controlled": 4582,
      "receive": 4583,
      "projects": 4584,
      "authorities": 4585,
      "safe": 4586,
      "whether": 4587,
      "bad": 4588,
      "reasons": 4589,
      "older": 4590,
      "utch": 4591,
      "achie": 4592,
      "spok": 4593,
      "Ass": 4594,
      "worldwide": 4595,
      "video": 4596,
      "Maldives": 4597,
      "democr": 4598,
      "55": 4599,
      "Mag": 4600,
      "baij": 4601,
      "games": 4602,
      "rat": 4603,
      "rates": 4604,
      "sen": 4605,
      "indi": 4606,
      "edia": 4607,
      "ison": 4608,
      "chan": 4609,
      "dev": 4610,
      "usion": 4611,
      "ume": 4612,
      "oldest": 4613,
      "smaller": 4614,
      "places": 4615,
      "multiple": 4616,
      "carried": 4617,
      "scored": 4618,
      "quickly": 4619,
      "Public": 4620,
      "Bhutan": 4621,
      "Azerbaij": 4622,
      "Battle": 4623,
      "Time": 4624,
      "batt": 4625,
      "cam": 4626,
      "cow": 4627,
      "fear": 4628,
      "rise": 4629,
      "ares": 4630,
      "rock": 4631,
      "iving": 4632,
      "kept": 4633,
      "surround": 4634,
      "continue": 4635,
      "literature": 4636,
      "William": 4637,
      "Mongol": 4638,
      "ceremon": 4639,
      "SR": 4640,
      "rare": 4641,
      "atar": 4642,
      "aces": 4643,
      "aint": 4644,
      "shown": 4645,
      "1973": 4646,
      "150": 4647,
      "Social": 4648,
      "venue": 4649,
      "equal": 4650,
      "iverse": 4651,
      "infrastructure": 4652,
      "weapons": 4653,
      "AI": 4654,
      "Bol": 4655,
      "Edu": 4656,
      "Mex": 4657,
      "Navy": 4658,
      "Val": 4659,
      "wind": 4660,
      "becoming": 4661,
      "true": 4662,
      "load": 4663,
      "preser": 4664,
      "1985": 4665,
      "industrial": 4666,
      "programs": 4667,
      "makes": 4668,
      "initi": 4669,
      "36": 4670,
      "Str": 4671,
      "Tar": 4672,
      "tun": 4673,
      "want": 4674,
      "ander": 4675,
      "stone": 4676,
      "uran": 4677,
      "abs": 4678,
      "assy": 4679,
      "mathem": 4680,
      "jected": 4681,
      "popul": 4682,
      "fields": 4683,
      "villages": 4684,
      "Turkish": 4685,
      "Ke": 4686,
      "gets": 4687,
      "rout": 4688,
      "tic": 4689,
      "entered": 4690,
      "extensive": 4691,
      "hair": 4692,
      "odes": 4693,
      "Constitution": 4694,
      "reports": 4695,
      "passengers": 4696,
      "44": 4697,
      "ES": 4698,
      "Lu": 4699,
      "academ": 4700,
      "deep": 4701,
      "conver": 4702,
      "187": 4703,
      "something": 4704,
      "joint": 4705,
      "improve": 4706,
      "experiment": 4707,
      "32": 4708,
      "300": 4709,
      "Tele": 4710,
      "Tai": 4711,
      "coup": 4712,
      "paid": 4713,
      "zil": 4714,
      "akes": 4715,
      "residents": 4716,
      "ultan": 4717,
      "countrys": 4718,
      "Only": 4719,
      "existence": 4720,
      "David": 4721,
      "Ir": 4722,
      "Pan": 4723,
      "drop": 4724,
      "gained": 4725,
      "lay": 4726,
      "ania": 4727,
      "1920": 4728,
      "liber": 4729,
      "loy": 4730,
      "powers": 4731,
      "greater": 4732,
      "basic": 4733,
      "daughter": 4734,
      "Govern": 4735,
      "aters": 4736,
      "rect": 4737,
      "heart": 4738,
      "behind": 4739,
      "cred": 4740,
      "therefore": 4741,
      "1970": 4742,
      "politics": 4743,
      "records": 4744,
      "newspaper": 4745,
      "Bl": 4746,
      "bour": 4747,
      "daily": 4748,
      "ga": 4749,
      "tress": 4750,
      "regarded": 4751,
      "weak": 4752,
      "expans": 4753,
      "studied": 4754,
      "turned": 4755,
      "offered": 4756,
      "administration": 4757,
      "subsequently": 4758,
      "Shah": 4759,
      "refugees": 4760,
      "institutions": 4761,
      "Foundation": 4762,
      "AD": 4763,
      "Sen": 4764,
      "bri": 4765,
      "pil": 4766,
      "stories": 4767,
      "div": 4768,
      "portion": 4769,
      "compared": 4770,
      "attention": 4771,
      "purch": 4772,
      "importance": 4773,
      "employe": 4774,
      "Robert": 4775,
      "Egyptian": 4776,
      "Educ": 4777,
      "Cy": 4778,
      "Far": 4779,
      "Ko": 4780,
      "Mer": 4781,
      "Pat": 4782,
      "pack": 4783,
      "anmar": 4784,
      "islands": 4785,
      "ested": 4786,
      "excl": 4787,
      "worth": 4788,
      "evil": 4789,
      "Indias": 4790,
      "Sea": 4791,
      "ordered": 4792,
      "communities": 4793,
      "target": 4794,
      "goti": 4795,
      "Myanmar": 4796,
      "conducted": 4797,
      "Batman": 4798,
      "Cali": 4799,
      "Hot": 4800,
      "Jo": 4801,
      "ging": 4802,
      "becomes": 4803,
      "opposition": 4804,
      "shot": 4805,
      "eval": 4806,
      "crime": 4807,
      "condition": 4808,
      "generation": 4809,
      "Liber": 4810,
      "advant": 4811,
      "Iranian": 4812,
      "probably": 4813,
      "Ben": 4814,
      "Fore": 4815,
      "ax": 4816,
      "thir": 4817,
      "inside": 4818,
      "inking": 4819,
      "heavy": 4820,
      "bey": 4821,
      "exhib": 4822,
      "parties": 4823,
      "strugg": 4824,
      "claims": 4825,
      "contains": 4826,
      "square": 4827,
      "Several": 4828,
      "65": 4829,
      "Bag": 4830,
      "Ho": 4831,
      "Pen": 4832,
      "bin": 4833,
      "bul": 4834,
      "gin": 4835,
      "ji": 4836,
      "ker": 4837,
      "pan": 4838,
      "ening": 4839,
      "removed": 4840,
      "grand": 4841,
      "poses": 4842,
      "cry": 4843,
      "flight": 4844,
      "capable": 4845,
      "highly": 4846,
      "1989": 4847,
      "legisl": 4848,
      "prominent": 4849,
      "County": 4850,
      "initial": 4851,
      "temper": 4852,
      "launch": 4853,
      "establishment": 4854,
      "Corpor": 4855,
      "George": 4856,
      "expanded": 4857,
      "performance": 4858,
      "resources": 4859,
      "earthquake": 4860,
      "han": 4861,
      "san": 4862,
      "illegal": 4863,
      "mental": 4864,
      "quant": 4865,
      "Argent": 4866,
      "crimin": 4867,
      "phy": 4868,
      "185": 4869,
      "extreme": 4870,
      "1945": 4871,
      "effective": 4872,
      "Board": 4873,
      "administrative": 4874,
      "quarters": 4875,
      "digital": 4876,
      "Philipp": 4877,
      "Bab": 4878,
      "OD": 4879,
      "Rob": 4880,
      "thes": 4881,
      "theast": 4882,
      "online": 4883,
      "eness": 4884,
      "stan": 4885,
      "ented": 4886,
      "ims": 4887,
      "owners": 4888,
      "ocr": 4889,
      "weight": 4890,
      "finally": 4891,
      "cutta": 4892,
      "methods": 4893,
      "circ": 4894,
      "Calcutta": 4895,
      "fifth": 4896,
      "provinces": 4897,
      "Authority": 4898,
      "Califor": 4899,
      "Awards": 4900,
      "Bu": 4901,
      "til": 4902,
      "wrest": 4903,
      "ern": 4904,
      "immigr": 4905,
      "pray": 4906,
      "negoti": 4907,
      "Chief": 4908,
      "pressure": 4909,
      "1972": 4910,
      "1981": 4911,
      "largely": 4912,
      "participated": 4913,
      "ullah": 4914,
      "Brazil": 4915,
      "immediately": 4916,
      "analysis": 4917,
      "Line": 4918,
      "MS": 4919,
      "PD": 4920,
      "Rah": 4921,
      "mill": 4922,
      "aug": 4923,
      "medic": 4924,
      "plays": 4925,
      "Because": 4926,
      "pression": 4927,
      "Peoples": 4928,
      "growing": 4929,
      "Catholic": 4930,
      "California": 4931,
      "DS": 4932,
      "bann": 4933,
      "flood": 4934,
      "sons": 4935,
      "sense": 4936,
      "youth": 4937,
      "ini": 4938,
      "itable": 4939,
      "iments": 4940,
      "ulf": 4941,
      "prop": 4942,
      "2018": 4943,
      "partners": 4944,
      "disease": 4945,
      "Island": 4946,
      "osex": 4947,
      "officer": 4948,
      "1986": 4949,
      "operated": 4950,
      "writer": 4951,
      "About": 4952,
      "facilities": 4953,
      "suggested": 4954,
      "thousands": 4955,
      "relatively": 4956,
      "murder": 4957,
      "39": 4958,
      "Ib": 4959,
      "gun": 4960,
      "nan": 4961,
      "table": 4962,
      "recomm": 4963,
      "tried": 4964,
      "izes": 4965,
      "contact": 4966,
      "highway": 4967,
      "What": 4968,
      "epis": 4969,
      "letter": 4970,
      "rules": 4971,
      "internal": 4972,
      "Paul": 4973,
      "diplomatic": 4974,
      "expansion": 4975,
      "osexual": 4976,
      "Dutch": 4977,
      "Key": 4978,
      "Lit": 4979,
      "Rich": 4980,
      "sac": 4981,
      "sun": 4982,
      "edition": 4983,
      "ises": 4984,
      "isters": 4985,
      "ctors": 4986,
      "apers": 4987,
      "article": 4988,
      "Stre": 4989,
      "1974": 4990,
      "settle": 4991,
      "decades": 4992,
      "influenced": 4993,
      "committee": 4994,
      "install": 4995,
      "Goog": 4996,
      "hotel": 4997,
      "behavior": 4998,
      "magazine": 4999,
      "Fre": 5000,
      "bab": 5001,
      "sched": 5002,
      "sides": 5003,
      "het": 5004,
      "chos": 5005,
      "iger": 5006,
      "igence": 5007,
      "affect": 5008,
      "Star": 5009,
      "interpre": 5010,
      "severe": 5011,
      "1947": 5012,
      "opening": 5013,
      "rupt": 5014,
      "begins": 5015,
      "collection": 5016,
      "damage": 5017,
      "honor": 5018,
      "phase": 5019,
      "fighting": 5020,
      "defeated": 5021,
      "Roh": 5022,
      "lers": 5023,
      "aspect": 5024,
      "managed": 5025,
      "astic": 5026,
      "parliament": 5027,
      "1975": 5028,
      "variety": 5029,
      "potential": 5030,
      "37": 5031,
      "Don": 5032,
      "Science": 5033,
      "TA": 5034,
      "Vict": 5035,
      "lot": 5036,
      "pie": 5037,
      "saf": 5038,
      "alone": 5039,
      "sets": 5040,
      "dia": 5041,
      "eles": 5042,
      "berg": 5043,
      "vie": 5044,
      "hero": 5045,
      "News": 5046,
      "resulted": 5047,
      "refers": 5048,
      "grew": 5049,
      "distance": 5050,
      "characters": 5051,
      "Turkey": 5052,
      "Foreign": 5053,
      "38": 5054,
      "Di": 5055,
      "Sar": 5056,
      "itage": 5057,
      "unknown": 5058,
      "compon": 5059,
      "boy": 5060,
      "spect": 5061,
      "mail": 5062,
      "1979": 5063,
      "extended": 5064,
      "normal": 5065,
      "running": 5066,
      "Khal": 5067,
      "allows": 5068,
      "Book": 5069,
      "Techn": 5070,
      "blue": 5071,
      "Malaysia": 5072,
      "freedom": 5073,
      "34": 5074,
      "CE": 5075,
      "Even": 5076,
      "Ha": 5077,
      "IV": 5078,
      "Tok": 5079,
      "mess": 5080,
      "wid": 5081,
      "atom": 5082,
      "adult": 5083,
      "belong": 5084,
      "dem": 5085,
      "exact": 5086,
      "artists": 5087,
      "shap": 5088,
      "peror": 5089,
      "actually": 5090,
      "coach": 5091,
      "ween": 5092,
      "cargo": 5093,
      "listed": 5094,
      "satell": 5095,
      "Between": 5096,
      "Corporation": 5097,
      "IP": 5098,
      "Quran": 5099,
      "din": 5100,
      "ka": 5101,
      "museum": 5102,
      "ington": 5103,
      "sector": 5104,
      "contr": 5105,
      "emp": 5106,
      "clos": 5107,
      "ficient": 5108,
      "council": 5109,
      "intell": 5110,
      "1980": 5111,
      "1950s": 5112,
      "saying": 5113,
      "connected": 5114,
      "impact": 5115,
      "block": 5116,
      "Palestinian": 5117,
      "Az": 5118,
      "How": 5119,
      "Sol": 5120,
      "Sah": 5121,
      "los": 5122,
      "pun": 5123,
      "sales": 5124,
      "enous": 5125,
      "ami": 5126,
      "conserv": 5127,
      "emen": 5128,
      "comment": 5129,
      "resol": 5130,
      "Health": 5131,
      "presence": 5132,
      "captain": 5133,
      "1988": 5134,
      "insur": 5135,
      "approved": 5136,
      "ruled": 5137,
      "faith": 5138,
      "distinct": 5139,
      "CA": 5140,
      "Pac": 5141,
      "Rad": 5142,
      "ode": 5143,
      "ingu": 5144,
      "roles": 5145,
      "trial": 5146,
      "ables": 5147,
      "Three": 5148,
      "phen": 5149,
      "elements": 5150,
      "1983": 5151,
      "techni": 5152,
      "Police": 5153,
      "royal": 5154,
      "animal": 5155,
      "morning": 5156,
      "stream": 5157,
      "Education": 5158,
      "Es": 5159,
      "Further": 5160,
      "Rel": 5161,
      "nast": 5162,
      "paper": 5163,
      "script": 5164,
      "tes": 5165,
      "wel": 5166,
      "inaug": 5167,
      "aband": 5168,
      "pring": 5169,
      "memory": 5170,
      "powerful": 5171,
      "showed": 5172,
      "femin": 5173,
      "definition": 5174,
      "recently": 5175,
      "felt": 5176,
      "achieved": 5177,
      "confirmed": 5178,
      "48": 5179,
      "Just": 5180,
      "Kab": 5181,
      "Kaz": 5182,
      "Water": 5183,
      "da": 5184,
      "eign": 5185,
      "joy": 5186,
      "slow": 5187,
      "enem": 5188,
      "seem": 5189,
      "dete": 5190,
      "cean": 5191,
      "feature": 5192,
      "answ": 5193,
      "1978": 5194,
      "matter": 5195,
      "needs": 5196,
      "completely": 5197,
      "favor": 5198,
      "models": 5199,
      "Dam": 5200,
      "Gaz": 5201,
      "Mart": 5202,
      "Wind": 5203,
      "sound": 5204,
      "oft": 5205,
      "staff": 5206,
      "advis": 5207,
      "resist": 5208,
      "uded": 5209,
      "tainment": 5210,
      "1960": 5211,
      "1966": 5212,
      "leadership": 5213,
      "achieve": 5214,
      "99": 5215,
      "Every": 5216,
      "Federation": 5217,
      "nar": 5218,
      "page": 5219,
      "ica": 5220,
      "agon": 5221,
      "plies": 5222,
      "mentioned": 5223,
      "exchange": 5224,
      "illa": 5225,
      "lie": 5226,
      "lif": 5227,
      "ump": 5228,
      "strateg": 5229,
      "Stu": 5230,
      "System": 5231,
      "Service": 5232,
      "squad": 5233,
      "planning": 5234,
      "Special": 5235,
      "inema": 5236,
      "Governor": 5237,
      "Ob": 5238,
      "SD": 5239,
      "Wal": 5240,
      "dang": 5241,
      "fell": 5242,
      "map": 5243,
      "ni": 5244,
      "nomin": 5245,
      "pict": 5246,
      "sport": 5247,
      "tons": 5248,
      "itness": 5249,
      "Independ": 5250,
      "shop": 5251,
      "avoid": 5252,
      "positions": 5253,
      "possess": 5254,
      "ideas": 5255,
      "Northern": 5256,
      "Armenia": 5257,
      "assistance": 5258,
      "environmental": 5259,
      "reduced": 5260,
      "occupied": 5261,
      "kilome": 5262,
      "Division": 5263,
      "Ak": 5264,
      "Abu": 5265,
      "Hy": 5266,
      "Han": 5267,
      "bud": 5268,
      "sister": 5269,
      "yo": 5270,
      "inet": 5271,
      "ita": 5272,
      "tool": 5273,
      "prise": 5274,
      "arts": 5275,
      "artist": 5276,
      "ivity": 5277,
      "izing": 5278,
      "flights": 5279,
      "subs": 5280,
      "1987": 5281,
      "Nobel": 5282,
      "1965": 5283,
      "1956": 5284,
      "ikh": 5285,
      "Moscow": 5286,
      "ceeded": 5287,
      "channel": 5288,
      "equipment": 5289,
      "academic": 5290,
      "Google": 5291,
      "CC": 5292,
      "Gand": 5293,
      "cards": 5294,
      "dol": 5295,
      "stadium": 5296,
      "advert": 5297,
      "Though": 5298,
      "Through": 5299,
      "correct": 5300,
      "minim": 5301,
      "limit": 5302,
      "foundation": 5303,
      "Music": 5304,
      "technical": 5305,
      "roads": 5306,
      "Prize": 5307,
      "innings": 5308,
      "Curr": 5309,
      "revealed": 5310,
      "Elect": 5311,
      "card": 5312,
      "ras": 5313,
      "vin": 5314,
      "arms": 5315,
      "isto": 5316,
      "repe": 5317,
      "secut": 5318,
      "sole": 5319,
      "granted": 5320,
      "bodies": 5321,
      "aval": 5322,
      "1964": 5323,
      "persons": 5324,
      "refused": 5325,
      "hands": 5326,
      "younger": 5327,
      "sky": 5328,
      "Street": 5329,
      "47": 5330,
      "Hen": 5331,
      "Has": 5332,
      "Jack": 5333,
      "Ty": 5334,
      "avi": 5335,
      "gi": 5336,
      "nd": 5337,
      "theatre": 5338,
      "itor": 5339,
      "consum": 5340,
      "dio": 5341,
      "hael": 5342,
      "mechan": 5343,
      "observed": 5344,
      "Recor": 5345,
      "vessel": 5346,
      "continues": 5347,
      "Peace": 5348,
      "accident": 5349,
      "scholars": 5350,
      "Best": 5351,
      "Mir": 5352,
      "ients": 5353,
      "acher": 5354,
      "image": 5355,
      "etary": 5356,
      "ellow": 5357,
      "content": 5358,
      "itionally": 5359,
      "newly": 5360,
      "Security": 5361,
      "1976": 5362,
      "invas": 5363,
      "brothers": 5364,
      "personnel": 5365,
      "Library": 5366,
      "attempted": 5367,
      "question": 5368,
      "respectively": 5369,
      "focus": 5370,
      "communication": 5371,
      "registered": 5372,
      "Victor": 5373,
      "AS": 5374,
      "Haw": 5375,
      "Net": 5376,
      "Post": 5377,
      "Wil": 5378,
      "gard": 5379,
      "hit": 5380,
      "alle": 5381,
      "ician": 5382,
      "uled": 5383,
      "die": 5384,
      "plants": 5385,
      "1948": 5386,
      "factors": 5387,
      "Allah": 5388,
      "dedicated": 5389,
      "argued": 5390,
      "Moham": 5391,
      "hundred": 5392,
      "negative": 5393,
      "astronom": 5394,
      "Ba": 5395,
      "Sil": 5396,
      "dut": 5397,
      "preg": 5398,
      "spl": 5399,
      "isation": 5400,
      "iced": 5401,
      "iland": 5402,
      "aging": 5403,
      "propos": 5404,
      "ounder": 5405,
      "feet": 5406,
      "correspon": 5407,
      "identity": 5408,
      "consists": 5409,
      "Mark": 5410,
      "operate": 5411,
      "Press": 5412,
      "trains": 5413,
      "statement": 5414,
      "green": 5415,
      "greatest": 5416,
      "existing": 5417,
      "farm": 5418,
      "Medical": 5419,
      "Jews": 5420,
      "unique": 5421,
      "41": 5422,
      "IT": 5423,
      "Ire": 5424,
      "Jam": 5425,
      "Los": 5426,
      "Tu": 5427,
      "bac": 5428,
      "path": 5429,
      "sle": 5430,
      "utr": 5431,
      "theor": 5432,
      "bell": 5433,
      "etic": 5434,
      "eties": 5435,
      "fication": 5436,
      "composed": 5437,
      "spired": 5438,
      "Franc": 5439,
      "Secretary": 5440,
      "1984": 5441,
      "huge": 5442,
      "uck": 5443,
      "Prince": 5444,
      "currency": 5445,
      "resulting": 5446,
      "costs": 5447,
      "citizen": 5448,
      "distribution": 5449,
      "predict": 5450,
      "History": 5451,
      "transferred": 5452,
      "alternative": 5453,
      "chosen": 5454,
      "800": 5455,
      "Bi": 5456,
      "Treat": 5457,
      "Taj": 5458,
      "vest": 5459,
      "reform": 5460,
      "secret": 5461,
      "lywood": 5462,
      "unte": 5463,
      "sover": 5464,
      "hai": 5465,
      "assador": 5466,
      "meant": 5467,
      "Frank": 5468,
      "Forces": 5469,
      "chem": 5470,
      "victory": 5471,
      "Indonesian": 5472,
      "agricultural": 5473,
      "Chaplin": 5474,
      "%.": 5475,
      "EC": 5476,
      "OS": 5477,
      "Wall": 5478,
      "hour": 5479,
      "jun": 5480,
      "wickets": 5481,
      "toms": 5482,
      "leaving": 5483,
      "adap": 5484,
      "beaut": 5485,
      "appar": 5486,
      "cip": 5487,
      "shif": 5488,
      "mind": 5489,
      "missions": 5490,
      "pursu": 5491,
      "deaths": 5492,
      "giving": 5493,
      "Space": 5494,
      "nearby": 5495,
      "hydro": 5496,
      "rape": 5497,
      "scientists": 5498,
      "Office": 5499,
      "Moroc": 5500,
      "Democr": 5501,
      "Pacific": 5502,
      "Mod": 5503,
      "Ru": 5504,
      "bs": 5505,
      "dim": 5506,
      "race": 5507,
      "sens": 5508,
      "winter": 5509,
      "incorpor": 5510,
      "icians": 5511,
      "department": 5512,
      "exts": 5513,
      "versions": 5514,
      "ensus": 5515,
      "goals": 5516,
      "selling": 5517,
      "Add": 5518,
      "faced": 5519,
      "policies": 5520,
      "multi": 5521,
      "Histor": 5522,
      "challeng": 5523,
      "Azerbaijan": 5524,
      "Jose": 5525,
      "Oper": 5526,
      "Tor": 5527,
      "bill": 5528,
      "ff": 5529,
      "ato": 5530,
      "seat": 5531,
      "Init": 5532,
      "export": 5533,
      "cious": 5534,
      "twent": 5535,
      "effort": 5536,
      "buy": 5537,
      "simple": 5538,
      "historic": 5539,
      "protection": 5540,
      "speaking": 5541,
      "expressed": 5542,
      "safety": 5543,
      "sovereign": 5544,
      ".\"": 5545,
      "600": 5546,
      "Four": 5547,
      "Hindi": 5548,
      "Mun": 5549,
      "RC": 5550,
      "Rights": 5551,
      "bought": 5552,
      "native": 5553,
      "institution": 5554,
      "anced": 5555,
      "theless": 5556,
      "aran": 5557,
      "itt": 5558,
      "acu": 5559,
      "ange": 5560,
      "perial": 5561,
      "presents": 5562,
      "1969": 5563,
      "cultures": 5564,
      "Project": 5565,
      "attacked": 5566,
      "Centre": 5567,
      "causes": 5568,
      "providing": 5569,
      "metro": 5570,
      "successfully": 5571,
      "soul": 5572,
      "Georg": 5573,
      "deliver": 5574,
      "susp": 5575,
      "Thailand": 5576,
      "Championship": 5577,
      "Philippines": 5578,
      "abandon": 5579,
      "66": 5580,
      "Ash": 5581,
      "BBC": 5582,
      "Due": 5583,
      "Lou": 5584,
      "MA": 5585,
      "Mem": 5586,
      "Sultan": 5587,
      "Tom": 5588,
      "milit": 5589,
      "watch": 5590,
      "review": 5591,
      "agency": 5592,
      "compar": 5593,
      "crew": 5594,
      "spee": 5595,
      "despite": 5596,
      "Therefore": 5597,
      "surface": 5598,
      "winning": 5599,
      "treaty": 5600,
      "combined": 5601,
      "Olympics": 5602,
      "reduce": 5603,
      "double": 5604,
      "Mexico": 5605,
      "Richard": 5606,
      "42": 5607,
      "Hus": 5608,
      "fought": 5609,
      "ken": 5610,
      "lig": 5611,
      "ware": 5612,
      "escap": 5613,
      "stay": 5614,
      "universe": 5615,
      "worship": 5616,
      "notable": 5617,
      "ternal": 5618,
      "aved": 5619,
      "door": 5620,
      "Common": 5621,
      "1961": 5622,
      "cycl": 5623,
      "starting": 5624,
      "write": 5625,
      "responsibility": 5626,
      "committed": 5627,
      "Super": 5628,
      "communications": 5629,
      "figures": 5630,
      "settled": 5631,
      "permanent": 5632,
      "converted": 5633,
      "Av": 5634,
      "Bor": 5635,
      "Bill": 5636,
      "Hind": 5637,
      "Pun": 5638,
      "Such": 5639,
      "gather": 5640,
      "mes": 5641,
      "sought": 5642,
      "zone": 5643,
      "income": 5644,
      "seems": 5645,
      "why": 5646,
      "haz": 5647,
      "shoot": 5648,
      "overty": 5649,
      "syn": 5650,
      "maxim": 5651,
      "survey": 5652,
      "Prof": 5653,
      "Leg": 5654,
      "Grand": 5655,
      "investment": 5656,
      "occurs": 5657,
      "universities": 5658,
      "Supreme": 5659,
      "Thomas": 5660,
      "ceremony": 5661,
      "Land": 5662,
      "SS": 5663,
      "Squ": 5664,
      "kes": 5665,
      "pir": 5666,
      "wear": 5667,
      "oration": 5668,
      "orient": 5669,
      "ald": 5670,
      "reign": 5671,
      "seats": 5672,
      "defeat": 5673,
      "user": 5674,
      "1930": 5675,
      "twice": 5676,
      "Until": 5677,
      "180": 5678,
      "pread": 5679,
      "collabor": 5680,
      "offices": 5681,
      "restaur": 5682,
      "employed": 5683,
      "advoc": 5684,
      "districts": 5685,
      "Iraqi": 5686,
      "favour": 5687,
      "application": 5688,
      "Abdul": 5689,
      "Railway": 5690,
      "Timor": 5691,
      "Kuwait": 5692,
      "mathemat": 5693,
      "budget": 5694,
      "Cult": 5695,
      "Mr": 5696,
      "Military": 5697,
      "Tam": 5698,
      "cos": 5699,
      "hall": 5700,
      "master": 5701,
      "tall": 5702,
      "ston": 5703,
      "cting": 5704,
      "price": 5705,
      "else": 5706,
      "mod": 5707,
      "antic": 5708,
      "fici": 5709,
      "brand": 5710,
      "prefer": 5711,
      "athers": 5712,
      "campus": 5713,
      "Michael": 5714,
      "subsequent": 5715,
      "fundament": 5716,
      "nasty": 5717,
      "Bay": 5718,
      "Lo": 5719,
      "Mill": 5720,
      "athe": 5721,
      "etry": 5722,
      "gang": 5723,
      "sports": 5724,
      "tation": 5725,
      "depart": 5726,
      "oph": 5727,
      "apart": 5728,
      "disci": 5729,
      "nothing": 5730,
      "1950": 5731,
      "porters": 5732,
      "direction": 5733,
      "marked": 5734,
      "factory": 5735,
      "1930s": 5736,
      "simply": 5737,
      "headquarters": 5738,
      "popularity": 5739,
      "easily": 5740,
      "earliest": 5741,
      "acquired": 5742,
      "translated": 5743,
      "Ireland": 5744,
      "Federal": 5745,
      "Now": 5746,
      "figh": 5747,
      "fled": 5748,
      "miles": 5749,
      "ny": 5750,
      "oon": 5751,
      "ati": 5752,
      "entr": 5753,
      "unable": 5754,
      "emot": 5755,
      "ploy": 5756,
      "ciences": 5757,
      "astro": 5758,
      "compos": 5759,
      "display": 5760,
      "creating": 5761,
      "understand": 5762,
      "1962": 5763,
      "1954": 5764,
      "directed": 5765,
      "markets": 5766,
      "trained": 5767,
      "educational": 5768,
      "custom": 5769,
      "Bridge": 5770,
      "autonom": 5771,
      "Official": 5772,
      "occasion": 5773,
      "controversi": 5774,
      "FIFA": 5775,
      "advantage": 5776,
      "Tokyo": 5777,
      "):": 5778,
      "Bah": 5779,
      "Fa": 5780,
      "Foot": 5781,
      "RA": 5782,
      "Tanz": 5783,
      "Wash": 5784,
      "jab": 5785,
      "taught": 5786,
      "theories": 5787,
      "forest": 5788,
      "agar": 5789,
      "opposed": 5790,
      "firm": 5791,
      "visible": 5792,
      "White": 5793,
      "solution": 5794,
      "appearance": 5795,
      "Charles": 5796,
      "passenger": 5797,
      "suffered": 5798,
      "Linux": 5799,
      "embassy": 5800,
      "determined": 5801,
      "brief": 5802,
      "banned": 5803,
      "Francis": 5804,
      "49": 5805,
      "85": 5806,
      "Bas": 5807,
      "Bro": 5808,
      "Er": 5809,
      "Glo": 5810,
      "founder": 5811,
      "hop": 5812,
      "ja": 5813,
      "lies": 5814,
      "latter": 5815,
      "zo": 5816,
      "aration": 5817,
      "assu": 5818,
      "aman": 5819,
      "tric": 5820,
      "proved": 5821,
      "articles": 5822,
      "movie": 5823,
      "ques": 5824,
      "actual": 5825,
      "notes": 5826,
      "metres": 5827,
      "coal": 5828,
      "possib": 5829,
      "Shar": 5830,
      "clubs": 5831,
      "improved": 5832,
      "frequently": 5833,
      "vehicles": 5834,
      "Economic": 5835,
      "Are": 5836,
      "Aust": 5837,
      "Free": 5838,
      "Museum": 5839,
      "Sch": 5840,
      "TC": 5841,
      "Yemen": 5842,
      "zant": 5843,
      "really": 5844,
      "conference": 5845,
      "aya": 5846,
      "ida": 5847,
      "peoples": 5848,
      "moving": 5849,
      "formally": 5850,
      "poet": 5851,
      "symp": 5852,
      "finished": 5853,
      "identify": 5854,
      "Real": 5855,
      "depict": 5856,
      "differences": 5857,
      "1952": 5858,
      "1946": 5859,
      "requires": 5860,
      "standards": 5861,
      "Byzant": 5862,
      "idespread": 5863,
      "Play": 5864,
      "separated": 5865,
      "manager": 5866,
      "copy": 5867,
      "quarter": 5868,
      "measure": 5869,
      "photograph": 5870,
      "celebrated": 5871,
      "architect": 5872,
      "floor": 5873,
      "spiritual": 5874,
      "employees": 5875,
      "Washington": 5876,
      "Gulf": 5877,
      "Kal": 5878,
      "smo": 5879,
      "inhabit": 5880,
      "entry": 5881,
      "ada": 5882,
      "bels": 5883,
      "conqu": 5884,
      "concent": 5885,
      "library": 5886,
      "grade": 5887,
      "1982": 5888,
      "Engine": 5889,
      "designated": 5890,
      "People": 5891,
      "distingu": 5892,
      "Among": 5893,
      "homosexual": 5894,
      "incident": 5895,
      "Director": 5896,
      "satellite": 5897,
      "Kabul": 5898,
      "invasion": 5899,
      ".)": 5900,
      "43": 5901,
      "Hill": 5902,
      "Jes": 5903,
      "Rome": 5904,
      "dish": 5905,
      "fan": 5906,
      "hum": 5907,
      "vary": 5908,
      "atures": 5909,
      "attribut": 5910,
      "iday": 5911,
      "prohib": 5912,
      "ria": 5913,
      "geograph": 5914,
      "link": 5915,
      "difference": 5916,
      "kingdom": 5917,
      "classes": 5918,
      "prising": 5919,
      "significantly": 5920,
      "eyes": 5921,
      "voted": 5922,
      "emerged": 5923,
      "principal": 5924,
      "applications": 5925,
      "Tibetan": 5926,
      "circum": 5927,
      "scheduled": 5928,
      "Rohing": 5929,
      "DP": 5930,
      "Gar": 5931,
      "Ly": 5932,
      "Lab": 5933,
      "Pad": 5934,
      "TE": 5935,
      "festival": 5936,
      "poverty": 5937,
      "ses": 5938,
      "widespread": 5939,
      "thors": 5940,
      "inspired": 5941,
      "iled": 5942,
      "unemployment": 5943,
      "consu": 5944,
      "applied": 5945,
      "cris": 5946,
      "doing": 5947,
      "founding": 5948,
      "indig": 5949,
      "purposes": 5950,
      "tower": 5951,
      "virt": 5952,
      "III": 5953,
      "featured": 5954,
      "attempts": 5955,
      "ICC": 5956,
      "Palestine": 5957,
      "regularly": 5958,
      "ranked": 5959,
      "Ahmed": 5960,
      "candidate": 5961,
      "inaugur": 5962,
      "Kur": 5963,
      "MP": 5964,
      "eat": 5965,
      "file": 5966,
      "ki": 5967,
      "mil": 5968,
      "vation": 5969,
      "actress": 5970,
      "Station": 5971,
      "maintained": 5972,
      "Affairs": 5973,
      "broke": 5974,
      "kills": 5975,
      "score": 5976,
      "Life": 5977,
      "sequently": 5978,
      "Canadian": 5979,
      "drew": 5980,
      "Green": 5981,
      "commission": 5982,
      "machine": 5983,
      "Wikip": 5984,
      "Taiwan": 5985,
      "Modern": 5986,
      "Mas": 5987,
      "Pres": 5988,
      "Sa": 5989,
      "mom": 5990,
      "rev": 5991,
      "union": 5992,
      "agement": 5993,
      "comed": 5994,
      "cide": 5995,
      "mans": 5996,
      "ongo": 5997,
      "eves": 5998,
      "poetry": 5999,
      "Islands": 6000,
      "sell": 6001,
      "extin": 6002,
      "serves": 6003,
      "Cont": 6004,
      "organised": 6005,
      "functions": 6006,
      "discovery": 6007,
      "entirely": 6008,
      "calcul": 6009,
      "Womens": 6010,
      "trees": 6011,
      "Burma": 6012,
      "injured": 6013,
      "icipal": 6014,
      "screen": 6015,
      "Records": 6016,
      "1st": 6017,
      "crow": 6018,
      "dates": 6019,
      "dog": 6020,
      "mut": 6021,
      "mine": 6022,
      "enjoy": 6023,
      "alp": 6024,
      "stars": 6025,
      "trip": 6026,
      "divisions": 6027,
      "fru": 6028,
      "prime": 6029,
      "climate": 6030,
      "teacher": 6031,
      "actors": 6032,
      "affairs": 6033,
      "Stat": 6034,
      "sphere": 6035,
      "credit": 6036,
      "Work": 6037,
      "1968": 6038,
      "Nether": 6039,
      "contributed": 6040,
      "renamed": 6041,
      "voice": 6042,
      "burg": 6043,
      "Cambo": 6044,
      "biggest": 6045,
      "executive": 6046,
      "Talib": 6047,
      "Organization": 6048,
      "split": 6049,
      "controversial": 6050,
      "Age": 6051,
      "Hel": 6052,
      "IN": 6053,
      "Mary": 6054,
      "Vol": 6055,
      "WW": 6056,
      "cinema": 6057,
      "jur": 6058,
      "wing": 6059,
      "ili": 6060,
      "ira": 6061,
      "emphas": 6062,
      "overall": 6063,
      "acted": 6064,
      "derived": 6065,
      "authors": 6066,
      "Indies": 6067,
      "attach": 6068,
      "phones": 6069,
      "ibility": 6070,
      "values": 6071,
      "1931": 6072,
      "scene": 6073,
      "movements": 6074,
      "towns": 6075,
      "accused": 6076,
      "satis": 6077,
      "cells": 6078,
      "minority": 6079,
      "neighbor": 6080,
      "structures": 6081,
      "platform": 6082,
      "Windows": 6083,
      "Punjab": 6084,
      "Netherlands": 6085,
      "FC": 6086,
      "Mur": 6087,
      "ault": 6088,
      "kh": 6089,
      "kar": 6090,
      "wed": 6091,
      "wise": 6092,
      "onic": 6093,
      "iance": 6094,
      "contem": 6095,
      "medium": 6096,
      "monu": 6097,
      "Report": 6098,
      "Command": 6099,
      "retired": 6100,
      "stein": 6101,
      "historians": 6102,
      "pattern": 6103,
      "arrival": 6104,
      "labour": 6105,
      "properties": 6106,
      "Singh": 6107,
      "teachers": 6108,
      "agriculture": 6109,
      "prepared": 6110,
      "Sweden": 6111,
      "heavily": 6112,
      "beyond": 6113,
      "temperature": 6114,
      "Argentina": 6115,
      "wrestling": 6116,
      "aspects": 6117,
      "Gandhi": 6118,
      "sleep": 6119,
      "Treaty": 6120,
      "BM": 6121,
      "Jour": 6122,
      "Ros": 6123,
      "fathers": 6124,
      "haps": 6125,
      "wound": 6126,
      "isol": 6127,
      "itarian": 6128,
      "republic": 6129,
      "strength": 6130,
      "brain": 6131,
      "killing": 6132,
      "everything": 6133,
      "Peter": 6134,
      "critical": 6135,
      "ancing": 6136,
      "damaged": 6137,
      "focused": 6138,
      "colonial": 6139,
      "Communist": 6140,
      "extremely": 6141,
      "intelligence": 6142,
      "Radio": 6143,
      "Joseph": 6144,
      "Football": 6145,
      "crisis": 6146,
      "46": 6147,
      "AN": 6148,
      "Festival": 6149,
      "Hospital": 6150,
      "Kash": 6151,
      "Mel": 6152,
      "Town": 6153,
      "core": 6154,
      "lan": 6155,
      "yer": 6156,
      "ores": 6157,
      "ardi": 6158,
      "height": 6159,
      "olf": 6160,
      "usive": 6161,
      "quite": 6162,
      "fee": 6163,
      "ultim": 6164,
      "weather": 6165,
      "obtain": 6166,
      "calls": 6167,
      "1963": 6168,
      "Leban": 6169,
      "decis": 6170,
      "decade": 6171,
      "allowing": 6172,
      "describe": 6173,
      "letters": 6174,
      "greatly": 6175,
      "advanced": 6176,
      "documents": 6177,
      "measures": 6178,
      "editor": 6179,
      "journalist": 6180,
      "doub": 6181,
      "----": 6182,
      "Angeles": 6183,
      "ield": 6184,
      "regarding": 6185,
      "Alexander": 6186,
      "arranged": 6187,
      "strategic": 6188,
      "fundamental": 6189,
      "Bul": 6190,
      "Dub": 6191,
      "OC": 6192,
      "Ox": 6193,
      "Out": 6194,
      "iation": 6195,
      "mist": 6196,
      "ensure": 6197,
      "ora": 6198,
      "store": 6199,
      "ura": 6200,
      "chance": 6201,
      "diag": 6202,
      "apo": 6203,
      "aining": 6204,
      "earned": 6205,
      "shared": 6206,
      "note": 6207,
      "evi": 6208,
      "boys": 6209,
      "Stand": 6210,
      "awards": 6211,
      "marine": 6212,
      "airports": 6213,
      "goes": 6214,
      "ologies": 6215,
      "1959": 6216,
      "writers": 6217,
      "scen": 6218,
      "250": 6219,
      "reflect": 6220,
      "gives": 6221,
      "describes": 6222,
      "existed": 6223,
      "Movement": 6224,
      "physics": 6225,
      "participate": 6226,
      "interested": 6227,
      "Emperor": 6228,
      "Syrian": 6229,
      "commissioned": 6230,
      "hundreds": 6231,
      "Democratic": 6232,
      "Taliban": 6233,
      "96": 6234,
      "Bak": 6235,
      "Den": 6236,
      "Fri": 6237,
      "Je": 6238,
      "Pop": 6239,
      "Uk": 6240,
      "Youn": 6241,
      "spring": 6242,
      "tend": 6243,
      "texts": 6244,
      "vince": 6245,
      "wr": 6246,
      "enge": 6247,
      "reforms": 6248,
      "stances": 6249,
      "acres": 6250,
      "Indu": 6251,
      "opin": 6252,
      "aki": 6253,
      "ensions": 6254,
      "icks": 6255,
      "1977": 6256,
      "invited": 6257,
      "serving": 6258,
      "citys": 6259,
      "funding": 6260,
      "Beij": 6261,
      "singer": 6262,
      "volume": 6263,
      "equival": 6264,
      "classical": 6265,
      "researchers": 6266,
      "Polit": 6267,
      "specifically": 6268,
      "experienced": 6269,
      "computers": 6270,
      "Madrid": 6271,
      "selection": 6272,
      "governor": 6273,
      "couple": 6274,
      "partnership": 6275,
      "Independence": 6276,
      "Currently": 6277,
      "speech": 6278,
      "indigenous": 6279,
      "Big": 6280,
      "ET": 6281,
      "bing": 6282,
      "dad": 6283,
      "fal": 6284,
      "zh": 6285,
      "err": 6286,
      "iding": 6287,
      "modif": 6288,
      "elled": 6289,
      "enses": 6290,
      "merch": 6291,
      "See": 6292,
      "17th": 6293,
      "1949": 6294,
      "fixed": 6295,
      "lasted": 6296,
      "influential": 6297,
      "advance": 6298,
      "Christians": 6299,
      "suggests": 6300,
      "victims": 6301,
      "drawn": 6302,
      "figure": 6303,
      "opportunity": 6304,
      "criminal": 6305,
      "56": 6306,
      "76": 6307,
      "700": 6308,
      "94": 6309,
      "Agency": 6310,
      "Ele": 6311,
      "Ky": 6312,
      "Mount": 6313,
      "Raw": 6314,
      "ius": 6315,
      "witness": 6316,
      "onto": 6317,
      "beat": 6318,
      "forward": 6319,
      "determ": 6320,
      "constant": 6321,
      "proced": 6322,
      "contest": 6323,
      "poly": 6324,
      "element": 6325,
      "funded": 6326,
      "viewed": 6327,
      "1933": 6328,
      "electr": 6329,
      "volunte": 6330,
      "Like": 6331,
      "childhood": 6332,
      "Major": 6333,
      "combat": 6334,
      "closely": 6335,
      "motor": 6336,
      "emergency": 6337,
      "promoted": 6338,
      "Queen": 6339,
      "rapidly": 6340,
      "electronic": 6341,
      "routes": 6342,
      "divor": 6343,
      "Bagh": 6344,
      "contrast": 6345,
      "Hindus": 6346,
      "determine": 6347,
      "Hall": 6348,
      "Il": 6349,
      "Mat": 6350,
      "Mass": 6351,
      "Naz": 6352,
      "PL": 6353,
      "Way": 6354,
      "oo": 6355,
      "ua": 6356,
      "vast": 6357,
      "thr": 6358,
      "ads": 6359,
      "oppos": 6360,
      "expect": 6361,
      "owner": 6362,
      "poll": 6363,
      "doctor": 6364,
      "ception": 6365,
      "1936": 6366,
      "Order": 6367,
      "Tests": 6368,
      "professor": 6369,
      "relationships": 6370,
      "questions": 6371,
      "scholar": 6372,
      "boundary": 6373,
      "devices": 6374,
      "surrounding": 6375,
      "Rahman": 6376,
      "phenom": 6377,
      "Rohingya": 6378,
      "Wikipedia": 6379,
      "Journal": 6380,
      "Ukrain": 6381,
      "Beijing": 6382,
      "95": 6383,
      "Bomb": 6384,
      "Nic": 6385,
      "oral": 6386,
      "chap": 6387,
      "deleg": 6388,
      "esty": 6389,
      "apse": 6390,
      "ellect": 6391,
      "exped": 6392,
      "rian": 6393,
      "finding": 6394,
      "locations": 6395,
      "conscious": 6396,
      "Conference": 6397,
      "follows": 6398,
      "succeeded": 6399,
      "trading": 6400,
      "faces": 6401,
      "residential": 6402,
      "practices": 6403,
      "accounts": 6404,
      "Scot": 6405,
      "category": 6406,
      "alleged": 6407,
      "senior": 6408,
      "78": 6409,
      "Good": 6410,
      "IM": 6411,
      "Nar": 6412,
      "Pink": 6413,
      "Tour": 6414,
      "Up": 6415,
      "dark": 6416,
      "fy": 6417,
      "lad": 6418,
      "mort": 6419,
      "tree": 6420,
      "iting": 6421,
      "recording": 6422,
      "rejected": 6423,
      "ilater": 6424,
      "sey": 6425,
      "fection": 6426,
      "monarch": 6427,
      "understanding": 6428,
      "flu": 6429,
      "substant": 6430,
      "1967": 6431,
      "1951": 6432,
      "1941": 6433,
      "appropri": 6434,
      "container": 6435,
      "Laos": 6436,
      "instance": 6437,
      "street": 6438,
      "stopped": 6439,
      "Summer": 6440,
      "Urdu": 6441,
      "Keynes": 6442,
      "Henry": 6443,
      "Additionally": 6444,
      "Bell": 6445,
      "Camp": 6446,
      "Five": 6447,
      "PC": 6448,
      "Qatar": 6449,
      "Tro": 6450,
      "Tem": 6451,
      "dated": 6452,
      "hill": 6453,
      "mere": 6454,
      "rum": 6455,
      "itals": 6456,
      "stable": 6457,
      "champion": 6458,
      "1918": 6459,
      "abuse": 6460,
      "ategy": 6461,
      "assass": 6462,
      "iful": 6463,
      "publication": 6464,
      "1953": 6465,
      "160": 6466,
      "Atl": 6467,
      "norm": 6468,
      "Program": 6469,
      "learning": 6470,
      "idden": 6471,
      "connection": 6472,
      "hosted": 6473,
      "Harry": 6474,
      "Emir": 6475,
      "territories": 6476,
      "protests": 6477,
      "micro": 6478,
      "debate": 6479,
      "vehicle": 6480,
      "struggle": 6481,
      "Ibn": 6482,
      "abandoned": 6483,
      "juris": 6484,
      "Bus": 6485,
      "Cas": 6486,
      "Fl": 6487,
      "Fort": 6488,
      "Lake": 6489,
      "bot": 6490,
      "federal": 6491,
      "wild": 6492,
      "inations": 6493,
      "iter": 6494,
      "itude": 6495,
      "recover": 6496,
      "recru": 6497,
      "entially": 6498,
      "admitted": 6499,
      "accur": 6500,
      "semi": 6501,
      "uten": 6502,
      "frame": 6503,
      "pra": 6504,
      "osis": 6505,
      "shut": 6506,
      "shire": 6507,
      "stra": 6508,
      "county": 6509,
      "branch": 6510,
      "cancer": 6511,
      "engaged": 6512,
      "desc": 6513,
      "request": 6514,
      "profit": 6515,
      "association": 6516,
      "failure": 6517,
      "analy": 6518,
      "treated": 6519,
      "promote": 6520,
      "Micros": 6521,
      "Article": 6522,
      "gods": 6523,
      "carrying": 6524,
      "PDF": 6525,
      "episode": 6526,
      "Initially": 6527,
      "twenty": 6528,
      "concentr": 6529,
      "Jesus": 6530,
      "93": 6531,
      "Catal": 6532,
      "Gal": 6533,
      "Ra": 6534,
      "bats": 6535,
      "dess": 6536,
      "gate": 6537,
      "till": 6538,
      "tank": 6539,
      "wish": 6540,
      "aded": 6541,
      "seg": 6542,
      "urally": 6543,
      "Int": 6544,
      "istans": 6545,
      "etime": 6546,
      "server": 6547,
      "cook": 6548,
      "Around": 6549,
      "anything": 6550,
      "dram": 6551,
      "iversary": 6552,
      "operational": 6553,
      "1942": 6554,
      "camps": 6555,
      "introduction": 6556,
      "Reser": 6557,
      "concerns": 6558,
      "literary": 6559,
      "newspapers": 6560,
      "Transport": 6561,
      "architecture": 6562,
      "Swedish": 6563,
      "Southern": 6564,
      "collapse": 6565,
      "Hotel": 6566,
      "maximum": 6567,
      "inhabitants": 6568,
      "contemporary": 6569,
      "Fam": 6570,
      "ID": 6571,
      "Langu": 6572,
      "Que": 6573,
      "Sel": 6574,
      "laid": 6575,
      "itzer": 6576,
      "igation": 6577,
      "sile": 6578,
      "ocal": 6579,
      "airline": 6580,
      "destru": 6581,
      "shel": 6582,
      "stitu": 6583,
      "followers": 6584,
      "links": 6585,
      "economics": 6586,
      "Lee": 6587,
      "marriages": 6588,
      "sixth": 6589,
      "recognised": 6590,
      "studio": 6591,
      "trying": 6592,
      "titles": 6593,
      "Barcel": 6594,
      "gradually": 6595,
      "Ahmad": 6596,
      "controversy": 6597,
      "philosophy": 6598,
      "Buil": 6599,
      "Kazakh": 6600,
      "Gaza": 6601,
      "vessels": 6602,
      "wrong": 6603,
      "GB": 6604,
      "Kam": 6605,
      "Lah": 6606,
      "Mil": 6607,
      "catch": 6608,
      "hur": 6609,
      "jar": 6610,
      "lat": 6611,
      "tas": 6612,
      "asy": 6613,
      "ima": 6614,
      "Theatre": 6615,
      "device": 6616,
      "agencies": 6617,
      "uls": 6618,
      "abroad": 6619,
      "meters": 6620,
      "servers": 6621,
      "cooperation": 6622,
      "oke": 6623,
      "18th": 6624,
      "preced": 6625,
      "legend": 6626,
      "linked": 6627,
      "1958": 6628,
      "traditions": 6629,
      "offers": 6630,
      "programming": 6631,
      "announce": 6632,
      "civilian": 6633,
      "hypo": 6634,
      "collected": 6635,
      "banks": 6636,
      "Prior": 6637,
      "criticized": 6638,
      "Macau": 6639,
      "jobs": 6640,
      "revolutionary": 6641,
      "spoken": 6642,
      "Technology": 6643,
      "64": 6644,
      "Sin": 6645,
      "bio": 6646,
      "dar": 6647,
      "fit": 6648,
      "1917": 6649,
      "aine": 6650,
      "prices": 6651,
      "asser": 6652,
      "upper": 6653,
      "intellect": 6654,
      "iff": 6655,
      "genetic": 6656,
      "obtained": 6657,
      "issance": 6658,
      "ologists": 6659,
      "setting": 6660,
      "roll": 6661,
      "1955": 6662,
      "lingu": 6663,
      "fix": 6664,
      "funds": 6665,
      "pressed": 6666,
      "reference": 6667,
      "formerly": 6668,
      "grounds": 6669,
      "birthday": 6670,
      "honour": 6671,
      "happened": 6672,
      "criticism": 6673,
      "entertainment": 6674,
      "keeping": 6675,
      "glass": 6676,
      "storm": 6677,
      "Smith": 6678,
      "concluded": 6679,
      "chairman": 6680,
      "encouraged": 6681,
      "classified": 6682,
      "settlement": 6683,
      "chemical": 6684,
      "possibly": 6685,
      "CP": 6686,
      "Power": 6687,
      "Som": 6688,
      "Top": 6689,
      "Winter": 6690,
      "cat": 6691,
      "cited": 6692,
      "dict": 6693,
      "mu": 6694,
      "nom": 6695,
      "tu": 6696,
      "asc": 6697,
      "league": 6698,
      "seasons": 6699,
      "urb": 6700,
      "deed": 6701,
      "deploy": 6702,
      "Information": 6703,
      "usual": 6704,
      "1919": 6705,
      "oted": 6706,
      "complic": 6707,
      "ishing": 6708,
      "permitted": 6709,
      "format": 6710,
      "Indians": 6711,
      "brid": 6712,
      "Americans": 6713,
      "surr": 6714,
      "restored": 6715,
      "1934": 6716,
      "Mean": 6717,
      "tourists": 6718,
      "protected": 6719,
      "profession": 6720,
      "denied": 6721,
      "painting": 6722,
      "Berlin": 6723,
      "increasingly": 6724,
      "organisation": 6725,
      "universal": 6726,
      "stock": 6727,
      "constitutional": 6728,
      "electricity": 6729,
      "opportunities": 6730,
      "thesis": 6731,
      "recommended": 6732,
      "enemy": 6733,
      "kilometres": 6734,
      "moment": 6735,
      "Young": 6736,
      "2nd": 6737,
      "51": 6738,
      "54": 6739,
      "67": 6740,
      "BS": 6741,
      "Cross": 6742,
      "Hal": 6743,
      "Lar": 6744,
      "Lad": 6745,
      "Sports": 6746,
      "ek": 6747,
      "iat": 6748,
      "zed": 6749,
      "leaves": 6750,
      "adi": 6751,
      "sections": 6752,
      "images": 6753,
      "exer": 6754,
      "clim": 6755,
      "grap": 6756,
      "uda": 6757,
      "Those": 6758,
      "Univers": 6759,
      "raham": 6760,
      "ava": 6761,
      "Ann": 6762,
      "ensity": 6763,
      "annually": 6764,
      "medal": 6765,
      "charged": 6766,
      "solved": 6767,
      "valid": 6768,
      "Province": 6769,
      "returning": 6770,
      "temporary": 6771,
      "check": 6772,
      "Brune": 6773,
      "looking": 6774,
      "principles": 6775,
      "publishing": 6776,
      "Louis": 6777,
      "Tamil": 6778,
      "ilateral": 6779,
      "Hor": 6780,
      "Mi": 6781,
      "Mand": 6782,
      "Tower": 6783,
      "folk": 6784,
      "mart": 6785,
      "mous": 6786,
      "pa": 6787,
      "pink": 6788,
      "rd": 6789,
      "sail": 6790,
      "wants": 6791,
      "yan": 6792,
      "inity": 6793,
      "inher": 6794,
      "reality": 6795,
      "represents": 6796,
      "ione": 6797,
      "stages": 6798,
      "ila": 6799,
      "consequ": 6800,
      "idency": 6801,
      "1910": 6802,
      "abort": 6803,
      "prize": 6804,
      "external": 6805,
      "essential": 6806,
      "clo": 6807,
      "grav": 6808,
      "assigned": 6809,
      "boat": 6810,
      "acknow": 6811,
      "anniversary": 6812,
      "tenance": 6813,
      "Once": 6814,
      "retire": 6815,
      "inson": 6816,
      "portr": 6817,
      "domain": 6818,
      "1939": 6819,
      "Palace": 6820,
      "explained": 6821,
      "prises": 6822,
      "eye": 6823,
      "Early": 6824,
      "journey": 6825,
      "unders": 6826,
      "teaching": 6827,
      "dream": 6828,
      "materials": 6829,
      "channels": 6830,
      "secular": 6831,
      "dropped": 6832,
      "empire": 6833,
      "techniques": 6834,
      "resistance": 6835,
      "discipl": 6836,
      "Kashmir": 6837,
      "ultimately": 6838,
      "%)": 6839,
      "88": 6840,
      "Dig": 6841,
      "Flor": 6842,
      "Gir": 6843,
      "Hit": 6844,
      "Nat": 6845,
      "ental": 6846,
      "lets": 6847,
      "ola": 6848,
      "agree": 6849,
      "ulated": 6850,
      "peak": 6851,
      "cles": 6852,
      "rific": 6853,
      "mining": 6854,
      "drink": 6855,
      "underground": 6856,
      "Enter": 6857,
      "Environment": 6858,
      "choice": 6859,
      "guide": 6860,
      "1957": 6861,
      "factor": 6862,
      "religions": 6863,
      "Phone": 6864,
      "facility": 6865,
      "harm": 6866,
      "tourism": 6867,
      "Media": 6868,
      "strike": 6869,
      "concern": 6870,
      "transportation": 6871,
      "clean": 6872,
      "subjects": 6873,
      "distributed": 6874,
      "palace": 6875,
      "horse": 6876,
      "benefit": 6877,
      "tunnel": 6878,
      "installed": 6879,
      "pregnan": 6880,
      "equivalent": 6881,
      "53": 6882,
      "71": 6883,
      "Cau": 6884,
      "Fire": 6885,
      "IR": 6886,
      "Saf": 6887,
      "Us": 6888,
      "Upon": 6889,
      "ders": 6890,
      "eper": 6891,
      "fers": 6892,
      "hat": 6893,
      "jet": 6894,
      "mese": 6895,
      "slight": 6896,
      "task": 6897,
      "ths": 6898,
      "alg": 6899,
      "icy": 6900,
      "conquest": 6901,
      "trust": 6902,
      "usage": 6903,
      "1900": 6904,
      "abol": 6905,
      "otic": 6906,
      "apped": 6907,
      "pron": 6908,
      "elimin": 6909,
      "explan": 6910,
      "strategy": 6911,
      "spot": 6912,
      "Alli": 6913,
      "athlet": 6914,
      "Sheikh": 6915,
      "producer": 6916,
      "producing": 6917,
      "ologist": 6918,
      "cars": 6919,
      "porter": 6920,
      "dependent": 6921,
      "valu": 6922,
      "supporting": 6923,
      "representation": 6924,
      "rulers": 6925,
      "tourist": 6926,
      "holding": 6927,
      "Burmese": 6928,
      "swim": 6929,
      "dynasty": 6930,
      "Assam": 6931,
      "components": 6932,
      "Justice": 6933,
      "Victoria": 6934,
      "Tajik": 6935,
      "Profess": 6936,
      "Microsoft": 6937,
      "Barcelona": 6938,
      "AT": 6939,
      "Amb": 6940,
      "Cast": 6941,
      "Cub": 6942,
      "Cons": 6943,
      "Him": 6944,
      "Pu": 6945,
      "Uz": 6946,
      "Vir": 6947,
      "Yang": 6948,
      "kin": 6949,
      "lake": 6950,
      "thur": 6951,
      "atmo": 6952,
      "repair": 6953,
      "utions": 6954,
      "proto": 6955,
      "exists": 6956,
      "overs": 6957,
      "udes": 6958,
      "centres": 6959,
      "coins": 6960,
      "context": 6961,
      "dry": 6962,
      "uals": 6963,
      "extent": 6964,
      "operates": 6965,
      "cert": 6966,
      "matters": 6967,
      "1940": 6968,
      "metal": 6969,
      "representative": 6970,
      "mix": 6971,
      "Portug": 6972,
      "Within": 6973,
      "Class": 6974,
      "engineer": 6975,
      "sufficient": 6976,
      "Scott": 6977,
      "automat": 6978,
      "detailed": 6979,
      "ODI": 6980,
      "proposal": 6981,
      "Global": 6982,
      "Eth": 6983,
      "Keral": 6984,
      "Open": 6985,
      "Ocean": 6986,
      "Tit": 6987,
      "Ul": 6988,
      "mm": 6989,
      "skills": 6990,
      "iny": 6991,
      "theme": 6992,
      "itors": 6993,
      "reput": 6994,
      "amin": 6995,
      "chose": 6996,
      "ceased": 6997,
      "Ind": 6998,
      "proxim": 6999,
      "sust": 7000,
      "string": 7001,
      "attend": 7002,
      "spac": 7003,
      "consult": 7004,
      "1944": 7005,
      "broken": 7006,
      "handle": 7007,
      "processes": 7008,
      "apply": 7009,
      "patri": 7010,
      "traditionally": 7011,
      "Switzer": 7012,
      "presidential": 7013,
      "visitors": 7014,
      "Christianity": 7015,
      "printing": 7016,
      "categories": 7017,
      "Satan": 7018,
      "filled": 7019,
      "credited": 7020,
      "purchased": 7021,
      "propag": 7022,
      "repeated": 7023,
      "Baghdad": 7024,
      "63": 7025,
      "98": 7026,
      "CR": 7027,
      "Gl": 7028,
      "Gard": 7029,
      "Here": 7030,
      "Len": 7031,
      "Men": 7032,
      "Never": 7033,
      "Wales": 7034,
      "cance": 7035,
      "none": 7036,
      "wicket": 7037,
      "atab": 7038,
      "ascus": 7039,
      "rot": 7040,
      "accor": 7041,
      "iring": 7042,
      "ceived": 7043,
      "ager": 7044,
      "1914": 7045,
      "abilities": 7046,
      "divers": 7047,
      "sharing": 7048,
      "perhaps": 7049,
      "notably": 7050,
      "partly": 7051,
      "partner": 7052,
      "heritage": 7053,
      "orses": 7054,
      "Marx": 7055,
      "legally": 7056,
      "seconds": 7057,
      "Short": 7058,
      "passing": 7059,
      "stands": 7060,
      "Trade": 7061,
      "learn": 7062,
      "talks": 7063,
      "headed": 7064,
      "Colomb": 7065,
      "effectively": 7066,
      "processing": 7067,
      "mixed": 7068,
      "compete": 7069,
      "renov": 7070,
      "biological": 7071,
      "happy": 7072,
      "Greece": 7073,
      "massive": 7074,
      "colonies": 7075,
      "session": 7076,
      "distinction": 7077,
      "provincial": 7078,
      "demonstrated": 7079,
      "candidates": 7080,
      "camera": 7081,
      "loyd": 7082,
      "Damascus": 7083,
      "inaugurated": 7084,
      "Kerala": 7085,
      "GN": 7086,
      "Hon": 7087,
      "Home": 7088,
      "Sher": 7089,
      "Seven": 7090,
      "bid": 7091,
      "cou": 7092,
      "cold": 7093,
      "mens": 7094,
      "oes": 7095,
      "py": 7096,
      "sla": 7097,
      "templ": 7098,
      "aders": 7099,
      "Instead": 7100,
      "trou": 7101,
      "ulate": 7102,
      "util": 7103,
      "illness": 7104,
      "manner": 7105,
      "resigned": 7106,
      "Chann": 7107,
      "stress": 7108,
      "marry": 7109,
      "maintenance": 7110,
      "elev": 7111,
      "Front": 7112,
      "colour": 7113,
      "Soon": 7114,
      "tribes": 7115,
      "solid": 7116,
      "originated": 7117,
      "1937": 7118,
      "learned": 7119,
      "causing": 7120,
      "plane": 7121,
      "seek": 7122,
      "votes": 7123,
      "commander": 7124,
      "experiments": 7125,
      "considerable": 7126,
      "rooms": 7127,
      "Hollywood": 7128,
      "Similar": 7129,
      "graduate": 7130,
      "Defence": 7131,
      "punish": 7132,
      "Furthermore": 7133,
      "Morocco": 7134,
      "wedding": 7135,
      "AC": 7136,
      "Kr": 7137,
      "Si": 7138,
      "Ten": 7139,
      "Wel": 7140,
      "hang": 7141,
      "push": 7142,
      "uter": 7143,
      "alty": 7144,
      "itter": 7145,
      "ican": 7146,
      "rose": 7147,
      "amoun": 7148,
      "imprison": 7149,
      "abinet": 7150,
      "aints": 7151,
      "neutr": 7152,
      "Stud": 7153,
      "aware": 7154,
      "lock": 7155,
      "paralle": 7156,
      "Commer": 7157,
      "15th": 7158,
      "societies": 7159,
      "cycle": 7160,
      "changing": 7161,
      "14th": 7162,
      "Arabs": 7163,
      "Prote": 7164,
      "promised": 7165,
      "justice": 7166,
      "begun": 7167,
      "mier": 7168,
      "shortly": 7169,
      "Coast": 7170,
      "thodox": 7171,
      "Plan": 7172,
      "defence": 7173,
      "combination": 7174,
      "contributions": 7175,
      "copies": 7176,
      "argues": 7177,
      "homes": 7178,
      "cuis": 7179,
      "principle": 7180,
      "coastal": 7181,
      "refugee": 7182,
      "beliefs": 7183,
      "Golden": 7184,
      "populations": 7185,
      "Irish": 7186,
      "ownership": 7187,
      "dollar": 7188,
      "Oxford": 7189,
      ");": 7190,
      "5th": 7191,
      "Ay": 7192,
      "Daily": 7193,
      "Face": 7194,
      "Lim": 7195,
      "Oman": 7196,
      "Ta": 7197,
      "fash": 7198,
      "gian": 7199,
      "rac": 7200,
      "ries": 7201,
      "sale": 7202,
      "uan": 7203,
      "waters": 7204,
      "ading": 7205,
      "imag": 7206,
      "hism": 7207,
      "mov": 7208,
      "feed": 7209,
      "Chitt": 7210,
      "strict": 7211,
      "ultane": 7212,
      "meter": 7213,
      "spons": 7214,
      "crash": 7215,
      "anning": 7216,
      "aimed": 7217,
      "ruption": 7218,
      "heads": 7219,
      "Abbas": 7220,
      "brew": 7221,
      "Web": 7222,
      "birds": 7223,
      "participation": 7224,
      "defense": 7225,
      "buried": 7226,
      "judge": 7227,
      "Apple": 7228,
      "Captain": 7229,
      "implemented": 7230,
      "tells": 7231,
      "relief": 7232,
      "Southeast": 7233,
      "restrictions": 7234,
      "welfare": 7235,
      "Square": 7236,
      "Byzantine": 7237,
      "attached": 7238,
      "opinion": 7239,
      "normally": 7240,
      "Caucas": 7241,
      "Uzbe": 7242,
      "Switzerland": 7243,
      "diversity": 7244,
      "68": 7245,
      "Hom": 7246,
      "HIV": 7247,
      "Mot": 7248,
      "Ume": 7249,
      "Yere": 7250,
      "bat": 7251,
      "cise": 7252,
      "fuel": 7253,
      "swe": 7254,
      "wave": 7255,
      "{\\": 7256,
      "eras": 7257,
      "onian": 7258,
      "touch": 7259,
      "rew": 7260,
      "revenue": 7261,
      "oul": 7262,
      "stab": 7263,
      "accom": 7264,
      "bear": 7265,
      "select": 7266,
      "waste": 7267,
      "chip": 7268,
      "Indo": 7269,
      "agong": 7270,
      "fresh": 7271,
      "clin": 7272,
      "rival": 7273,
      "neither": 7274,
      "portal": 7275,
      "endar": 7276,
      "assault": 7277,
      "disaster": 7278,
      "coin": 7279,
      "regime": 7280,
      "Ancient": 7281,
      "monks": 7282,
      "license": 7283,
      "publicly": 7284,
      "legit": 7285,
      "signal": 7286,
      "politan": 7287,
      "increases": 7288,
      "receiving": 7289,
      "amongst": 7290,
      "membership": 7291,
      "Syl": 7292,
      "planet": 7293,
      "grees": 7294,
      "contained": 7295,
      "interests": 7296,
      "graded": 7297,
      "conduct": 7298,
      "fellow": 7299,
      "fishing": 7300,
      "fastest": 7301,
      "dominated": 7302,
      "discussed": 7303,
      "democratic": 7304,
      "immigrants": 7305,
      "sacrific": 7306,
      "tools": 7307,
      "Hawai": 7308,
      "Mohammad": 7309,
      "incorporated": 7310,
      "Tanzania": 7311,
      "Cambodia": 7312,
      "Bombay": 7313,
      "Portugal": 7314,
      "Chittagong": 7315,
      "74": 7316,
      "Gil": 7317,
      "Nag": 7318,
      "Ray": 7319,
      "Six": 7320,
      "TO": 7321,
      "ba": 7322,
      "bird": 7323,
      "caught": 7324,
      "hub": 7325,
      "lists": 7326,
      "send": 7327,
      "ero": 7328,
      "asure": 7329,
      "toward": 7330,
      "stating": 7331,
      "accompl": 7332,
      "ationally": 7333,
      "chain": 7334,
      "aret": 7335,
      "pled": 7336,
      "aks": 7337,
      "fiction": 7338,
      "viation": 7339,
      "cohol": 7340,
      "Arts": 7341,
      "awa": 7342,
      "ift": 7343,
      "cric": 7344,
      "engthen": 7345,
      "Isa": 7346,
      "ideal": 7347,
      "guard": 7348,
      "guaran": 7349,
      "signs": 7350,
      "Shang": 7351,
      "rossing": 7352,
      "Australi": 7353,
      "activist": 7354,
      "explos": 7355,
      "networks": 7356,
      "titled": 7357,
      "municipal": 7358,
      "industries": 7359,
      "violent": 7360,
      "establishing": 7361,
      "ambassador": 7362,
      "Cambridge": 7363,
      "executed": 7364,
      "ordinary": 7365,
      "Little": 7366,
      "piece": 7367,
      "message": 7368,
      "shape": 7369,
      "Network": 7370,
      "theoret": 7371,
      "alpha": 7372,
      "AR": 7373,
      "DC": 7374,
      "Dev": 7375,
      "Hun": 7376,
      "IL": 7377,
      "Jak": 7378,
      "Ki": 7379,
      "Num": 7380,
      "Niger": 7381,
      "Tra": 7382,
      "Var": 7383,
      "Well": 7384,
      "Zim": 7385,
      "ju": 7386,
      "mouth": 7387,
      "pul": 7388,
      "pure": 7389,
      "wins": 7390,
      "ario": 7391,
      "isal": 7392,
      "retained": 7393,
      "degrees": 7394,
      "opt": 7395,
      "extra": 7396,
      "affil": 7397,
      "assess": 7398,
      "herself": 7399,
      "boats": 7400,
      "awar": 7401,
      "merged": 7402,
      "secondary": 7403,
      "label": 7404,
      "porno": 7405,
      "1932": 7406,
      "evening": 7407,
      "tonnes": 7408,
      "expensive": 7409,
      "Administr": 7410,
      "historian": 7411,
      "grown": 7412,
      "critics": 7413,
      "reaching": 7414,
      "raped": 7415,
      "strongly": 7416,
      "missile": 7417,
      "printed": 7418,
      "Thai": 7419,
      "occasions": 7420,
      "walk": 7421,
      "democracy": 7422,
      "Socialist": 7423,
      "exactly": 7424,
      "assumed": 7425,
      "Temple": 7426,
      "utenant": 7427,
      "Reserve": 7428,
      "imprisoned": 7429,
      "Bad": 7430,
      "Bos": 7431,
      "Na": 7432,
      "Pi": 7433,
      "Sams": 7434,
      "Ve": 7435,
      "Ver": 7436,
      "Wild": 7437,
      "bian": 7438,
      "cks": 7439,
      "ois": 7440,
      "pick": 7441,
      "sper": 7442,
      "administer": 7443,
      "acre": 7444,
      "agues": 7445,
      "idi": 7446,
      "oppon": 7447,
      "rivers": 7448,
      "ums": 7449,
      "logy": 7450,
      "Chenn": 7451,
      "commem": 7452,
      "pool": 7453,
      "spending": 7454,
      "drama": 7455,
      "roughly": 7456,
      "1943": 7457,
      "1940s": 7458,
      "coverage": 7459,
      "believes": 7460,
      "USA": 7461,
      "tests": 7462,
      "Origin": 7463,
      "recognize": 7464,
      "civilians": 7465,
      "participants": 7466,
      "Series": 7467,
      "investigation": 7468,
      "details": 7469,
      "dangerous": 7470,
      "duty": 7471,
      "appropriate": 7472,
      "destruction": 7473,
      "Meanwhile": 7474,
      "Brunei": 7475,
      "Chennai": 7476,
      "%,": 7477,
      "58": 7478,
      "77": 7479,
      "Clar": 7480,
      "Chair": 7481,
      "Light": 7482,
      "Love": 7483,
      "NG": 7484,
      "Saint": 7485,
      "bles": 7486,
      "diction": 7487,
      "fing": 7488,
      "hope": 7489,
      "yellow": 7490,
      "itar": 7491,
      "tood": 7492,
      "reaction": 7493,
      "stayed": 7494,
      "ils": 7495,
      "advent": 7496,
      "roof": 7497,
      "tered": 7498,
      "1929": 7499,
      "diale": 7500,
      "elder": 7501,
      "mann": 7502,
      "Hebrew": 7503,
      "dismiss": 7504,
      "ureau": 7505,
      "poems": 7506,
      "vised": 7507,
      "willing": 7508,
      "useful": 7509,
      "choose": 7510,
      "Conf": 7511,
      "1935": 7512,
      "Colon": 7513,
      "getting": 7514,
      "balance": 7515,
      "explain": 7516,
      "businesses": 7517,
      "Poland": 7518,
      "Moz": 7519,
      "contribution": 7520,
      "ancest": 7521,
      "SAS": 7522,
      "objects": 7523,
      "organisations": 7524,
      "examples": 7525,
      "attracted": 7526,
      "initiated": 7527,
      "Television": 7528,
      "1920s": 7529,
      "wounded": 7530,
      "Scotland": 7531,
      "Queens": 7532,
      "Building": 7533,
      "atabase": 7534,
      "temples": 7535,
      "Brown": 7536,
      "Cop": 7537,
      "Cha": 7538,
      "Jun": 7539,
      "Long": 7540,
      "Rash": 7541,
      "gall": 7542,
      "horses": 7543,
      "iest": 7544,
      "jail": 7545,
      "ko": 7546,
      "oe": 7547,
      "save": 7548,
      "zon": 7549,
      "incess": 7550,
      "anj": 7551,
      "enforce": 7552,
      "icult": 7553,
      "heard": 7554,
      "1927": 7555,
      "pler": 7556,
      "Chile": 7557,
      "iph": 7558,
      "Third": 7559,
      "Stadium": 7560,
      "possibility": 7561,
      "effici": 7562,
      "submitted": 7563,
      "whereas": 7564,
      "supporters": 7565,
      "insula": 7566,
      "wars": 7567,
      "airo": 7568,
      "leads": 7569,
      "completion": 7570,
      "16th": 7571,
      "dont": 7572,
      "solar": 7573,
      "construct": 7574,
      "graphic": 7575,
      "placement": 7576,
      "planets": 7577,
      "Mugh": 7578,
      "Mao": 7579,
      "ospitals": 7580,
      "paint": 7581,
      "concerned": 7582,
      "medieval": 7583,
      "Sunday": 7584,
      "friendly": 7585,
      "threatened": 7586,
      "indicated": 7587,
      "dominant": 7588,
      "Kenya": 7589,
      "philosoph": 7590,
      "Tarn": 7591,
      "Khalid": 7592,
      "minimum": 7593,
      "Legisl": 7594,
      "Lahore": 7595,
      "retirement": 7596,
      "understood": 7597,
      "Yerevan": 7598,
      "Samsung": 7599,
      "1000": 7600,
      "92": 7601,
      "Agr": 7602,
      "Broad": 7603,
      "Du": 7604,
      "Dy": 7605,
      "DNA": 7606,
      "Main": 7607,
      "NS": 7608,
      "Scient": 7609,
      "Tun": 7610,
      "aus": 7611,
      "crop": 7612,
      "census": 7613,
      "nav": 7614,
      "pages": 7615,
      "rh": 7616,
      "rational": 7617,
      "vals": 7618,
      "vices": 7619,
      "wage": 7620,
      "anth": 7621,
      "tock": 7622,
      "rein": 7623,
      "lected": 7624,
      "seas": 7625,
      "uncertain": 7626,
      "tries": 7627,
      "agent": 7628,
      "1926": 7629,
      "1928": 7630,
      "ulpt": 7631,
      "withdraw": 7632,
      "sie": 7633,
      "perfect": 7634,
      "disorder": 7635,
      "Arthur": 7636,
      "lowest": 7637,
      "bran": 7638,
      "anyone": 7639,
      "someone": 7640,
      "oblig": 7641,
      "extension": 7642,
      "powered": 7643,
      "depending": 7644,
      "charity": 7645,
      "passes": 7646,
      "reading": 7647,
      "courts": 7648,
      "sche": 7649,
      "Airlines": 7650,
      "Syd": 7651,
      "inflation": 7652,
      "Express": 7653,
      "studying": 7654,
      "easy": 7655,
      "marketing": 7656,
      "traveled": 7657,
      "moral": 7658,
      "indicate": 7659,
      "qualified": 7660,
      "qualify": 7661,
      "implementation": 7662,
      "joining": 7663,
      "mountains": 7664,
      "fleet": 7665,
      "psychological": 7666,
      "dispute": 7667,
      "integrated": 7668,
      "Bolshe": 7669,
      "medicine": 7670,
      "answer": 7671,
      "nominated": 7672,
      "consumption": 7673,
      "escape": 7674,
      "entrance": 7675,
      "Engineering": 7676,
      "batsman": 7677,
      "Channel": 7678,
      "Umeå": 7679,
      "4th": 7680,
      "Bir": 7681,
      "Gor": 7682,
      "HA": 7683,
      "Hay": 7684,
      "Ni": 7685,
      "Nas": 7686,
      "Nad": 7687,
      "Py": 7688,
      "Tex": 7689,
      "Wood": 7690,
      "gone": 7691,
      "kg": 7692,
      "ography": 7693,
      "atol": 7694,
      "itime": 7695,
      "remember": 7696,
      "icit": 7697,
      "urs": 7698,
      "igins": 7699,
      "agers": 7700,
      "plot": 7701,
      "moon": 7702,
      "mole": 7703,
      "lose": 7704,
      "pted": 7705,
      "crete": 7706,
      "crimes": 7707,
      "cession": 7708,
      "finds": 7709,
      "Decl": 7710,
      "Convention": 7711,
      "solute": 7712,
      "cultiv": 7713,
      "periods": 7714,
      "lights": 7715,
      "helps": 7716,
      "decline": 7717,
      "Execut": 7718,
      "evolved": 7719,
      "containing": 7720,
      "estimates": 7721,
      "audio": 7722,
      "assistant": 7723,
      "demanded": 7724,
      "Buddhism": 7725,
      "Madras": 7726,
      "chester": 7727,
      "occupation": 7728,
      "survived": 7729,
      "stood": 7730,
      "citizenship": 7731,
      "sovereignty": 7732,
      "delivered": 7733,
      "symptoms": 7734,
      "circumstances": 7735,
      "milk": 7736,
      "Dubai": 7737,
      "substantial": 7738,
      "pregnancy": 7739,
      "ultaneously": 7740,
      "Uzbek": 7741,
      "Shanghai": 7742,
      "72": 7743,
      "81": 7744,
      "Aw": 7745,
      "Ast": 7746,
      "Asi": 7747,
      "Bon": 7748,
      "CD": 7749,
      "Fat": 7750,
      "Jac": 7751,
      "Jul": 7752,
      "Jud": 7753,
      "Song": 7754,
      "Sind": 7755,
      "Tang": 7756,
      "Win": 7757,
      "fly": 7758,
      "gay": 7759,
      "mel": 7760,
      "nis": 7761,
      "sort": 7762,
      "uz": 7763,
      "vian": 7764,
      "org": 7765,
      "alcohol": 7766,
      "stim": 7767,
      "heter": 7768,
      "helic": 7769,
      "uration": 7770,
      "uscript": 7771,
      "istical": 7772,
      "proof": 7773,
      "arta": 7774,
      "angle": 7775,
      "enders": 7776,
      "count": 7777,
      "minute": 7778,
      "drinking": 7779,
      "somewhat": 7780,
      "supplies": 7781,
      "politician": 7782,
      "carbon": 7783,
      "longest": 7784,
      "charges": 7785,
      "Russi": 7786,
      "successor": 7787,
      "approval": 7788,
      "Columb": 7789,
      "everyone": 7790,
      "educated": 7791,
      "Heritage": 7792,
      "Gods": 7793,
      "Christmas": 7794,
      "Mec": 7795,
      "eases": 7796,
      "Highway": 7797,
      "happiness": 7798,
      "examination": 7799,
      "documented": 7800,
      "walls": 7801,
      "benefits": 7802,
      "Valley": 7803,
      "ESCO": 7804,
      "losing": 7805,
      "beautiful": 7806,
      "acuum": 7807,
      "false": 7808,
      "Nevertheless": 7809,
      "7th": 7810,
      "9th": 7811,
      "Batt": 7812,
      "CS": 7813,
      "EF": 7814,
      "EU": 7815,
      "Eli": 7816,
      "Fund": 7817,
      "Hem": 7818,
      "Kum": 7819,
      "PR": 7820,
      "Rena": 7821,
      "Saud": 7822,
      "WA": 7823,
      "bag": 7824,
      "ec": 7825,
      "hired": 7826,
      "knew": 7827,
      "ray": 7828,
      "sn": 7829,
      "xy": 7830,
      "zen": 7831,
      "assembly": 7832,
      "beings": 7833,
      "amber": 7834,
      "impossible": 7835,
      "optim": 7836,
      "provision": 7837,
      "ounced": 7838,
      "illery": 7839,
      "grant": 7840,
      "partially": 7841,
      "diseases": 7842,
      "centers": 7843,
      "meat": 7844,
      "spher": 7845,
      "Along": 7846,
      "Alban": 7847,
      "Anglo": 7848,
      "eleven": 7849,
      "colors": 7850,
      "Why": 7851,
      "trieved": 7852,
      "tribal": 7853,
      "Prim": 7854,
      "donated": 7855,
      "sculpt": 7856,
      "testing": 7857,
      "Abraham": 7858,
      "programme": 7859,
      "representing": 7860,
      "competed": 7861,
      "practical": 7862,
      "winner": 7863,
      "involvement": 7864,
      "agreements": 7865,
      "accounting": 7866,
      "speakers": 7867,
      "weekly": 7868,
      "internet": 7869,
      "Mahar": 7870,
      "injury": 7871,
      "armies": 7872,
      "pilot": 7873,
      "Holy": 7874,
      "legislation": 7875,
      "prayer": 7876,
      "Martin": 7877,
      "Tube": 7878,
      "suspended": 7879,
      "restaurant": 7880,
      "fighters": 7881,
      "Control": 7882,
      "opposite": 7883,
      "expedition": 7884,
      "commemor": 7885,
      "Bolshevi": 7886,
      "900": 7887,
      "Ale": 7888,
      "Emb": 7889,
      "Hung": 7890,
      "Lor": 7891,
      "Non": 7892,
      "Rock": 7893,
      "Sud": 7894,
      "cof": 7895,
      "cot": 7896,
      "cue": 7897,
      "ket": 7898,
      "nant": 7899,
      "pione": 7900,
      "scar": 7901,
      "ende": 7902,
      "iling": 7903,
      "sees": 7904,
      "imination": 7905,
      "imperial": 7906,
      "igade": 7907,
      "una": 7908,
      "united": 7909,
      "1915": 7910,
      "1925": 7911,
      "mosqu": 7912,
      "mothers": 7913,
      "cloth": 7914,
      "shad": 7915,
      "umn": 7916,
      "outs": 7917,
      "fired": 7918,
      "strengthen": 7919,
      "Armed": 7920,
      "Ant": 7921,
      "invented": 7922,
      "surprise": 7923,
      "smart": 7924,
      "singing": 7925,
      "returns": 7926,
      "courses": 7927,
      "fewer": 7928,
      "Chris": 7929,
      "physic": 7930,
      "Crus": 7931,
      "Services": 7932,
      "Swiss": 7933,
      "connect": 7934,
      "UNESCO": 7935,
      "truth": 7936,
      "engineers": 7937,
      "calendar": 7938,
      "experiences": 7939,
      "Finally": 7940,
      "survive": 7941,
      "publisher": 7942,
      "daughters": 7943,
      "reserved": 7944,
      "Edward": 7945,
      "Vietnamese": 7946,
      "continental": 7947,
      "rarely": 7948,
      "picture": 7949,
      "Commonwealth": 7950,
      "eview": 7951,
      "modified": 7952,
      "phenomen": 7953,
      "Language": 7954,
      "grapher": 7955,
      "slightly": 7956,
      "parallel": 7957,
      "cuisine": 7958,
      "cricke": 7959,
      "awareness": 7960,
      "52": 7961,
      "62": 7962,
      "91": 7963,
      "97": 7964,
      "Bes": 7965,
      "Ka": 7966,
      "Kings": 7967,
      "Let": 7968,
      "Luc": 7969,
      "Mes": 7970,
      "Mit": 7971,
      "Mother": 7972,
      "Mountain": 7973,
      "Pass": 7974,
      "Review": 7975,
      "Sab": 7976,
      "Ts": 7977,
      "T20": 7978,
      "Tel": 7979,
      "Ven": 7980,
      "ahead": 7981,
      "cav": 7982,
      "dating": 7983,
      "hence": 7984,
      "iers": 7985,
      "iPhone": 7986,
      "lon": 7987,
      "ustr": 7988,
      "ال": 7989,
      "inal": 7990,
      "ining": 7991,
      "inno": 7992,
      "eru": 7993,
      "stance": 7994,
      "hect": 7995,
      "entit": 7996,
      "entering": 7997,
      "igious": 7998,
      "constitu": 7999,
      "agu": 8000,
      "1921": 8001,
      "ape": 8002,
      "prince": 8003,
      "alloc": 8004,
      "shops": 8005,
      "anta": 8006,
      "twel": 8007,
      "compound": 8008,
      "otherwise": 8009,
      "corps": 8010,
      "ifies": 8011,
      "ministers": 8012,
      "produces": 8013,
      "10th": 8014,
      "transition": 8015,
      "Chinas": 8016,
      "supports": 8017,
      "rane": 8018,
      "alongside": 8019,
      "21st": 8020,
      "Max": 8021,
      "1908": 8022,
      "percentage": 8023,
      "seventh": 8024,
      "argument": 8025,
      "clearly": 8026,
      "situated": 8027,
      "governed": 8028,
      "fifteen": 8029,
      "goddess": 8030,
      "Brah": 8031,
      "preserved": 8032,
      "negotiations": 8033,
      "sacred": 8034,
      "component": 8035,
      "pictures": 8036,
      "Bihar": 8037,
      "Georgia": 8038,
      "Lebanon": 8039,
      "Business": 8040,
      "abortion": 8041,
      "acknowled": 8042,
      "explanation": 8043,
      "helicop": 8044,
      "120": 8045,
      "AF": 8046,
      "Bob": 8047,
      "Bost": 8048,
      "Cre": 8049,
      "Haj": 8050,
      "Kim": 8051,
      "ML": 8052,
      "Mak": 8053,
      "Sciences": 8054,
      "bury": 8055,
      "borders": 8056,
      "eigh": 8057,
      "kid": 8058,
      "sin": 8059,
      "eries": 8060,
      "alion": 8061,
      "aling": 8062,
      "items": 8063,
      "uras": 8064,
      "igible": 8065,
      "1912": 8066,
      "1924": 8067,
      "prove": 8068,
      "manuscript": 8069,
      "loan": 8070,
      "raise": 8071,
      "coordin": 8072,
      "marks": 8073,
      "fined": 8074,
      "ampions": 8075,
      "filed": 8076,
      "Who": 8077,
      "starts": 8078,
      "humanity": 8079,
      "requested": 8080,
      "missing": 8081,
      "passport": 8082,
      "runway": 8083,
      "13th": 8084,
      "steel": 8085,
      "equality": 8086,
      "musical": 8087,
      "advice": 8088,
      "Tea": 8089,
      "audience": 8090,
      "meetings": 8091,
      "motiv": 8092,
      "Karachi": 8093,
      "translation": 8094,
      "Community": 8095,
      "Years": 8096,
      "manufacturing": 8097,
      "robots": 8098,
      "Darwin": 8099,
      "classification": 8100,
      "restricted": 8101,
      "terrorism": 8102,
      "liberal": 8103,
      "conservation": 8104,
      "Studies": 8105,
      "Operation": 8106,
      "conquered": 8107,
      "attributed": 8108,
      "fashion": 8109,
      "Jakarta": 8110,
      "Texas": 8111,
      "Declaration": 8112,
      "IBM": 8113,
      "Sand": 8114,
      "bene": 8115,
      "dan": 8116,
      "fest": 8117,
      "fans": 8118,
      "gence": 8119,
      "greg": 8120,
      "iro": 8121,
      "jaz": 8122,
      "lav": 8123,
      "pig": 8124,
      "uous": 8125,
      "vul": 8126,
      "vacuum": 8127,
      "thinking": 8128,
      "infect": 8129,
      "informed": 8130,
      "alive": 8131,
      "rebuilt": 8132,
      "stability": 8133,
      "uri": 8134,
      "chron": 8135,
      "suitable": 8136,
      "tees": 8137,
      "permission": 8138,
      "actively": 8139,
      "output": 8140,
      "forming": 8141,
      "izations": 8142,
      "posit": 8143,
      "guil": 8144,
      "warm": 8145,
      "warfare": 8146,
      "aims": 8147,
      "imported": 8148,
      "handed": 8149,
      "Peters": 8150,
      "facilit": 8151,
      "representatives": 8152,
      "rising": 8153,
      "ugg": 8154,
      "productive": 8155,
      "targets": 8156,
      "accessible": 8157,
      "characteristics": 8158,
      "motion": 8159,
      "Region": 8160,
      "capture": 8161,
      "Earths": 8162,
      "instructions": 8163,
      "dreams": 8164,
      "organisms": 8165,
      "consisted": 8166,
      "Abdullah": 8167,
      "performances": 8168,
      "bowling": 8169,
      "immediate": 8170,
      "suffering": 8171,
      "Mission": 8172,
      "Defense": 8173,
      "cameras": 8174,
      "Liberation": 8175,
      "Baba": 8176,
      "millions": 8177,
      "bellion": 8178,
      "prohibited": 8179,
      "Bulgar": 8180,
      "diagn": 8181,
      "announcement": 8182,
      "theoretical": 8183,
      "Mecca": 8184,
      "Renaissance": 8185,
      "73": 8186,
      "CH": 8187,
      "Ca": 8188,
      "Crit": 8189,
      "DM": 8190,
      "Der": 8191,
      "Hard": 8192,
      "Lt": 8193,
      "Mach": 8194,
      "Ron": 8195,
      "Son": 8196,
      "Sex": 8197,
      "bun": 8198,
      "bra": 8199,
      "cers": 8200,
      "dent": 8201,
      "gue": 8202,
      "hospitals": 8203,
      "kings": 8204,
      "mers": 8205,
      "pes": 8206,
      "rub": 8207,
      "rice": 8208,
      "ule": 8209,
      "orith": 8210,
      "orph": 8211,
      "origins": 8212,
      "tomb": 8213,
      "toler": 8214,
      "roid": 8215,
      "root": 8216,
      "aced": 8217,
      "uru": 8218,
      "terior": 8219,
      "dex": 8220,
      "ctive": 8221,
      "Invest": 8222,
      "convent": 8223,
      "convict": 8224,
      "1911": 8225,
      "absolute": 8226,
      "allies": 8227,
      "spend": 8228,
      "medals": 8229,
      "flour": 8230,
      "interface": 8231,
      "invent": 8232,
      "supposed": 8233,
      "politicians": 8234,
      "ika": 8235,
      "Leon": 8236,
      "readers": 8237,
      "communist": 8238,
      "talk": 8239,
      "Orthodox": 8240,
      "empty": 8241,
      "knows": 8242,
      "Management": 8243,
      "females": 8244,
      "patients": 8245,
      "Lao": 8246,
      "concert": 8247,
      "drive": 8248,
      "breaking": 8249,
      "expanding": 8250,
      "hardware": 8251,
      "taxes": 8252,
      "indicates": 8253,
      "Greater": 8254,
      "YouTube": 8255,
      "secure": 8256,
      "neighbour": 8257,
      "magazines": 8258,
      "silver": 8259,
      "feeling": 8260,
      "disputed": 8261,
      "bringing": 8262,
      "experimental": 8263,
      "exclusive": 8264,
      "resolution": 8265,
      "Throughout": 8266,
      "farmers": 8267,
      "Cultural": 8268,
      "comedy": 8269,
      "ongoing": 8270,
      "straight": 8271,
      "descend": 8272,
      "Professor": 8273,
      "Sydney": 8274,
      "Executive": 8275,
      "Boston": 8276,
      "Ages": 8277,
      "Bre": 8278,
      "Cir": 8279,
      "Cze": 8280,
      "DV": 8281,
      "Dal": 8282,
      "Dou": 8283,
      "Had": 8284,
      "Hell": 8285,
      "Kun": 8286,
      "Mont": 8287,
      "Pope": 8288,
      "Rab": 8289,
      "Rum": 8290,
      "bilateral": 8291,
      "eing": 8292,
      "och": 8293,
      "ocean": 8294,
      "rand": 8295,
      "tact": 8296,
      "inhab": 8297,
      "enna": 8298,
      "aria": 8299,
      "retain": 8300,
      "remove": 8301,
      "reviews": 8302,
      "irs": 8303,
      "igg": 8304,
      "constitut": 8305,
      "diver": 8306,
      "isted": 8307,
      "etc": 8308,
      "prosecut": 8309,
      "prosper": 8310,
      "soil": 8311,
      "earn": 8312,
      "antly": 8313,
      "umes": 8314,
      "residence": 8315,
      "cool": 8316,
      "creative": 8317,
      "spec": 8318,
      "desire": 8319,
      "Fran": 8320,
      "limits": 8321,
      "Bangladeshs": 8322,
      "reduc": 8323,
      "transit": 8324,
      "aik": 8325,
      "politically": 8326,
      "humanitarian": 8327,
      "personality": 8328,
      "responded": 8329,
      "archae": 8330,
      "handling": 8331,
      "tested": 8332,
      "virus": 8333,
      "sentence": 8334,
      "rison": 8335,
      "reportedly": 8336,
      "ruling": 8337,
      "radical": 8338,
      "Code": 8339,
      "define": 8340,
      "painted": 8341,
      "cope": 8342,
      "blind": 8343,
      "concepts": 8344,
      "conflicts": 8345,
      "carrier": 8346,
      "consisting": 8347,
      "consistent": 8348,
      "attraction": 8349,
      "steps": 8350,
      "infan": 8351,
      "absor": 8352,
      "insurance": 8353,
      "subscri": 8354,
      "shooting": 8355,
      "Francisco": 8356,
      "Area": 8357,
      "consumer": 8358,
      "divorce": 8359,
      "Shortly": 8360,
      "movies": 8361,
      "Zimbab": 8362,
      "Chairman": 8363,
      "Jacob": 8364,
      "Columbia": 8365,
      "350": 8366,
      "Da": 8367,
      "Dan": 8368,
      "Gh": 8369,
      "Greg": 8370,
      "ME": 8371,
      "Our": 8372,
      "Penn": 8373,
      "Stra": 8374,
      "UA": 8375,
      "egg": 8376,
      "hes": 8377,
      "hunt": 8378,
      "iya": 8379,
      "iPad": 8380,
      "mac": 8381,
      "mour": 8382,
      "voy": 8383,
      "ying": 8384,
      "throw": 8385,
      "inos": 8386,
      "atically": 8387,
      "assum": 8388,
      "assets": 8389,
      "reward": 8390,
      "reck": 8391,
      "oms": 8392,
      "acle": 8393,
      "iron": 8394,
      "ctic": 8395,
      "1913": 8396,
      "estate": 8397,
      "option": 8398,
      "artistic": 8399,
      "shore": 8400,
      "outbreak": 8401,
      "displayed": 8402,
      "ogue": 8403,
      "ensed": 8404,
      "Recent": 8405,
      "shipping": 8406,
      "varies": 8407,
      "covers": 8408,
      "simultaneously": 8409,
      "generations": 8410,
      "continuing": 8411,
      "claiming": 8412,
      "independently": 8413,
      "competitions": 8414,
      "typical": 8415,
      "peaceful": 8416,
      "driving": 8417,
      "Goa": 8418,
      "Imperial": 8419,
      "housing": 8420,
      "injuries": 8421,
      "instruments": 8422,
      "Mosque": 8423,
      "tracks": 8424,
      "reserves": 8425,
      "symbols": 8426,
      "observations": 8427,
      "Mongolia": 8428,
      "Kepler": 8429,
      "Cypr": 8430,
      "Freedom": 8431,
      "demol": 8432,
      "closer": 8433,
      "orientation": 8434,
      "mathematical": 8435,
      "autonomous": 8436,
      "occasionally": 8437,
      "decisions": 8438,
      "Standard": 8439,
      "Family": 8440,
      "algorith": 8441,
      "entitled": 8442,
      "inhabited": 8443,
      "reducing": 8444,
      "83": 8445,
      "84": 8446,
      "Agre": 8447,
      "Boy": 8448,
      "Floyd": 8449,
      "Master": 8450,
      "Pot": 8451,
      "Sor": 8452,
      "Tay": 8453,
      "Ther": 8454,
      "Vene": 8455,
      "codes": 8456,
      "lum": 8457,
      "mph": 8458,
      "nur": 8459,
      "snow": 8460,
      "tz": 8461,
      "vard": 8462,
      "incent": 8463,
      "institute": 8464,
      "infection": 8465,
      "ano": 8466,
      "orbit": 8467,
      "recip": 8468,
      "outer": 8469,
      "heat": 8470,
      "imposed": 8471,
      "decor": 8472,
      "ota": 8473,
      "withdrew": 8474,
      "proportion": 8475,
      "endum": 8476,
      "endered": 8477,
      "comput": 8478,
      "corruption": 8479,
      "ahar": 8480,
      "thereafter": 8481,
      "doctors": 8482,
      "consol": 8483,
      "memorial": 8484,
      "guitar": 8485,
      "Constant": 8486,
      "Americas": 8487,
      "valley": 8488,
      "1938": 8489,
      "socialist": 8490,
      "Adams": 8491,
      "historically": 8492,
      "criter": 8493,
      "Gujar": 8494,
      "Polish": 8495,
      "connections": 8496,
      "uddin": 8497,
      "falls": 8498,
      "threats": 8499,
      "blocks": 8500,
      "objective": 8501,
      "seriously": 8502,
      "Blue": 8503,
      "evalu": 8504,
      "adults": 8505,
      "conservative": 8506,
      "technique": 8507,
      "narrow": 8508,
      "advertising": 8509,
      "garden": 8510,
      "Universal": 8511,
      "reputation": 8512,
      "phenomenon": 8513,
      "Cyprus": 8514,
      "130": 8515,
      "Aviation": 8516,
      "Bible": 8517,
      "Ice": 8518,
      "ND": 8519,
      "Pay": 8520,
      "ST": 8521,
      "Tru": 8522,
      "iar": 8523,
      "kan": 8524,
      "lu": 8525,
      "lun": 8526,
      "lins": 8527,
      "vow": 8528,
      "inner": 8529,
      "aly": 8530,
      "rem": 8531,
      "rebels": 8532,
      "adel": 8533,
      "secretary": 8534,
      "iri": 8535,
      "igan": 8536,
      "condem": 8537,
      "fred": 8538,
      "sud": 8539,
      "suit": 8540,
      "shin": 8541,
      "overseas": 8542,
      "neon": 8543,
      "resort": 8544,
      "resign": 8545,
      "eving": 8546,
      "upgraded": 8547,
      "Aristo": 8548,
      "intention": 8549,
      "Albert": 8550,
      "genes": 8551,
      "Friday": 8552,
      "Represent": 8553,
      "files": 8554,
      "transmission": 8555,
      "Europeans": 8556,
      "Show": 8557,
      "Shak": 8558,
      "didnt": 8559,
      "statistics": 8560,
      "referendum": 8561,
      "seeking": 8562,
      "declined": 8563,
      "involve": 8564,
      "Team": 8565,
      "skin": 8566,
      "appearances": 8567,
      "Persia": 8568,
      "internationally": 8569,
      "campaigns": 8570,
      "stores": 8571,
      "prisoners": 8572,
      "novels": 8573,
      "robot": 8574,
      "decreased": 8575,
      "requirements": 8576,
      "Assist": 8577,
      "AIDS": 8578,
      "Type": 8579,
      "gardens": 8580,
      "bacter": 8581,
      "beauty": 8582,
      "apparent": 8583,
      "shifted": 8584,
      "tallest": 8585,
      "customers": 8586,
      "scenes": 8587,
      "Trophy": 8588,
      "atmosphere": 8589,
      "cancel": 8590,
      "Facebook": 8591,
      "Limited": 8592,
      "Sylhet": 8593,
      "Agricult": 8594,
      "mosques": 8595,
      "86": 8596,
      "Jim": 8597,
      "Jama": 8598,
      "Kan": 8599,
      "Kane": 8600,
      "Liv": 8601,
      "Local": 8602,
      "Mult": 8603,
      "Row": 8604,
      "Rang": 8605,
      "Raf": 8606,
      "lap": 8607,
      "ocide": 8608,
      "yard": 8609,
      "onia": 8610,
      "lease": 8611,
      "olas": 8612,
      "celer": 8613,
      "owers": 8614,
      "agos": 8615,
      "agents": 8616,
      "embar": 8617,
      "plus": 8618,
      "osh": 8619,
      "osph": 8620,
      "rescue": 8621,
      "Chil": 8622,
      "compass": 8623,
      "iana": 8624,
      "Stan": 8625,
      "spell": 8626,
      "Alger": 8627,
      "phr": 8628,
      "finals": 8629,
      "Any": 8630,
      "Anim": 8631,
      "desk": 8632,
      "desert": 8633,
      "mainland": 8634,
      "doors": 8635,
      "hima": 8636,
      "identification": 8637,
      "Forest": 8638,
      "leges": 8639,
      "deput": 8640,
      "perspect": 8641,
      "Norway": 8642,
      "Japans": 8643,
      "Trad": 8644,
      "venture": 8645,
      "technologies": 8646,
      "civilization": 8647,
      "posted": 8648,
      "destination": 8649,
      "participating": 8650,
      "holders": 8651,
      "scientist": 8652,
      "ropical": 8653,
      "contribute": 8654,
      "renew": 8655,
      "adopt": 8656,
      "publishers": 8657,
      "judic": 8658,
      "Note": 8659,
      "Alexand": 8660,
      "burned": 8661,
      "performing": 8662,
      "drugs": 8663,
      "thirty": 8664,
      "exhibition": 8665,
      "quantum": 8666,
      "Liter": 8667,
      "Esco": 8668,
      "seemed": 8669,
      "duties": 8670,
      "apparently": 8671,
      "mathematics": 8672,
      "departments": 8673,
      "homosexuality": 8674,
      "Tajikistan": 8675,
      "punishment": 8676,
      "amounts": 8677,
      "Legislative": 8678,
      "coffee": 8679,
      "Agreement": 8680,
      "\",": 8681,
      ".).": 8682,
      "59": 8683,
      "8th": 8684,
      "Ari": 8685,
      "Ama": 8686,
      "Bose": 8687,
      "Dun": 8688,
      "GDP": 8689,
      "Jef": 8690,
      "Ker": 8691,
      "Lev": 8692,
      "Lie": 8693,
      "Naj": 8694,
      "Vill": 8695,
      "Watch": 8696,
      "naval": 8697,
      "ygen": 8698,
      "enab": 8699,
      "stored": 8700,
      "seized": 8701,
      "chen": 8702,
      "1923": 8703,
      "eless": 8704,
      "ears": 8705,
      "ciation": 8706,
      "libr": 8707,
      "Child": 8708,
      "ptions": 8709,
      "Unlike": 8710,
      "commenced": 8711,
      "inton": 8712,
      "intent": 8713,
      "bron": 8714,
      "registr": 8715,
      "enger": 8716,
      "airlines": 8717,
      "monitor": 8718,
      "cured": 8719,
      "visual": 8720,
      "guests": 8721,
      "Shiv": 8722,
      "ibn": 8723,
      "solo": 8724,
      "12th": 8725,
      "designs": 8726,
      "Produ": 8727,
      "Trust": 8728,
      "promise": 8729,
      "handled": 8730,
      "casual": 8731,
      "activists": 8732,
      "Gener": 8733,
      "capitalism": 8734,
      "magic": 8735,
      "hosts": 8736,
      "looked": 8737,
      "respective": 8738,
      "criticised": 8739,
      "Commissioner": 8740,
      "albums": 8741,
      "exception": 8742,
      "deliber": 8743,
      "Palestinians": 8744,
      "surrounded": 8745,
      "advertis": 8746,
      "fruit": 8747,
      "WWE": 8748,
      "Denmark": 8749,
      "Political": 8750,
      "electrical": 8751,
      "bridges": 8752,
      "athletes": 8753,
      "Colombia": 8754,
      "Venez": 8755,
      "Event": 8756,
      "Fer": 8757,
      "Gang": 8758,
      "Much": 8759,
      "OR": 8760,
      "Pas": 8761,
      "SE": 8762,
      "Van": 8763,
      "aer": 8764,
      "batter": 8765,
      "flying": 8766,
      "gal": 8767,
      "gro": 8768,
      "}}": 8769,
      "thy": 8770,
      "argue": 8771,
      "stic": 8772,
      "aments": 8773,
      "cher": 8774,
      "Inc": 8775,
      "1916": 8776,
      "emed": 8777,
      "emigr": 8778,
      "manage": 8779,
      "lift": 8780,
      "shr": 8781,
      "evacu": 8782,
      "compens": 8783,
      "poem": 8784,
      "ockey": 8785,
      "monaster": 8786,
      "visits": 8787,
      "eleph": 8788,
      "Death": 8789,
      "interior": 8790,
      "struction": 8791,
      "jection": 8792,
      "signing": 8793,
      "untary": 8794,
      "venues": 8795,
      "curring": 8796,
      "relev": 8797,
      "lawyer": 8798,
      "towers": 8799,
      "facing": 8800,
      "involves": 8801,
      "bands": 8802,
      "telephone": 8803,
      "ruler": 8804,
      "1906": 8805,
      "companied": 8806,
      "evolutionary": 8807,
      "BCE": 8808,
      "acceptable": 8809,
      "styles": 8810,
      "ISO": 8811,
      "discussion": 8812,
      "manufactur": 8813,
      "observation": 8814,
      "wealthy": 8815,
      "structural": 8816,
      "Subsequently": 8817,
      "devast": 8818,
      "Senate": 8819,
      "aviation": 8820,
      "Historically": 8821,
      "Faisal": 8822,
      "distinguish": 8823,
      "extinction": 8824,
      "Digital": 8825,
      "Ambassador": 8826,
      "accordance": 8827,
      "affili": 8828,
      "pornography": 8829,
      "hectares": 8830,
      "sudden": 8831,
      "AM": 8832,
      "Avenue": 8833,
      "Band": 8834,
      "Ga": 8835,
      "Kon": 8836,
      "Kol": 8837,
      "Knight": 8838,
      "Met": 8839,
      "Rh": 8840,
      "Ref": 8841,
      "Route": 8842,
      "Tan": 8843,
      "Ub": 8844,
      "Vik": 8845,
      "bol": 8846,
      "cant": 8847,
      "database": 8848,
      "faster": 8849,
      "gri": 8850,
      "lane": 8851,
      "vic": 8852,
      "ye": 8853,
      "yr": 8854,
      "theat": 8855,
      "theater": 8856,
      "ori": 8857,
      "iti": 8858,
      "recovered": 8859,
      "forb": 8860,
      "uncle": 8861,
      "confer": 8862,
      "2019": 8863,
      "appre": 8864,
      "eline": 8865,
      "cia": 8866,
      "manif": 8867,
      "loved": 8868,
      "assan": 8869,
      "crimination": 8870,
      "finance": 8871,
      "finite": 8872,
      "thereby": 8873,
      "intervention": 8874,
      "transformed": 8875,
      "retail": 8876,
      "Conserv": 8877,
      "warned": 8878,
      "tribe": 8879,
      "Princess": 8880,
      "factories": 8881,
      "talent": 8882,
      "Phys": 8883,
      "maker": 8884,
      "Liby": 8885,
      "Soviets": 8886,
      "Week": 8887,
      "explo": 8888,
      "households": 8889,
      "Meh": 8890,
      "Republican": 8891,
      "strip": 8892,
      "casting": 8893,
      "defend": 8894,
      "improvement": 8895,
      "websites": 8896,
      "Corps": 8897,
      "offering": 8898,
      "Twitter": 8899,
      "Sunni": 8900,
      "demands": 8901,
      "maternal": 8902,
      "Final": 8903,
      "prede": 8904,
      "surviving": 8905,
      "Communic": 8906,
      "Premier": 8907,
      "icipality": 8908,
      "graduated": 8909,
      "Point": 8910,
      "losses": 8911,
      "platforms": 8912,
      "broadcasting": 8913,
      "batting": 8914,
      "episodes": 8915,
      "feminist": 8916,
      "hydrogen": 8917,
      "briefly": 8918,
      "depicted": 8919,
      "photographs": 8920,
      "monument": 8921,
      "Industr": 8922,
      "throne": 8923,
      "assassination": 8924,
      "tasks": 8925,
      "dollars": 8926,
      "efficiency": 8927,
      "Embassy": 8928,
      "twelve": 8929,
      "Childr": 8930,
      "Venezuel": 8931,
      "3rd": 8932,
      "61": 8933,
      "Aar": 8934,
      "Cold": 8935,
      "Dur": 8936,
      "Gate": 8937,
      "Kap": 8938,
      "Nam": 8939,
      "Night": 8940,
      "Napo": 8941,
      "Op": 8942,
      "Sus": 8943,
      "Sem": 8944,
      "Tab": 8945,
      "Tak": 8946,
      "Youth": 8947,
      "Zone": 8948,
      "len": 8949,
      "sciences": 8950,
      "ín": 8951,
      "inspir": 8952,
      "error": 8953,
      "tos": 8954,
      "replace": 8955,
      "replied": 8956,
      "ader": 8957,
      "accompanied": 8958,
      "decide": 8959,
      "concrete": 8960,
      "aggress": 8961,
      "embr": 8962,
      "dios": 8963,
      "excess": 8964,
      "riots": 8965,
      "grave": 8966,
      "rescu": 8967,
      "ivals": 8968,
      "Chand": 8969,
      "discrimination": 8970,
      "landing": 8971,
      "Alfred": 8972,
      "adequ": 8973,
      "ogy": 8974,
      "ensional": 8975,
      "draft": 8976,
      "undertaken": 8977,
      "parks": 8978,
      "ails": 8979,
      "Dec": 8980,
      "myth": 8981,
      "azar": 8982,
      "rolled": 8983,
      "Pakistans": 8984,
      "writes": 8985,
      "singles": 8986,
      "traders": 8987,
      "planes": 8988,
      "custo": 8989,
      "influences": 8990,
      "breed": 8991,
      "declaration": 8992,
      "Moon": 8993,
      "travelled": 8994,
      "commerce": 8995,
      "driver": 8996,
      "colony": 8997,
      "difficulties": 8998,
      "documentary": 8999,
      "boundaries": 9000,
      "equipped": 9001,
      "disputes": 9002,
      "encourage": 9003,
      "challenge": 9004,
      "battles": 9005,
      "mathematic": 9006,
      "Mohammed": 9007,
      "gathered": 9008,
      "collaboration": 9009,
      "restaurants": 9010,
      "elsewhere": 9011,
      "autonomy": 9012,
      "Bahrain": 9013,
      "hoped": 9014,
      "geographical": 9015,
      "neighboring": 9016,
      "ardian": 9017,
      "Emirates": 9018,
      "deployed": 9019,
      "Hitler": 9020,
      "Entertainment": 9021,
      "alphabet": 9022,
      "paintings": 9023,
      "clothing": 9024,
      "Besides": 9025,
      "Zimbabwe": 9026,
      "?.": 9027,
      "Amin": 9028,
      "Bac": 9029,
      "Bru": 9030,
      "Bureau": 9031,
      "CF": 9032,
      "Cairo": 9033,
      "Dark": 9034,
      "EM": 9035,
      "Low": 9036,
      "Mess": 9037,
      "Mich": 9038,
      "Pict": 9039,
      "Ren": 9040,
      "Rem": 9041,
      "Sic": 9042,
      "Vis": 9043,
      "fur": 9044,
      "gam": 9045,
      "mud": 9046,
      "ool": 9047,
      "rig": 9048,
      "xi": 9049,
      "zes": 9050,
      "infected": 9051,
      "arose": 9052,
      "altit": 9053,
      "assemb": 9054,
      "reh": 9055,
      "remot": 9056,
      "icing": 9057,
      "hear": 9058,
      "beth": 9059,
      "amples": 9060,
      "chi": 9061,
      "tery": 9062,
      "unclear": 9063,
      "diverse": 9064,
      "excav": 9065,
      "artillery": 9066,
      "illustr": 9067,
      "quit": 9068,
      "umed": 9069,
      "permit": 9070,
      "notice": 9071,
      "aven": 9072,
      "bright": 9073,
      "ifa": 9074,
      "marines": 9075,
      "maritime": 9076,
      "Anatol": 9077,
      "mainstream": 9078,
      "flat": 9079,
      "Marri": 9080,
      "Bangla": 9081,
      "submarine": 9082,
      "Construction": 9083,
      "depth": 9084,
      "sociology": 9085,
      "Ship": 9086,
      "remainder": 9087,
      "receives": 9088,
      "generate": 9089,
      "grey": 9090,
      "sentenced": 9091,
      "helping": 9092,
      "household": 9093,
      "significance": 9094,
      "Box": 9095,
      "Model": 9096,
      "1904": 9097,
      "1905": 9098,
      "literally": 9099,
      "zero": 9100,
      "expert": 9101,
      "driven": 9102,
      "streets": 9103,
      "logic": 9104,
      "teenth": 9105,
      "predomin": 9106,
      "fifty": 9107,
      "corporate": 9108,
      "reserve": 9109,
      "flowers": 9110,
      "Poly": 9111,
      "extensively": 9112,
      "employee": 9113,
      "thirds": 9114,
      "legislative": 9115,
      "baby": 9116,
      "interpretation": 9117,
      "pieces": 9118,
      "atoms": 9119,
      "enemies": 9120,
      "Husse": 9121,
      "fighter": 9122,
      "emotional": 9123,
      "Austria": 9124,
      "delegation": 9125,
      "mortality": 9126,
      "jurisdiction": 9127,
      "Catalan": 9128,
      "complicated": 9129,
      "elevated": 9130,
      "sponsored": 9131,
      "Caucasus": 9132,
      "legitimate": 9133,
      "infantry": 9134,
      "Napole": 9135,
      "'.": 9136,
      "Cer": 9137,
      "Ein": 9138,
      "Fish": 9139,
      "Ghaz": 9140,
      "Java": 9141,
      "Nik": 9142,
      "Oh": 9143,
      "Others": 9144,
      "Page": 9145,
      "Ry": 9146,
      "Sn": 9147,
      "Vo": 9148,
      "Wat": 9149,
      "Writ": 9150,
      "crossing": 9151,
      "gap": 9152,
      "ligh": 9153,
      "luck": 9154,
      "papers": 9155,
      "paved": 9156,
      "voc": 9157,
      "zones": 9158,
      "inary": 9159,
      "eda": 9160,
      "stret": 9161,
      "ache": 9162,
      "acceler": 9163,
      "sects": 9164,
      "forests": 9165,
      "oles": 9166,
      "devoted": 9167,
      "unusual": 9168,
      "conven": 9169,
      "config": 9170,
      "aba": 9171,
      "comic": 9172,
      "exports": 9173,
      "aked": 9174,
      "haw": 9175,
      "clock": 9176,
      "qui": 9177,
      "lov": 9178,
      "afford": 9179,
      "disappeared": 9180,
      "disorders": 9181,
      "keeper": 9182,
      "gene": 9183,
      "governmental": 9184,
      "Maria": 9185,
      "Where": 9186,
      "economies": 9187,
      "restoration": 9188,
      "faction": 9189,
      "placing": 9190,
      "companys": 9191,
      "Manchester": 9192,
      "netic": 9193,
      "definite": 9194,
      "1903": 9195,
      "Teh": 9196,
      "variations": 9197,
      "Priv": 9198,
      "holiday": 9199,
      "fortun": 9200,
      "Regiment": 9201,
      "situations": 9202,
      "starred": 9203,
      "dynam": 9204,
      "nucle": 9205,
      "bowler": 9206,
      "boxes": 9207,
      "Termin": 9208,
      "petition": 9209,
      "heaven": 9210,
      "maintaining": 9211,
      "collaps": 9212,
      "romantic": 9213,
      "regulations": 9214,
      "preserve": 9215,
      "Koso": 9216,
      "severely": 9217,
      "parliamentary": 9218,
      "wider": 9219,
      "slowly": 9220,
      "Electric": 9221,
      "challenged": 9222,
      "Culture": 9223,
      "Labor": 9224,
      "--------": 9225,
      "procedures": 9226,
      "monarchy": 9227,
      "swimming": 9228,
      "Kumar": 9229,
      "ranean": 9230,
      "acknowledged": 9231,
      "consolid": 9232,
      "cancelled": 9233,
      "87": 9234,
      "Apart": 9235,
      "Crown": 9236,
      "Dani": 9237,
      "Domin": 9238,
      "Fal": 9239,
      "Fif": 9240,
      "Food": 9241,
      "Having": 9242,
      "Kand": 9243,
      "Mid": 9244,
      "SO": 9245,
      "bub": 9246,
      "brown": 9247,
      "gross": 9248,
      "ios": 9249,
      "mates": 9250,
      "sor": 9251,
      "saved": 9252,
      "tab": 9253,
      "tort": 9254,
      "ture": 9255,
      "vacc": 9256,
      "waves": 9257,
      "yers": 9258,
      "zy": 9259,
      "ón": 9260,
      "inated": 9261,
      "encounter": 9262,
      "asking": 9263,
      "rebel": 9264,
      "rebellion": 9265,
      "academy": 9266,
      "depression": 9267,
      "dial": 9268,
      "utility": 9269,
      "ote": 9270,
      "proceed": 9271,
      "eligible": 9272,
      "plastic": 9273,
      "excell": 9274,
      "alliance": 9275,
      "atever": 9276,
      "shares": 9277,
      "wore": 9278,
      "worst": 9279,
      "perceived": 9280,
      "portions": 9281,
      "endment": 9282,
      "Head": 9283,
      "partial": 9284,
      "ritual": 9285,
      "raising": 9286,
      "Arm": 9287,
      "intense": 9288,
      "syl": 9289,
      "Anton": 9290,
      "math": 9291,
      "locally": 9292,
      "highlight": 9293,
      "Bangladeshis": 9294,
      "mayor": 9295,
      "guest": 9296,
      "Wars": 9297,
      "funeral": 9298,
      "topic": 9299,
      "respond": 9300,
      "continuous": 9301,
      "offensive": 9302,
      "harvest": 9303,
      "directors": 9304,
      "reaches": 9305,
      "easier": 9306,
      "posts": 9307,
      "magn": 9308,
      "Mediter": 9309,
      "Crime": 9310,
      "1901": 9311,
      "appearing": 9312,
      "experts": 9313,
      "payment": 9314,
      "Filip": 9315,
      "promotion": 9316,
      "oxygen": 9317,
      "friendship": 9318,
      "ranks": 9319,
      "storage": 9320,
      "holy": 9321,
      "debt": 9322,
      "machines": 9323,
      "torn": 9324,
      "terrorist": 9325,
      "absence": 9326,
      "pilots": 9327,
      "Peninsula": 9328,
      "Robin": 9329,
      "recommend": 9330,
      "honorary": 9331,
      "shaped": 9332,
      "commented": 9333,
      "lifetime": 9334,
      "Hasan": 9335,
      "consumers": 9336,
      "dimensional": 9337,
      "architectural": 9338,
      "extinct": 9339,
      "volunteers": 9340,
      "framework": 9341,
      "Kazakhstan": 9342,
      "Mike": 9343,
      "Alliance": 9344,
      "administered": 9345,
      "Originally": 9346,
      "Colonel": 9347,
      "Mughal": 9348,
      "branches": 9349,
      "vulner": 9350,
      "Constantin": 9351,
      "Escobar": 9352,
      "libraries": 9353,
      "remote": 9354,
      "Mediterranean": 9355,
      "89": 9356,
      "BI": 9357,
      "Ever": 9358,
      "Fun": 9359,
      "Gon": 9360,
      "HS": 9361,
      "Ji": 9362,
      "Mam": 9363,
      "Mob": 9364,
      "NT": 9365,
      "Scre": 9366,
      "Sky": 9367,
      "Twent": 9368,
      "cabinet": 9369,
      "density": 9370,
      "hidden": 9371,
      "jah": 9372,
      "kins": 9373,
      "sq": 9374,
      "sed": 9375,
      "sight": 9376,
      "scr": 9377,
      "tur": 9378,
      "vital": 9379,
      "wick": 9380,
      "wages": 9381,
      "thal": 9382,
      "onments": 9383,
      "envir": 9384,
      "encry": 9385,
      "orter": 9386,
      "itz": 9387,
      "stones": 9388,
      "eman": 9389,
      "proclaimed": 9390,
      "peas": 9391,
      "umps": 9392,
      "metric": 9393,
      "cock": 9394,
      "creates": 9395,
      "avo": 9396,
      "deser": 9397,
      "annex": 9398,
      "olds": 9399,
      "visa": 9400,
      "submarines": 9401,
      "atively": 9402,
      "transmit": 9403,
      "Former": 9404,
      "calling": 9405,
      "surve": 9406,
      "writings": 9407,
      "covering": 9408,
      "140": 9409,
      "solve": 9410,
      "solutions": 9411,
      "controls": 9412,
      "background": 9413,
      "Trump": 9414,
      "description": 9415,
      "explains": 9416,
      "winners": 9417,
      "tempor": 9418,
      "Turks": 9419,
      "viously": 9420,
      "Planning": 9421,
      "Together": 9422,
      "victim": 9423,
      "biology": 9424,
      "Greeks": 9425,
      "circu": 9426,
      "Salad": 9427,
      "adoption": 9428,
      "Willi": 9429,
      "nickn": 9430,
      "phases": 9431,
      "expression": 9432,
      "survival": 9433,
      "governing": 9434,
      "delivery": 9435,
      "neighb": 9436,
      "Small": 9437,
      "Railways": 9438,
      "crossed": 9439,
      "regulated": 9440,
      "Joint": 9441,
      "murdered": 9442,
      "narr": 9443,
      "avalry": 9444,
      "astronomy": 9445,
      "preferred": 9446,
      "Miller": 9447,
      "coalition": 9448,
      "Industrial": 9449,
      "Ukraine": 9450,
      "chapter": 9451,
      "accurate": 9452,
      "Lenin": 9453,
      "Similarly": 9454,
      "Administration": 9455,
      "criteria": 9456,
      "casualties": 9457,
      "relevant": 9458,
      "Constantinople": 9459,
      "Twenty": 9460,
      "79": 9461,
      "82": 9462,
      "BN": 9463,
      "Back": 9464,
      "Bog": 9465,
      "Clim": 9466,
      "Down": 9467,
      "Daw": 9468,
      "ER": 9469,
      "Gall": 9470,
      "Kir": 9471,
      "Lis": 9472,
      "Nich": 9473,
      "Naw": 9474,
      "PM": 9475,
      "Rog": 9476,
      "Software": 9477,
      "Turn": 9478,
      "UE": 9479,
      "bish": 9480,
      "catal": 9481,
      "distan": 9482,
      "fol": 9483,
      "moun": 9484,
      "phe": 9485,
      "pup": 9486,
      "tub": 9487,
      "ticket": 9488,
      "tickets": 9489,
      "tropical": 9490,
      "wine": 9491,
      "yas": 9492,
      "inth": 9493,
      "inks": 9494,
      "enthus": 9495,
      "encing": 9496,
      "toll": 9497,
      "heim": 9498,
      "enters": 9499,
      "rog": 9500,
      "roots": 9501,
      "acid": 9502,
      "semin": 9503,
      "convin": 9504,
      "tram": 9505,
      "1922": 9506,
      "propri": 9507,
      "prised": 9508,
      "supre": 9509,
      "lip": 9510,
      "liqu": 9511,
      "anger": 9512,
      "logo": 9513,
      "compreh": 9514,
      "itional": 9515,
      "mines": 9516,
      "efficient": 9517,
      "kness": 9518,
      "amps": 9519,
      "parent": 9520,
      "Deput": 9521,
      "numer": 9522,
      "developers": 9523,
      "invention": 9524,
      "guards": 9525,
      "Shia": 9526,
      "appeal": 9527,
      "nationalist": 9528,
      "designer": 9529,
      "generated": 9530,
      "aja": 9531,
      "authorized": 9532,
      "villagers": 9533,
      "Often": 9534,
      "involving": 9535,
      "Medic": 9536,
      "specified": 9537,
      "Germans": 9538,
      "habilit": 9539,
      "voting": 9540,
      "foreigners": 9541,
      "commitment": 9542,
      "renowned": 9543,
      "concerning": 9544,
      "Philadel": 9545,
      "Bern": 9546,
      "hotels": 9547,
      "instruction": 9548,
      "vania": 9549,
      "flags": 9550,
      "minorities": 9551,
      "wheel": 9552,
      "kinds": 9553,
      "Belg": 9554,
      "manufactured": 9555,
      "Disney": 9556,
      "divine": 9557,
      "Brazilian": 9558,
      "Donald": 9559,
      "testers": 9560,
      "Hyder": 9561,
      "pregnant": 9562,
      "junction": 9563,
      "enjoyed": 9564,
      "emphasis": 9565,
      "merchants": 9566,
      "Atlantic": 9567,
      "hypothesis": 9568,
      "intellectual": 9569,
      "surrender": 9570,
      "sustain": 9571,
      "Sudan": 9572,
      "conventional": 9573,
      "descendants": 9574,
      "random": 9575,
      "Eventually": 9576,
      "Philadelph": 9577,
      "6th": 9578,
      "Ath": 9579,
      "Cro": 9580,
      "DA": 9581,
      "Gi": 9582,
      "Les": 9583,
      "Last": 9584,
      "MC": 9585,
      "None": 9586,
      "RO": 9587,
      "Ret": 9588,
      "Shu": 9589,
      "Ut": 9590,
      "Vice": 9591,
      "Vide": 9592,
      "bone": 9593,
      "barri": 9594,
      "cable": 9595,
      "kers": 9596,
      "las": 9597,
      "yn": 9598,
      "theastern": 9599,
      "enor": 9600,
      "oro": 9601,
      "asters": 9602,
      "toured": 9603,
      "remo": 9604,
      "sters": 9605,
      "ado": 9606,
      "unsuccessful": 9607,
      "aga": 9608,
      "emperor": 9609,
      "otal": 9610,
      "apy": 9611,
      "prest": 9612,
      "elab": 9613,
      "essentially": 9614,
      "modi": 9615,
      "lik": 9616,
      "sized": 9617,
      "worn": 9618,
      "asts": 9619,
      "Chall": 9620,
      "ipur": 9621,
      "partition": 9622,
      "eva": 9623,
      "inea": 9624,
      "dissolved": 9625,
      "rah": 9626,
      "rahim": 9627,
      "coc": 9628,
      "keys": 9629,
      "regulation": 9630,
      "margin": 9631,
      "finish": 9632,
      "aired": 9633,
      "eenth": 9634,
      "consent": 9635,
      "extend": 9636,
      "ifications": 9637,
      "ificial": 9638,
      "170": 9639,
      "linois": 9640,
      "labels": 9641,
      "considers": 9642,
      "ashes": 9643,
      "missiles": 9644,
      "passage": 9645,
[...]
